{
  "version": "1.0",
  "truncation": null,
  "padding": null,
  "added_tokens": [
    {
      "id": 0,
      "content": "[PAD]",
      "single_word": false,
      "lstrip": false,
      "rstrip": false,
      "normalized": false,
      "special": true
    },
    {
      "id": 1,
      "content": "[UNK]",
      "single_word": false,
      "lstrip": false,
      "rstrip": false,
      "normalized": false,
      "special": true
    },
    {
      "id": 2,
      "content": "[CLS]",
      "single_word": false,
      "lstrip": false,
      "rstrip": false,
      "normalized": false,
      "special": true
    },
    {
      "id": 3,
      "content": "[SEP]",
      "single_word": false,
      "lstrip": false,
      "rstrip": false,
      "normalized": false,
      "special": true
    },
    {
      "id": 4,
      "content": "[MASK]",
      "single_word": false,
      "lstrip": false,
      "rstrip": false,
      "normalized": false,
      "special": true
    }
  ],
  "normalizer": {
    "type": "BertNormalizer",
    "clean_text": true,
    "handle_chinese_chars": true,
    "strip_accents": false,
    "lowercase": false
  },
  "pre_tokenizer": {
    "type": "BertPreTokenizer"
  },
  "post_processor": {
    "type": "TemplateProcessing",
    "single": [
      {
        "SpecialToken": {
          "id": "[CLS]",
          "type_id": 0
        }
      },
      {
        "Sequence": {
          "id": "A",
          "type_id": 0
        }
      },
      {
        "SpecialToken": {
          "id": "[SEP]",
          "type_id": 0
        }
      }
    ],
    "pair": [
      {
        "SpecialToken": {
          "id": "[CLS]",
          "type_id": 0
        }
      },
      {
        "Sequence": {
          "id": "A",
          "type_id": 0
        }
      },
      {
        "SpecialToken": {
          "id": "[SEP]",
          "type_id": 0
        }
      },
      {
        "Sequence": {
          "id": "B",
          "type_id": 1
        }
      },
      {
        "SpecialToken": {
          "id": "[SEP]",
          "type_id": 1
        }
      }
    ],
    "special_tokens": {
      "[CLS]": {
        "id": "[CLS]",
        "ids": [
          2
        ],
        "tokens": [
          "[CLS]"
        ]
      },
      "[SEP]": {
        "id": "[SEP]",
        "ids": [
          3
        ],
        "tokens": [
          "[SEP]"
        ]
      }
    }
  },
  "decoder": {
    "type": "WordPiece",
    "prefix": "##",
    "cleanup": true
  },
  "model": {
    "type": "WordPiece",
    "unk_token": "[UNK]",
    "continuing_subword_prefix": "##",
    "max_input_chars_per_word": 100,
    "vocab": {
      "[PAD]": 0,
      "[UNK]": 1,
      "[CLS]": 2,
      "[SEP]": 3,
      "[MASK]": 4,
      "[unused0]": 5,
      "[unused1]": 6,
      "[unused2]": 7,
      "[unused3]": 8,
      "[unused4]": 9,
      "[unused5]": 10,
      "[unused6]": 11,
      "[unused7]": 12,
      "[unused8]": 13,
      "[unused9]": 14,
      "[unused10]": 15,
      "[unused11]": 16,
      "[unused12]": 17,
      "[unused13]": 18,
      "[unused14]": 19,
      "[unused15]": 20,
      "[unused16]": 21,
      "[unused17]": 22,
      "[unused18]": 23,
      "[unused19]": 24,
      "[unused20]": 25,
      "[unused21]": 26,
      "[unused22]": 27,
      "[unused23]": 28,
      "[unused24]": 29,
      "[unused25]": 30,
      "[unused26]": 31,
      "[unused27]": 32,
      "[unused28]": 33,
      "[unused29]": 34,
      "[unused30]": 35,
      "[unused31]": 36,
      "[unused32]": 37,
      "[unused33]": 38,
      "[unused34]": 39,
      "[unused35]": 40,
      "[unused36]": 41,
      "[unused37]": 42,
      "[unused38]": 43,
      "[unused39]": 44,
      "[unused40]": 45,
      "[unused41]": 46,
      "[unused42]": 47,
      "[unused43]": 48,
      "[unused44]": 49,
      "[unused45]": 50,
      "[unused46]": 51,
      "[unused47]": 52,
      "[unused48]": 53,
      "[unused49]": 54,
      "[unused50]": 55,
      "[unused51]": 56,
      "[unused52]": 57,
      "[unused53]": 58,
      "[unused54]": 59,
      "[unused55]": 60,
      "[unused56]": 61,
      "[unused57]": 62,
      "[unused58]": 63,
      "[unused59]": 64,
      "[unused60]": 65,
      "[unused61]": 66,
      "[unused62]": 67,
      "[unused63]": 68,
      "[unused64]": 69,
      "[unused65]": 70,
      "[unused66]": 71,
      "[unused67]": 72,
      "[unused68]": 73,
      "[unused69]": 74,
      "[unused70]": 75,
      "[unused71]": 76,
      "[unused72]": 77,
      "[unused73]": 78,
      "[unused74]": 79,
      "[unused75]": 80,
      "[unused76]": 81,
      "[unused77]": 82,
      "[unused78]": 83,
      "[unused79]": 84,
      "[unused80]": 85,
      "[unused81]": 86,
      "[unused82]": 87,
      "[unused83]": 88,
      "[unused84]": 89,
      "[unused85]": 90,
      "[unused86]": 91,
      "[unused87]": 92,
      "[unused88]": 93,
      "[unused89]": 94,
      "[unused90]": 95,
      "[unused91]": 96,
      "[unused92]": 97,
      "[unused93]": 98,
      "[unused94]": 99,
      "[unused95]": 100,
      "[unused96]": 101,
      "[unused97]": 102,
      "[unused98]": 103,
      "[unused99]": 104,
      "!": 105,
      "\"": 106,
      "#": 107,
      "$": 108,
      "%": 109,
      "&": 110,
      "'": 111,
      "(": 112,
      ")": 113,
      "*": 114,
      "+": 115,
      ",": 116,
      "-": 117,
      ".": 118,
      "/": 119,
      "0": 120,
      "1": 121,
      "2": 122,
      "3": 123,
      "4": 124,
      "5": 125,
      "6": 126,
      "7": 127,
      "8": 128,
      "9": 129,
      ":": 130,
      ";": 131,
      "<": 132,
      "=": 133,
      ">": 134,
      "?": 135,
      "@": 136,
      "A": 137,
      "B": 138,
      "C": 139,
      "D": 140,
      "E": 141,
      "F": 142,
      "G": 143,
      "H": 144,
      "I": 145,
      "J": 146,
      "K": 147,
      "L": 148,
      "M": 149,
      "N": 150,
      "O": 151,
      "P": 152,
      "Q": 153,
      "R": 154,
      "S": 155,
      "T": 156,
      "U": 157,
      "V": 158,
      "W": 159,
      "X": 160,
      "Y": 161,
      "Z": 162,
      "[": 163,
      "\\": 164,
      "]": 165,
      "^": 166,
      "_": 167,
      "`": 168,
      "a": 169,
      "b": 170,
      "c": 171,
      "d": 172,
      "e": 173,
      "f": 174,
      "g": 175,
      "h": 176,
      "i": 177,
      "j": 178,
      "k": 179,
      "l": 180,
      "m": 181,
      "n": 182,
      "o": 183,
      "p": 184,
      "q": 185,
      "r": 186,
      "s": 187,
      "t": 188,
      "u": 189,
      "v": 190,
      "w": 191,
      "x": 192,
      "y": 193,
      "z": 194,
      "{": 195,
      "|": 196,
      "}": 197,
      "~": 198,
      "¢": 199,
      "£": 200,
      "¤": 201,
      "¥": 202,
      "¦": 203,
      "§": 204,
      "¨": 205,
      "©": 206,
      "ª": 207,
      "«": 208,
      "¬": 209,
      "®": 210,
      "¯": 211,
      "°": 212,
      "±": 213,
      "²": 214,
      "³": 215,
      "´": 216,
      "µ": 217,
      "·": 218,
      "¸": 219,
      "¹": 220,
      "º": 221,
      "»": 222,
      "¼": 223,
      "½": 224,
      "¾": 225,
      "¿": 226,
      "À": 227,
      "Á": 228,
      "Â": 229,
      "Ä": 230,
      "Å": 231,
      "Æ": 232,
      "Ç": 233,
      "È": 234,
      "É": 235,
      "Ê": 236,
      "Ë": 237,
      "Ì": 238,
      "Í": 239,
      "Î": 240,
      "Ð": 241,
      "Ñ": 242,
      "Ò": 243,
      "Ó": 244,
      "Ô": 245,
      "Ö": 246,
      "×": 247,
      "Ø": 248,
      "Ú": 249,
      "Ü": 250,
      "Ý": 251,
      "Þ": 252,
      "ß": 253,
      "à": 254,
      "á": 255,
      "â": 256,
      "ã": 257,
      "ä": 258,
      "å": 259,
      "æ": 260,
      "ç": 261,
      "è": 262,
      "é": 263,
      "ê": 264,
      "ë": 265,
      "ì": 266,
      "í": 267,
      "î": 268,
      "ï": 269,
      "ð": 270,
      "ñ": 271,
      "ò": 272,
      "ó": 273,
      "ô": 274,
      "õ": 275,
      "ö": 276,
      "÷": 277,
      "ø": 278,
      "ù": 279,
      "ú": 280,
      "û": 281,
      "ü": 282,
      "ý": 283,
      "þ": 284,
      "ÿ": 285,
      "ā": 286,
      "Ă": 287,
      "ă": 288,
      "ą": 289,
      "Ć": 290,
      "ć": 291,
      "Č": 292,
      "č": 293,
      "Đ": 294,
      "đ": 295,
      "ē": 296,
      "ė": 297,
      "ę": 298,
      "ě": 299,
      "ğ": 300,
      "ī": 301,
      "İ": 302,
      "ı": 303,
      "Ł": 304,
      "ł": 305,
      "ń": 306,
      "ň": 307,
      "ŋ": 308,
      "ō": 309,
      "ő": 310,
      "Œ": 311,
      "œ": 312,
      "ř": 313,
      "Ś": 314,
      "ś": 315,
      "Ş": 316,
      "ş": 317,
      "Š": 318,
      "š": 319,
      "ţ": 320,
      "ū": 321,
      "ů": 322,
      "ų": 323,
      "ź": 324,
      "ż": 325,
      "Ž": 326,
      "ž": 327,
      "ſ": 328,
      "ƒ": 329,
      "ư": 330,
      "ǫ": 331,
      "ș": 332,
      "ț": 333,
      "ə": 334,
      "ɛ": 335,
      "ɪ": 336,
      "ʼ": 337,
      "ˆ": 338,
      "ˈ": 339,
      "ː": 340,
      "˚": 341,
      "̀": 342,
      "́": 343,
      "̂": 344,
      "̃": 345,
      "̄": 346,
      "̇": 347,
      "̈": 348,
      "̊": 349,
      "̌": 350,
      "̧": 351,
      "̶": 352,
      "Α": 353,
      "Β": 354,
      "Γ": 355,
      "Δ": 356,
      "Ε": 357,
      "Η": 358,
      "Θ": 359,
      "Ι": 360,
      "Κ": 361,
      "Λ": 362,
      "Μ": 363,
      "Ν": 364,
      "Ο": 365,
      "Π": 366,
      "Σ": 367,
      "Τ": 368,
      "Φ": 369,
      "Ω": 370,
      "ά": 371,
      "έ": 372,
      "ή": 373,
      "ί": 374,
      "α": 375,
      "β": 376,
      "γ": 377,
      "δ": 378,
      "ε": 379,
      "ζ": 380,
      "η": 381,
      "θ": 382,
      "ι": 383,
      "κ": 384,
      "λ": 385,
      "μ": 386,
      "ν": 387,
      "ξ": 388,
      "ο": 389,
      "π": 390,
      "ρ": 391,
      "ς": 392,
      "σ": 393,
      "τ": 394,
      "υ": 395,
      "φ": 396,
      "χ": 397,
      "ψ": 398,
      "ω": 399,
      "ό": 400,
      "ύ": 401,
      "ώ": 402,
      "ϕ": 403,
      "А": 404,
      "Б": 405,
      "В": 406,
      "Г": 407,
      "Д": 408,
      "Е": 409,
      "З": 410,
      "И": 411,
      "К": 412,
      "Л": 413,
      "М": 414,
      "Н": 415,
      "О": 416,
      "П": 417,
      "Р": 418,
      "С": 419,
      "Т": 420,
      "У": 421,
      "Ф": 422,
      "Х": 423,
      "Э": 424,
      "Я": 425,
      "а": 426,
      "б": 427,
      "в": 428,
      "г": 429,
      "д": 430,
      "е": 431,
      "ж": 432,
      "з": 433,
      "и": 434,
      "й": 435,
      "к": 436,
      "л": 437,
      "м": 438,
      "н": 439,
      "о": 440,
      "п": 441,
      "р": 442,
      "с": 443,
      "т": 444,
      "у": 445,
      "ф": 446,
      "х": 447,
      "ц": 448,
      "ч": 449,
      "ш": 450,
      "щ": 451,
      "ъ": 452,
      "ы": 453,
      "ь": 454,
      "э": 455,
      "ю": 456,
      "я": 457,
      "ё": 458,
      "ѕ": 459,
      "і": 460,
      "ӓ": 461,
      "ӧ": 462,
      "א": 463,
      "ב": 464,
      "ה": 465,
      "ו": 466,
      "י": 467,
      "ל": 468,
      "מ": 469,
      "ע": 470,
      "ר": 471,
      "ת": 472,
      "،": 473,
      "ء": 474,
      "أ": 475,
      "إ": 476,
      "ئ": 477,
      "ا": 478,
      "ب": 479,
      "ة": 480,
      "ت": 481,
      "ث": 482,
      "ج": 483,
      "ح": 484,
      "خ": 485,
      "د": 486,
      "ذ": 487,
      "ر": 488,
      "ز": 489,
      "س": 490,
      "ش": 491,
      "ص": 492,
      "ض": 493,
      "ط": 494,
      "ظ": 495,
      "ع": 496,
      "غ": 497,
      "ف": 498,
      "ق": 499,
      "ك": 500,
      "ل": 501,
      "م": 502,
      "ن": 503,
      "ه": 504,
      "و": 505,
      "ى": 506,
      "ي": 507,
      "َ": 508,
      "ُ": 509,
      "ِ": 510,
      "ّ": 511,
      "ْ": 512,
      "ک": 513,
      "ی": 514,
      "ก": 515,
      "ข": 516,
      "ค": 517,
      "ง": 518,
      "จ": 519,
      "ช": 520,
      "ฐ": 521,
      "ณ": 522,
      "ด": 523,
      "ต": 524,
      "ถ": 525,
      "ท": 526,
      "น": 527,
      "บ": 528,
      "ป": 529,
      "พ": 530,
      "ม": 531,
      "ย": 532,
      "ร": 533,
      "ล": 534,
      "ว": 535,
      "ส": 536,
      "ห": 537,
      "อ": 538,
      "ะ": 539,
      "ั": 540,
      "า": 541,
      "ำ": 542,
      "ิ": 543,
      "ี": 544,
      "ื": 545,
      "ุ": 546,
      "ู": 547,
      "เ": 548,
      "แ": 549,
      "โ": 550,
      "ใ": 551,
      "ไ": 552,
      "็": 553,
      "่": 554,
      "้": 555,
      "์": 556,
      "ღ": 557,
      "ᐈ": 558,
      "ế": 559,
      "ệ": 560,
      "ἐ": 561,
      "ὶ": 562,
      "ὸ": 563,
      "‐": 564,
      "‑": 565,
      "‒": 566,
      "–": 567,
      "—": 568,
      "―": 569,
      "‘": 570,
      "’": 571,
      "‚": 572,
      "‛": 573,
      "“": 574,
      "”": 575,
      "„": 576,
      "‟": 577,
      "†": 578,
      "‡": 579,
      "•": 580,
      "…": 581,
      "‰": 582,
      "′": 583,
      "″": 584,
      "‹": 585,
      "›": 586,
      "※": 587,
      "⁄": 588,
      "⁰": 589,
      "₂": 590,
      "€": 591,
      "℃": 592,
      "™": 593,
      "←": 594,
      "↑": 595,
      "→": 596,
      "↓": 597,
      "↩": 598,
      "⇒": 599,
      "∏": 600,
      "−": 601,
      "∗": 602,
      "∙": 603,
      "√": 604,
      "∞": 605,
      "∼": 606,
      "≈": 607,
      "≤": 608,
      "≥": 609,
      "⋅": 610,
      "⋆": 611,
      "─": 612,
      "│": 613,
      "■": 614,
      "□": 615,
      "▪": 616,
      "▫": 617,
      "▲": 618,
      "▶": 619,
      "▷": 620,
      "▸": 621,
      "►": 622,
      "▼": 623,
      "◄": 624,
      "◊": 625,
      "○": 626,
      "●": 627,
      "◦": 628,
      "◴": 629,
      "◾": 630,
      "☀": 631,
      "★": 632,
      "☆": 633,
      "☕": 634,
      "☺": 635,
      "☼": 636,
      "♀": 637,
      "♂": 638,
      "♕": 639,
      "♠": 640,
      "♡": 641,
      "♣": 642,
      "♥": 643,
      "♦": 644,
      "♪": 645,
      "♫": 646,
      "⚽": 647,
      "✅": 648,
      "✈": 649,
      "✌": 650,
      "✓": 651,
      "✔": 652,
      "✖": 653,
      "✡": 654,
      "✨": 655,
      "✿": 656,
      "❄": 657,
      "❣": 658,
      "❤": 659,
      "❥": 660,
      "❯": 661,
      "➔": 662,
      "➕": 663,
      "➜": 664,
      "➡": 665,
      "➤": 666,
      "⟶": 667,
      "⠀": 668,
      "⦁": 669,
      "⭐": 670,
      "、": 671,
      "。": 672,
      "【": 673,
      "】": 674,
      "〒": 675,
      "あ": 676,
      "い": 677,
      "う": 678,
      "お": 679,
      "か": 680,
      "が": 681,
      "き": 682,
      "く": 683,
      "け": 684,
      "こ": 685,
      "さ": 686,
      "し": 687,
      "す": 688,
      "そ": 689,
      "た": 690,
      "だ": 691,
      "ち": 692,
      "っ": 693,
      "て": 694,
      "で": 695,
      "と": 696,
      "な": 697,
      "に": 698,
      "の": 699,
      "は": 700,
      "ま": 701,
      "め": 702,
      "も": 703,
      "や": 704,
      "よ": 705,
      "ら": 706,
      "り": 707,
      "る": 708,
      "れ": 709,
      "を": 710,
      "ん": 711,
      "ア": 712,
      "ィ": 713,
      "イ": 714,
      "ウ": 715,
      "ェ": 716,
      "エ": 717,
      "オ": 718,
      "カ": 719,
      "キ": 720,
      "ク": 721,
      "グ": 722,
      "コ": 723,
      "サ": 724,
      "シ": 725,
      "ジ": 726,
      "ス": 727,
      "ズ": 728,
      "セ": 729,
      "タ": 730,
      "ダ": 731,
      "チ": 732,
      "ッ": 733,
      "ツ": 734,
      "テ": 735,
      "デ": 736,
      "ト": 737,
      "ド": 738,
      "ナ": 739,
      "ニ": 740,
      "ネ": 741,
      "バ": 742,
      "パ": 743,
      "ビ": 744,
      "フ": 745,
      "ブ": 746,
      "プ": 747,
      "ホ": 748,
      "マ": 749,
      "ム": 750,
      "メ": 751,
      "ャ": 752,
      "ュ": 753,
      "ラ": 754,
      "リ": 755,
      "ル": 756,
      "レ": 757,
      "ロ": 758,
      "ン": 759,
      "・": 760,
      "ー": 761,
      "一": 762,
      "上": 763,
      "下": 764,
      "不": 765,
      "东": 766,
      "个": 767,
      "中": 768,
      "为": 769,
      "主": 770,
      "之": 771,
      "也": 772,
      "了": 773,
      "于": 774,
      "交": 775,
      "京": 776,
      "人": 777,
      "他": 778,
      "以": 779,
      "们": 780,
      "会": 781,
      "但": 782,
      "位": 783,
      "住": 784,
      "体": 785,
      "作": 786,
      "你": 787,
      "便": 788,
      "入": 789,
      "全": 790,
      "公": 791,
      "内": 792,
      "净": 793,
      "出": 794,
      "分": 795,
      "切": 796,
      "利": 797,
      "到": 798,
      "前": 799,
      "北": 800,
      "区": 801,
      "南": 802,
      "去": 803,
      "友": 804,
      "可": 805,
      "台": 806,
      "号": 807,
      "合": 808,
      "和": 809,
      "品": 810,
      "喜": 811,
      "回": 812,
      "国": 813,
      "在": 814,
      "地": 815,
      "场": 816,
      "城": 817,
      "場": 818,
      "外": 819,
      "多": 820,
      "大": 821,
      "天": 822,
      "她": 823,
      "好": 824,
      "如": 825,
      "子": 826,
      "它": 827,
      "安": 828,
      "完": 829,
      "定": 830,
      "客": 831,
      "室": 832,
      "家": 833,
      "宿": 834,
      "寓": 835,
      "对": 836,
      "小": 837,
      "就": 838,
      "屋": 839,
      "山": 840,
      "市": 841,
      "常": 842,
      "干": 843,
      "店": 844,
      "建": 845,
      "当": 846,
      "很": 847,
      "得": 848,
      "心": 849,
      "快": 850,
      "情": 851,
      "感": 852,
      "我": 853,
      "房": 854,
      "所": 855,
      "推": 856,
      "提": 857,
      "文": 858,
      "斯": 859,
      "新": 860,
      "方": 861,
      "旅": 862,
      "日": 863,
      "时": 864,
      "是": 865,
      "時": 866,
      "景": 867,
      "最": 868,
      "有": 869,
      "服": 870,
      "本": 871,
      "机": 872,
      "来": 873,
      "東": 874,
      "果": 875,
      "次": 876,
      "欢": 877,
      "比": 878,
      "水": 879,
      "没": 880,
      "海": 881,
      "温": 882,
      "点": 883,
      "物": 884,
      "特": 885,
      "理": 886,
      "生": 887,
      "用": 888,
      "町": 889,
      "留": 890,
      "的": 891,
      "真": 892,
      "私": 893,
      "空": 894,
      "站": 895,
      "置": 896,
      "美": 897,
      "能": 898,
      "自": 899,
      "舒": 900,
      "良": 901,
      "花": 902,
      "行": 903,
      "街": 904,
      "西": 905,
      "要": 906,
      "語": 907,
      "设": 908,
      "谢": 909,
      "超": 910,
      "路": 911,
      "车": 912,
      "近": 913,
      "还": 914,
      "这": 915,
      "适": 916,
      "通": 917,
      "道": 918,
      "部": 919,
      "都": 920,
      "酒": 921,
      "里": 922,
      "错": 923,
      "間": 924,
      "间": 925,
      "需": 926,
      "静": 927,
      "非": 928,
      "面": 929,
      "食": 930,
      "餐": 931,
      "馆": 932,
      "高": 933,
      "가": 934,
      "거": 935,
      "것": 936,
      "게": 937,
      "고": 938,
      "과": 939,
      "그": 940,
      "기": 941,
      "나": 942,
      "내": 943,
      "노": 944,
      "는": 945,
      "니": 946,
      "다": 947,
      "대": 948,
      "도": 949,
      "동": 950,
      "들": 951,
      "라": 952,
      "로": 953,
      "를": 954,
      "리": 955,
      "마": 956,
      "만": 957,
      "매": 958,
      "모": 959,
      "바": 960,
      "방": 961,
      "보": 962,
      "분": 963,
      "비": 964,
      "사": 965,
      "서": 966,
      "소": 967,
      "수": 968,
      "스": 969,
      "습": 970,
      "시": 971,
      "신": 972,
      "실": 973,
      "아": 974,
      "안": 975,
      "어": 976,
      "었": 977,
      "에": 978,
      "여": 979,
      "와": 980,
      "요": 981,
      "용": 982,
      "우": 983,
      "운": 984,
      "위": 985,
      "은": 986,
      "을": 987,
      "의": 988,
      "이": 989,
      "인": 990,
      "일": 991,
      "입": 992,
      "있": 993,
      "자": 994,
      "장": 995,
      "적": 996,
      "전": 997,
      "정": 998,
      "제": 999,
      "좋": 1000,
      "주": 1001,
      "지": 1002,
      "집": 1003,
      "치": 1004,
      "카": 1005,
      "트": 1006,
      "파": 1007,
      "편": 1008,
      "하": 1009,
      "한": 1010,
      "할": 1011,
      "합": 1012,
      "해": 1013,
      "했": 1014,
      "호": 1015,
      "ﬀ": 1016,
      "ﬁ": 1017,
      "ﬂ": 1018,
      "︎": 1019,
      "️": 1020,
      "！": 1021,
      "（": 1022,
      "）": 1023,
      "，": 1024,
      "￼": 1025,
      "🇩": 1026,
      "🇪": 1027,
      "🇰": 1028,
      "🇳": 1029,
      "🇴": 1030,
      "🇸": 1031,
      "🌞": 1032,
      "🌟": 1033,
      "🌸": 1034,
      "🌹": 1035,
      "🍀": 1036,
      "🎁": 1037,
      "🎄": 1038,
      "🎅": 1039,
      "🎉": 1040,
      "🏀": 1041,
      "🏆": 1042,
      "🏻": 1043,
      "🏼": 1044,
      "🏽": 1045,
      "👇": 1046,
      "👉": 1047,
      "👊": 1048,
      "👌": 1049,
      "👍": 1050,
      "👏": 1051,
      "💕": 1052,
      "💖": 1053,
      "💗": 1054,
      "💙": 1055,
      "💚": 1056,
      "💛": 1057,
      "💜": 1058,
      "💞": 1059,
      "💥": 1060,
      "💪": 1061,
      "📸": 1062,
      "🔥": 1063,
      "🔵": 1064,
      "🖤": 1065,
      "😀": 1066,
      "😁": 1067,
      "😂": 1068,
      "😃": 1069,
      "😄": 1070,
      "😅": 1071,
      "😆": 1072,
      "😇": 1073,
      "😉": 1074,
      "😊": 1075,
      "😋": 1076,
      "😍": 1077,
      "😎": 1078,
      "😔": 1079,
      "😕": 1080,
      "😘": 1081,
      "😛": 1082,
      "😜": 1083,
      "😡": 1084,
      "😢": 1085,
      "😬": 1086,
      "😭": 1087,
      "😮": 1088,
      "😱": 1089,
      "😳": 1090,
      "🙁": 1091,
      "🙂": 1092,
      "🙃": 1093,
      "🙄": 1094,
      "🙈": 1095,
      "🙌": 1096,
      "🙏": 1097,
      "🤔": 1098,
      "🤗": 1099,
      "🤞": 1100,
      "🤣": 1101,
      "🤩": 1102,
      "🤪": 1103,
      "🥰": 1104,
      "##j": 1105,
      "##ä": 1106,
      "##r": 1107,
      "##n": 1108,
      "##f": 1109,
      "##o": 1110,
      "##s": 1111,
      "##k": 1112,
      "##i": 1113,
      "##g": 1114,
      "##c": 1115,
      "##e": 1116,
      "##t": 1117,
      "##a": 1118,
      "##ð": 1119,
      "##m": 1120,
      "##ö": 1121,
      "##x": 1122,
      "##C": 1123,
      "##z": 1124,
      "##u": 1125,
      "##l": 1126,
      "##v": 1127,
      "##d": 1128,
      "##h": 1129,
      "##y": 1130,
      "##p": 1131,
      "##b": 1132,
      "##ø": 1133,
      "##å": 1134,
      "##是": 1135,
      "##房": 1136,
      "##东": 1137,
      "##还": 1138,
      "##推": 1139,
      "##一": 1140,
      "##个": 1141,
      "##可": 1142,
      "##以": 1143,
      "##行": 1144,
      "##的": 1145,
      "##地": 1146,
      "##方": 1147,
      "##G": 1148,
      "##O": 1149,
      "##N": 1150,
      "##B": 1151,
      "##R": 1152,
      "##Y": 1153,
      "##E": 1154,
      "##ó": 1155,
      "##æ": 1156,
      "##D": 1157,
      "##V": 1158,
      "##L": 1159,
      "##K": 1160,
      "##Ä": 1161,
      "##P": 1162,
      "##S": 1163,
      "##á": 1164,
      "##W": 1165,
      "##A": 1166,
      "##í": 1167,
      "##U": 1168,
      "##F": 1169,
      "##ú": 1170,
      "##1": 1171,
      "##6": 1172,
      "##3": 1173,
      "##0": 1174,
      "##8": 1175,
      "##I": 1176,
      "##M": 1177,
      "##Ø": 1178,
      "##5": 1179,
      "##2": 1180,
      "##J": 1181,
      "##q": 1182,
      "##è": 1183,
      "##H": 1184,
      "##4": 1185,
      "##7": 1186,
      "##9": 1187,
      "##w": 1188,
      "##す": 1189,
      "##て": 1190,
      "##の": 1191,
      "##キ": 1192,
      "##ャ": 1193,
      "##ビ": 1194,
      "##ン": 1195,
      "##を": 1196,
      "##し": 1197,
      "##ん": 1198,
      "##だ": 1199,
      "##T": 1200,
      "##Q": 1201,
      "##ý": 1202,
      "##Í": 1203,
      "##Ð": 1204,
      "##é": 1205,
      "##非": 1206,
      "##常": 1207,
      "##好": 1208,
      "##X": 1209,
      "##þ": 1210,
      "##Å": 1211,
      "##´": 1212,
      "##ü": 1213,
      "##ā": 1214,
      "##א": 1215,
      "##Ó": 1216,
      "##Ö": 1217,
      "##δ": 1218,
      "##ι": 1219,
      "##κ": 1220,
      "##λ": 1221,
      "##ν": 1222,
      "##γ": 1223,
      "##ε": 1224,
      "##̈": 1225,
      "##È": 1226,
      "##ί": 1227,
      "##π": 1228,
      "##ρ": 1229,
      "##о": 1230,
      "##д": 1231,
      "##е": 1232,
      "##р": 1233,
      "##ж": 1234,
      "##и": 1235,
      "##т": 1236,
      "##ê": 1237,
      "##Ú": 1238,
      "##Þ": 1239,
      "##α": 1240,
      "##ž": 1241,
      "##с": 1242,
      "##п": 1243,
      "##л": 1244,
      "##н": 1245,
      "##к": 1246,
      "##̊": 1247,
      "##а": 1248,
      "##ь": 1249,
      "##г": 1250,
      "##Æ": 1251,
      "##Z": 1252,
      "##ˈ": 1253,
      "##と": 1254,
      "##も": 1255,
      "##き": 1256,
      "##れ": 1257,
      "##い": 1258,
      "##で": 1259,
      "##良": 1260,
      "##部": 1261,
      "##屋": 1262,
      "##公": 1263,
      "##寓": 1264,
      "##本": 1265,
      "##干": 1266,
      "##净": 1267,
      "##ч": 1268,
      "##œ": 1269,
      "##É": 1270,
      "##Γ": 1271,
      "##ы": 1272,
      "##х": 1273,
      "##б": 1274,
      "##у": 1275,
      "##ф": 1276,
      "##й": 1277,
      "##â": 1278,
      "##ô": 1279,
      "##을": 1280,
      "##山": 1281,
      "##区": 1282,
      "##城": 1283,
      "##西": 1284,
      "##街": 1285,
      "##용": 1286,
      "##은": 1287,
      "##不": 1288,
      "##会": 1289,
      "##́": 1290,
      "##ī": 1291,
      "##ē": 1292,
      "##õ": 1293,
      "##ß": 1294,
      "##м": 1295,
      "##室": 1296,
      "##ş": 1297,
      "##î": 1298,
      "##û": 1299,
      "##ا": 1300,
      "##ل": 1301,
      "##ر": 1302,
      "##ق": 1303,
      "##ص": 1304,
      "##に": 1305,
      "##は": 1306,
      "##が": 1307,
      "##安": 1308,
      "##置": 1309,
      "##ì": 1310,
      "##대": 1311,
      "##전": 1312,
      "##시": 1313,
      "##β": 1314,
      "##餐": 1315,
      "##天": 1316,
      "##真": 1317,
      "##和": 1318,
      "##大": 1319,
      "##ع": 1320,
      "##ب": 1321,
      "##ي": 1322,
      "##家": 1323,
      "##č": 1324,
      "##超": 1325,
      "##市": 1326,
      "##동": 1327,
      "##ه": 1328,
      "##ز": 1329,
      "##د": 1330,
      "##خ": 1331,
      "##ن": 1332,
      "##م": 1333,
      "##Â": 1334,
      "##ё": 1335,
      "##Á": 1336,
      "##à": 1337,
      "##ı": 1338,
      "##я": 1339,
      "##ï": 1340,
      "##ー": 1341,
      "##ラ": 1342,
      "##ス": 1343,
      "##次": 1344,
      "##回": 1345,
      "##来": 1346,
      "##̧": 1347,
      "##̃": 1348,
      "##š": 1349,
      "##리": 1350,
      "##의": 1351,
      "##아": 1352,
      "##ç": 1353,
      "##ο": 1354,
      "##也": 1355,
      "##很": 1356,
      "##客": 1357,
      "##를": 1358,
      "##고": 1359,
      "##ة": 1360,
      "##さ": 1361,
      "##よ": 1362,
      "##う": 1363,
      "##な": 1364,
      "##ت": 1365,
      "##ی": 1366,
      "##้": 1367,
      "##อ": 1368,
      "##ง": 1369,
      "##ก": 1370,
      "##ว": 1371,
      "##า": 1372,
      "##ข": 1373,
      "##ή": 1374,
      "##σ": 1375,
      "##μ": 1376,
      "##ю": 1377,
      "##з": 1378,
      "##в": 1379,
      "##φ": 1380,
      "##ξ": 1381,
      "##ς": 1382,
      "##습": 1383,
      "##니": 1384,
      "##为": 1385,
      "##我": 1386,
      "##们": 1387,
      "##提": 1388,
      "##ř": 1389,
      "##人": 1390,
      "##Р": 1391,
      "##ć": 1392,
      "##ร": 1393,
      "##ะ": 1394,
      "##ย": 1395,
      "##ั": 1396,
      "##ล": 1397,
      "##ณ": 1398,
      "##ไ": 1399,
      "##ม": 1400,
      "##ต": 1401,
      "##ี": 1402,
      "##해": 1403,
      "##요": 1404,
      "##̄": 1405,
      "##ъ": 1406,
      "##タ": 1407,
      "##ニ": 1408,
      "##カ": 1409,
      "##オ": 1410,
      "##セ": 1411,
      "##ア": 1412,
      "##ナ": 1413,
      "##ב": 1414,
      "##め": 1415,
      "##在": 1416,
      "##た": 1417,
      "##Č": 1418,
      "##Ć": 1419,
      "##喜": 1420,
      "##欢": 1421,
      "##内": 1422,
      "##比": 1423,
      "##中": 1424,
      "##入": 1425,
      "##る": 1426,
      "##り": 1427,
      "##ま": 1428,
      "##ト": 1429,
      "##ル": 1430,
      "##і": 1431,
      "##أ": 1432,
      "##여": 1433,
      "##주": 1434,
      "##는": 1435,
      "##ุ": 1436,
      "##่": 1437,
      "##น": 1438,
      "##花": 1439,
      "##馆": 1440,
      "##ش": 1441,
      "##ł": 1442,
      "##シ": 1443,
      "##ェ": 1444,
      "##心": 1445,
      "##生": 1446,
      "##全": 1447,
      "##品": 1448,
      "##َ": 1449,
      "##ك": 1450,
      "##ُ": 1451,
      "##위": 1452,
      "##치": 1453,
      "##도": 1454,
      "##得": 1455,
      "##到": 1456,
      "##外": 1457,
      "##レ": 1458,
      "##あ": 1459,
      "##景": 1460,
      "##°": 1461,
      "##ś": 1462,
      "##南": 1463,
      "##美": 1464,
      "##食": 1465,
      "##っ": 1466,
      "##か": 1467,
      "##ロ": 1468,
      "##舒": 1469,
      "##适": 1470,
      "##ę": 1471,
      "##Ý": 1472,
      "##ﬁ": 1473,
      "##ñ": 1474,
      "##ッ": 1475,
      "##グ": 1476,
      "##や": 1477,
      "##旅": 1478,
      "##最": 1479,
      "##高": 1480,
      "##便": 1481,
      "##利": 1482,
      "##و": 1483,
      "##ف": 1484,
      "##ホ": 1485,
      "##テ": 1486,
      "##υ": 1487,
      "##ω": 1488,
      "##θ": 1489,
      "##ã": 1490,
      "##有": 1491,
      "##子": 1492,
      "##没": 1493,
      "##町": 1494,
      "##ح": 1495,
      "##ѕ": 1496,
      "##ό": 1497,
      "##東": 1498,
      "##ù": 1499,
      "##物": 1500,
      "##就": 1501,
      "##分": 1502,
      "##感": 1503,
      "##当": 1504,
      "##出": 1505,
      "##道": 1506,
      "##ц": 1507,
      "##Œ": 1508,
      "##ち": 1509,
      "##そ": 1510,
      "##サ": 1511,
      "##場": 1512,
      "##所": 1513,
      "##ą": 1514,
      "##ː": 1515,
      "##ə": 1516,
      "##س": 1517,
      "##ّ": 1518,
      "##海": 1519,
      "##酒": 1520,
      "##ク": 1521,
      "##ウ": 1522,
      "##時": 1523,
      "##間": 1524,
      "##店": 1525,
      "##ำ": 1526,
      "##บ": 1527,
      "##ใ": 1528,
      "##เ": 1529,
      "##ื": 1530,
      "##情": 1531,
      "##留": 1532,
      "##đ": 1533,
      "##비": 1534,
      "##에": 1535,
      "##用": 1536,
      "##新": 1537,
      "##路": 1538,
      "##ш": 1539,
      "##フ": 1540,
      "##ū": 1541,
      "##ō": 1542,
      "##了": 1543,
      "##下": 1544,
      "##近": 1545,
      "##ψ": 1546,
      "##机": 1547,
      "##上": 1548,
      "##로": 1549,
      "##인": 1550,
      "##게": 1551,
      "##ë": 1552,
      "##日": 1553,
      "##하": 1554,
      "##斯": 1555,
      "##ğ": 1556,
      "##ά": 1557,
      "##ò": 1558,
      "##ż": 1559,
      "##τ": 1560,
      "##ύ": 1561,
      "##特": 1562,
      "##国": 1563,
      "##服": 1564,
      "##交": 1565,
      "##通": 1566,
      "##谢": 1567,
      "##这": 1568,
      "##ŋ": 1569,
      "##体": 1570,
      "##理": 1571,
      "##했": 1572,
      "##她": 1573,
      "##다": 1574,
      "##间": 1575,
      "##都": 1576,
      "##기": 1577,
      "##空": 1578,
      "##ń": 1579,
      "##建": 1580,
      "##车": 1581,
      "##能": 1582,
      "##完": 1583,
      "##对": 1584,
      "##プ": 1585,
      "##小": 1586,
      "##パ": 1587,
      "##ィ": 1588,
      "##안": 1589,
      "##한": 1590,
      "##里": 1591,
      "##こ": 1592,
      "##ƒ": 1593,
      "##点": 1594,
      "##ė": 1595,
      "##η": 1596,
      "##果": 1597,
      "##你": 1598,
      "##要": 1599,
      "##พ": 1600,
      "##์": 1601,
      "##ท": 1602,
      "##ج": 1603,
      "##自": 1604,
      "##台": 1605,
      "##イ": 1606,
      "##水": 1607,
      "##く": 1608,
      "##가": 1609,
      "##와": 1610,
      "##错": 1611,
      "##Ε": 1612,
      "##χ": 1613,
      "##エ": 1614,
      "##ÿ": 1615,
      "##リ": 1616,
      "##ª": 1617,
      "##็": 1618,
      "##จ": 1619,
      "##ป": 1620,
      "##ſ": 1621,
      "##ถ": 1622,
      "##ă": 1623,
      "##Π": 1624,
      "##Α": 1625,
      "##Ν": 1626,
      "##Ι": 1627,
      "##Σ": 1628,
      "##щ": 1629,
      "##住": 1630,
      "##โ": 1631,
      "##ห": 1632,
      "##设": 1633,
      "##Д": 1634,
      "##Е": 1635,
      "##Т": 1636,
      "##แ": 1637,
      "##ิ": 1638,
      "##ค": 1639,
      "##ส": 1640,
      "##İ": 1641,
      "##ǫ": 1642,
      "##사": 1643,
      "##µ": 1644,
      "##ě": 1645,
      "##ู": 1646,
      "##מ": 1647,
      "##ע": 1648,
      "##ו": 1649,
      "##י": 1650,
      "##マ": 1651,
      "##ズ": 1652,
      "##ض": 1653,
      "##ʼ": 1654,
      "##έ": 1655,
      "##ْ": 1656,
      "##ِ": 1657,
      "##ط": 1658,
      "##デ": 1659,
      "##ュ": 1660,
      "##Ü": 1661,
      "##ų": 1662,
      "##快": 1663,
      "##站": 1664,
      "##主": 1665,
      "##温": 1666,
      "##时": 1667,
      "##合": 1668,
      "##作": 1669,
      "##ת": 1670,
      "##ר": 1671,
      "##Š": 1672,
      "##Ο": 1673,
      "##ל": 1674,
      "##ﬀ": 1675,
      "##Τ": 1676,
      "##Ω": 1677,
      "##ț": 1678,
      "##面": 1679,
      "##多": 1680,
      "##ک": 1681,
      "##切": 1682,
      "##Ì": 1683,
      "##它": 1684,
      "##チ": 1685,
      "##바": 1686,
      "##일": 1687,
      "##카": 1688,
      "##라": 1689,
      "##이": 1690,
      "##트": 1691,
      "##ฐ": 1692,
      "##コ": 1693,
      "##お": 1694,
      "##ツ": 1695,
      "##ら": 1696,
      "##ő": 1697,
      "##С": 1698,
      "##私": 1699,
      "##지": 1700,
      "##과": 1701,
      "##Î": 1702,
      "##Ç": 1703,
      "##Ê": 1704,
      "##静": 1705,
      "##ώ": 1706,
      "##ド": 1707,
      "##定": 1708,
      "##Ñ": 1709,
      "##宿": 1710,
      "##ى": 1711,
      "##ด": 1712,
      "##ブ": 1713,
      "##ˆ": 1714,
      "##ジ": 1715,
      "##ئ": 1716,
      "##需": 1717,
      "##Ž": 1718,
      "##去": 1719,
      "##입": 1720,
      "##Б": 1721,
      "##У": 1722,
      "##나": 1723,
      "##마": 1724,
      "##호": 1725,
      "##스": 1726,
      "##Г": 1727,
      "##Ł": 1728,
      "##场": 1729,
      "##Ă": 1730,
      "##Ë": 1731,
      "##ɪ": 1732,
      "##前": 1733,
      "##ذ": 1734,
      "##語": 1735,
      "##友": 1736,
      "##如": 1737,
      "##신": 1738,
      "##位": 1739,
      "##ช": 1740,
      "##️": 1741,
      "##ה": 1742,
      "##거": 1743,
      "##北": 1744,
      "##之": 1745,
      "##̀": 1746,
      "##ɛ": 1747,
      "##방": 1748,
      "##メ": 1749,
      "##º": 1750,
      "##서": 1751,
      "##ム": 1752,
      "##Λ": 1753,
      "##Η": 1754,
      "##А": 1755,
      "##Ф": 1756,
      "##И": 1757,
      "##文": 1758,
      "##ث": 1759,
      "##보": 1760,
      "##け": 1761,
      "##ダ": 1762,
      "##있": 1763,
      "##À": 1764,
      "##于": 1765,
      "##우": 1766,
      "##었": 1767,
      "##합": 1768,
      "##ء": 1769,
      "##장": 1770,
      "##Н": 1771,
      "##غ": 1772,
      "##Л": 1773,
      "##만": 1774,
      "##ὸ": 1775,
      "##Ô": 1776,
      "##З": 1777,
      "##О": 1778,
      "##어": 1779,
      "##수": 1780,
      "##К": 1781,
      "##ظ": 1782,
      "##京": 1783,
      "##ů": 1784,
      "##他": 1785,
      "##Μ": 1786,
      "##ღ": 1787,
      "##ζ": 1788,
      "##̶": 1789,
      "##ネ": 1790,
      "##ư": 1791,
      "##Δ": 1792,
      "##إ": 1793,
      "##정": 1794,
      "##ӓ": 1795,
      "##³": 1796,
      "##ﬂ": 1797,
      "##ţ": 1798,
      "##자": 1799,
      "##̌": 1800,
      "##제": 1801,
      "##매": 1802,
      "##실": 1803,
      "##ź": 1804,
      "##̂": 1805,
      "##들": 1806,
      "##ș": 1807,
      "##ň": 1808,
      "##Β": 1809,
      "##号": 1810,
      "##운": 1811,
      "##소": 1812,
      "##²": 1813,
      "##但": 1814,
      "##バ": 1815,
      "##э": 1816,
      "##적": 1817,
      "##ế": 1818,
      "##노": 1819,
      "##В": 1820,
      "##파": 1821,
      "##할": 1822,
      "##내": 1823,
      "##ὶ": 1824,
      "##€": 1825,
      "##분": 1826,
      "##Ò": 1827,
      "##Ś": 1828,
      "##М": 1829,
      "##ӧ": 1830,
      "##Θ": 1831,
      "##Κ": 1832,
      "##Х": 1833,
      "##모": 1834,
      "##П": 1835,
      "##Φ": 1836,
      "##것": 1837,
      "##̇": 1838,
      "##편": 1839,
      "##ϕ": 1840,
      "##집": 1841,
      "##¤": 1842,
      "##Đ": 1843,
      "##✨": 1844,
      "##®": 1845,
      "##Ş": 1846,
      "##그": 1847,
      "##🇸": 1848,
      "##×": 1849,
      "##½": 1850,
      "##Я": 1851,
      "##£": 1852,
      "##ệ": 1853,
      "##❤": 1854,
      "##Э": 1855,
      "##¾": 1856,
      "##¼": 1857,
      "##좋": 1858,
      "##©": 1859,
      "##⚽": 1860,
      "##¥": 1861,
      "##🎉": 1862,
      "##ἐ": 1863,
      "##✔": 1864,
      "##🔵": 1865,
      "##🙂": 1866,
      "##│": 1867,
      "##√": 1868,
      "##¬": 1869,
      "##😀": 1870,
      "##🇰": 1871,
      "##∏": 1872,
      "##≤": 1873,
      "##🙌": 1874,
      "##🏻": 1875,
      "##⠀": 1876,
      "##😋": 1877,
      "##🏆": 1878,
      "##🏀": 1879,
      "##¹": 1880,
      "##😁": 1881,
      "##︎": 1882,
      "##✌": 1883,
      "##🇪": 1884,
      "##👊": 1885,
      "##💪": 1886,
      "##👍": 1887,
      "##¨": 1888,
      "##₂": 1889,
      "##🙏": 1890,
      "##📸": 1891,
      "##ᐈ": 1892,
      "##♥": 1893,
      "##💕": 1894,
      "##🎅": 1895,
      "##🎄": 1896,
      "##👏": 1897,
      "##♂": 1898,
      "##😍": 1899,
      "##🔥": 1900,
      "##er": 1901,
      "##en": 1902,
      "##ar": 1903,
      "##in": 1904,
      "##an": 1905,
      "##et": 1906,
      "##st": 1907,
      "##or": 1908,
      "##il": 1909,
      "##el": 1910,
      "##tt": 1911,
      "##ed": 1912,
      "##ig": 1913,
      "og": 1914,
      "##ing": 1915,
      "##om": 1916,
      "##al": 1917,
      "##on": 1918,
      "##sk": 1919,
      "##ra": 1920,
      "##ur": 1921,
      "##nd": 1922,
      "##es": 1923,
      "##ag": 1924,
      "##eg": 1925,
      "er": 1926,
      "til": 1927,
      "##ti": 1928,
      "##em": 1929,
      "en": 1930,
      "##ri": 1931,
      "##ll": 1932,
      "##de": 1933,
      "##kk": 1934,
      "for": 1935,
      "##re": 1936,
      "st": 1937,
      "##um": 1938,
      "##am": 1939,
      "på": 1940,
      "##un": 1941,
      "að": 1942,
      "##ið": 1943,
      "##ver": 1944,
      "##ör": 1945,
      "##na": 1946,
      "##ir": 1947,
      "##and": 1948,
      "##is": 1949,
      "sk": 1950,
      "##ter": 1951,
      "det": 1952,
      "med": 1953,
      "##te": 1954,
      "##ol": 1955,
      "##ch": 1956,
      "##ning": 1957,
      "som": 1958,
      "##ik": 1959,
      "in": 1960,
      "##pp": 1961,
      "##ta": 1962,
      "##la": 1963,
      "##id": 1964,
      "##le": 1965,
      "at": 1966,
      "av": 1967,
      "och": 1968,
      "##lig": 1969,
      "##it": 1970,
      "##ro": 1971,
      "##ne": 1972,
      "##at": 1973,
      "af": 1974,
      "har": 1975,
      "##inn": 1976,
      "20": 1977,
      "##as": 1978,
      "var": 1979,
      "##ør": 1980,
      "##að": 1981,
      "om": 1982,
      "##se": 1983,
      "##år": 1984,
      "##est": 1985,
      "den": 1986,
      "för": 1987,
      "##kt": 1988,
      "de": 1989,
      "##ær": 1990,
      "att": 1991,
      "##ck": 1992,
      "##der": 1993,
      "##li": 1994,
      "##är": 1995,
      "##ot": 1996,
      "##ru": 1997,
      "##ad": 1998,
      "##ef": 1999,
      "##ent": 2000,
      "##ang": 2001,
      "kan": 2002,
      "sam": 2003,
      "##ss": 2004,
      "##ak": 2005,
      "an": 2006,
      "##ere": 2007,
      "fra": 2008,
      "##lu": 2009,
      "sem": 2010,
      "kom": 2011,
      "du": 2012,
      "##af": 2013,
      "##ng": 2014,
      "fr": 2015,
      "##ens": 2016,
      "##ist": 2017,
      "##ess": 2018,
      "##ann": 2019,
      "##ve": 2020,
      "##kke": 2021,
      "ut": 2022,
      "ver": 2023,
      "201": 2024,
      "##us": 2025,
      "##ek": 2026,
      "##ul": 2027,
      "##und": 2028,
      "är": 2029,
      "##og": 2030,
      "##tion": 2031,
      "##od": 2032,
      "så": 2033,
      "Det": 2034,
      "##ell": 2035,
      "##ller": 2036,
      "##ok": 2037,
      "till": 2038,
      "vi": 2039,
      "sp": 2040,
      "der": 2041,
      "##yr": 2042,
      "##isk": 2043,
      "##ser": 2044,
      "hv": 2045,
      "##ill": 2046,
      "##ene": 2047,
      "##sl": 2048,
      "all": 2049,
      "##yg": 2050,
      "ikke": 2051,
      "##ort": 2052,
      "##jó": 2053,
      "##im": 2054,
      "##ende": 2055,
      "##itt": 2056,
      "um": 2057,
      "##end": 2058,
      "##ud": 2059,
      "##var": 2060,
      "##ger": 2061,
      "men": 2062,
      "##ast": 2063,
      "##for": 2064,
      "et": 2065,
      "##mer": 2066,
      "við": 2067,
      "##att": 2068,
      "ef": 2069,
      "##sp": 2070,
      "##av": 2071,
      "me": 2072,
      "##enn": 2073,
      "##het": 2074,
      "##ld": 2075,
      "##be": 2076,
      "fy": 2077,
      "##ði": 2078,
      "##ber": 2079,
      "##sen": 2080,
      "eller": 2081,
      "##ft": 2082,
      "##are": 2083,
      "##else": 2084,
      "##ska": 2085,
      "##nder": 2086,
      "##ge": 2087,
      "vil": 2088,
      "##ett": 2089,
      "må": 2090,
      "pro": 2091,
      "##nar": 2092,
      "##ja": 2093,
      "##ma": 2094,
      "##ks": 2095,
      "##rir": 2096,
      "##ins": 2097,
      "ekk": 2098,
      "bl": 2099,
      "með": 2100,
      "upp": 2101,
      "##ind": 2102,
      "hel": 2103,
      "##all": 2104,
      "##ni": 2105,
      "tr": 2106,
      "le": 2107,
      "##ark": 2108,
      "##så": 2109,
      "ett": 2110,
      "##00": 2111,
      "##ans": 2112,
      "man": 2113,
      "##ða": 2114,
      "##ut": 2115,
      "##ög": 2116,
      "##ord": 2117,
      "##os": 2118,
      "##ug": 2119,
      "år": 2120,
      "ud": 2121,
      "ekki": 2122,
      "fl": 2123,
      "##leg": 2124,
      "sv": 2125,
      "##art": 2126,
      "##iv": 2127,
      "##ste": 2128,
      "##gen": 2129,
      "##ov": 2130,
      "St": 2131,
      "be": 2132,
      "dag": 2133,
      "fyrir": 2134,
      "kon": 2135,
      "kr": 2136,
      "ar": 2137,
      "##ers": 2138,
      "and": 2139,
      "ny": 2140,
      "##jon": 2141,
      "al": 2142,
      "það": 2143,
      "##ví": 2144,
      "##já": 2145,
      "##än": 2146,
      "væ": 2147,
      "##igt": 2148,
      "##ust": 2149,
      "op": 2150,
      "sig": 2151,
      "##yn": 2152,
      "##sm": 2153,
      "##ér": 2154,
      "kl": 2155,
      "haf": 2156,
      "inn": 2157,
      "##ling": 2158,
      "bar": 2159,
      "over": 2160,
      "##je": 2161,
      "##op": 2162,
      "se": 2163,
      "##ull": 2164,
      "##ske": 2165,
      "jeg": 2166,
      "þess": 2167,
      "##ræ": 2168,
      "##men": 2169,
      "##ige": 2170,
      "##ätt": 2171,
      "19": 2172,
      "skal": 2173,
      "##eng": 2174,
      "fram": 2175,
      "##ic": 2176,
      "##lag": 2177,
      "##ier": 2178,
      "##hed": 2179,
      "##ður": 2180,
      "##ost": 2181,
      "gj": 2182,
      "##del": 2183,
      "re": 2184,
      "##ede": 2185,
      "##ade": 2186,
      "##me": 2187,
      "ind": 2188,
      "##ert": 2189,
      "##vis": 2190,
      "##ab": 2191,
      "##hol": 2192,
      "##ke": 2193,
      "Vi": 2194,
      "##ob": 2195,
      "##ygg": 2196,
      "no": 2197,
      "##äl": 2198,
      "##rå": 2199,
      "##he": 2200,
      "##ande": 2201,
      "under": 2202,
      "##ald": 2203,
      "jag": 2204,
      "##inu": 2205,
      "því": 2206,
      "seg": 2207,
      "opp": 2208,
      "inte": 2209,
      "##ler": 2210,
      "10": 2211,
      "##ka": 2212,
      "hef": 2213,
      "få": 2214,
      "##ker": 2215,
      "##org": 2216,
      "##jer": 2217,
      "tid": 2218,
      "##ring": 2219,
      "##tiv": 2220,
      "or": 2221,
      "##ina": 2222,
      "##dag": 2223,
      "ved": 2224,
      "også": 2225,
      "han": 2226,
      "##ip": 2227,
      "##ap": 2228,
      "##den": 2229,
      "##ån": 2230,
      "##uð": 2231,
      "of": 2232,
      "##ant": 2233,
      "##ikt": 2234,
      "þe": 2235,
      "##ine": 2236,
      "kun": 2237,
      "En": 2238,
      "##ild": 2239,
      "Sk": 2240,
      "##andi": 2241,
      "##eb": 2242,
      "##sta": 2243,
      "del": 2244,
      "##itet": 2245,
      "200": 2246,
      "my": 2247,
      "hj": 2248,
      "ble": 2249,
      "##bet": 2250,
      "##æg": 2251,
      "##ts": 2252,
      "##ering": 2253,
      "##num": 2254,
      "mer": 2255,
      "##eld": 2256,
      "bli": 2257,
      "##uk": 2258,
      "he": 2259,
      "##ík": 2260,
      "##net": 2261,
      "ég": 2262,
      "##tir": 2263,
      "##ligt": 2264,
      "##tal": 2265,
      "ha": 2266,
      "##för": 2267,
      "end": 2268,
      "##åg": 2269,
      "##bl": 2270,
      "pr": 2271,
      "##ál": 2272,
      "##tid": 2273,
      "god": 2274,
      "##if": 2275,
      "bru": 2276,
      "bet": 2277,
      "In": 2278,
      "##per": 2279,
      "For": 2280,
      "gr": 2281,
      "sí": 2282,
      "##of": 2283,
      "kv": 2284,
      "##opp": 2285,
      "##ie": 2286,
      "være": 2287,
      "##ation": 2288,
      "##ion": 2289,
      "##elig": 2290,
      "##ðar": 2291,
      "sl": 2292,
      "sel": 2293,
      "##ikk": 2294,
      "##mun": 2295,
      "##ram": 2296,
      "efter": 2297,
      "sm": 2298,
      "min": 2299,
      "reg": 2300,
      "Den": 2301,
      "12": 2302,
      "ma": 2303,
      "##arf": 2304,
      "##yk": 2305,
      "br": 2306,
      "##da": 2307,
      "##ven": 2308,
      "før": 2309,
      "##ningen": 2310,
      "##jö": 2311,
      "##lan": 2312,
      "pri": 2313,
      "eru": 2314,
      "stor": 2315,
      "hver": 2316,
      "##ange": 2317,
      "##ns": 2318,
      "hann": 2319,
      "lag": 2320,
      "ve": 2321,
      "##ds": 2322,
      "##elt": 2323,
      "##ytt": 2324,
      "##lige": 2325,
      "från": 2326,
      "##ys": 2327,
      "##sson": 2328,
      "##ale": 2329,
      "##tr": 2330,
      "##äll": 2331,
      "##au": 2332,
      "##ner": 2333,
      "frá": 2334,
      "##els": 2335,
      "##enter": 2336,
      "##tur": 2337,
      "##ret": 2338,
      "##yd": 2339,
      "##øl": 2340,
      "##kv": 2341,
      "##erne": 2342,
      "##alt": 2343,
      "##ætt": 2344,
      "ein": 2345,
      "##etta": 2346,
      "11": 2347,
      "þá": 2348,
      "land": 2349,
      "hvor": 2350,
      "får": 2351,
      "##erson": 2352,
      "15": 2353,
      "##det": 2354,
      "De": 2355,
      "##ga": 2356,
      "##oll": 2357,
      "##egar": 2358,
      "##eder": 2359,
      "##ia": 2360,
      "##ól": 2361,
      "hefur": 2362,
      "##land": 2363,
      "##ott": 2364,
      "##ce": 2365,
      "kommer": 2366,
      "##get": 2367,
      "##yst": 2368,
      "##ket": 2369,
      "18": 2370,
      "##rum": 2371,
      "fin": 2372,
      "best": 2373,
      "##sb": 2374,
      "##iti": 2375,
      "##era": 2376,
      "her": 2377,
      "lä": 2378,
      "ser": 2379,
      "##æk": 2380,
      "vis": 2381,
      "bil": 2382,
      "sj": 2383,
      "##ara": 2384,
      "##ien": 2385,
      "beh": 2386,
      "vær": 2387,
      "##ass": 2388,
      "##áð": 2389,
      "Sp": 2390,
      "verið": 2391,
      "sé": 2392,
      "finn": 2393,
      "##gi": 2394,
      "##inni": 2395,
      "##ål": 2396,
      "An": 2397,
      "Men": 2398,
      "din": 2399,
      "to": 2400,
      "##lut": 2401,
      "da": 2402,
      "##jen": 2403,
      "eftir": 2404,
      "mot": 2405,
      "dig": 2406,
      "##ök": 2407,
      "##lega": 2408,
      "alle": 2409,
      "##ster": 2410,
      "meg": 2411,
      "vid": 2412,
      "ska": 2413,
      "##skap": 2414,
      "vor": 2415,
      "##jar": 2416,
      "vir": 2417,
      "##va": 2418,
      "##nu": 2419,
      "##kom": 2420,
      "þar": 2421,
      "##ningar": 2422,
      "##nings": 2423,
      "##vik": 2424,
      "##étt": 2425,
      "##ingar": 2426,
      "##elser": 2427,
      "sér": 2428,
      "mil": 2429,
      "##otell": 2430,
      "sid": 2431,
      "##di": 2432,
      "þeir": 2433,
      "##änd": 2434,
      "##anna": 2435,
      "Jeg": 2436,
      "selv": 2437,
      "##pr": 2438,
      "hafa": 2439,
      "##bej": 2440,
      "##ún": 2441,
      "##ðu": 2442,
      "ta": 2443,
      "##fer": 2444,
      "##æl": 2445,
      "##asjon": 2446,
      "mu": 2447,
      "##unn": 2448,
      "##ød": 2449,
      "##lass": 2450,
      "vel": 2451,
      "##ingen": 2452,
      "##jø": 2453,
      "tv": 2454,
      "##iske": 2455,
      "blir": 2456,
      "Ar": 2457,
      "##äm": 2458,
      "16": 2459,
      "14": 2460,
      "lig": 2461,
      "sin": 2462,
      "hand": 2463,
      "##sins": 2464,
      "13": 2465,
      "##ók": 2466,
      "##jór": 2467,
      "person": 2468,
      "res": 2469,
      "00": 2470,
      "##ari": 2471,
      "eða": 2472,
      "##ock": 2473,
      "##vet": 2474,
      "##ken": 2475,
      "frem": 2476,
      "##age": 2477,
      "##fir": 2478,
      "##æm": 2479,
      "bå": 2480,
      "##ång": 2481,
      "##ite": 2482,
      "17": 2483,
      "nu": 2484,
      "##sker": 2485,
      "##ars": 2486,
      "##pt": 2487,
      "##ember": 2488,
      "##ótt": 2489,
      "##ets": 2490,
      "##elsen": 2491,
      "Nor": 2492,
      "##ju": 2493,
      "út": 2494,
      "##rist": 2495,
      "30": 2496,
      "##ynd": 2497,
      "mig": 2498,
      "##hold": 2499,
      "##met": 2500,
      "##ER": 2501,
      "når": 2502,
      "gen": 2503,
      "mange": 2504,
      "tek": 2505,
      "##lar": 2506,
      "Re": 2507,
      "##sa": 2508,
      "##ide": 2509,
      "bara": 2510,
      "##ow": 2511,
      "kommun": 2512,
      "##æð": 2513,
      "##ninger": 2514,
      "ty": 2515,
      "dette": 2516,
      "##lf": 2517,
      "tilb": 2518,
      "andre": 2519,
      "mik": 2520,
      "##red": 2521,
      "lí": 2522,
      "##ega": 2523,
      "lø": 2524,
      "samt": 2525,
      "bed": 2526,
      "##öf": 2527,
      "##øre": 2528,
      "##ac": 2529,
      "Du": 2530,
      "denne": 2531,
      "##ial": 2532,
      "##atur": 2533,
      "dem": 2534,
      "##nt": 2535,
      "##kon": 2536,
      "inter": 2537,
      "när": 2538,
      "Það": 2539,
      "##ings": 2540,
      "##øy": 2541,
      "und": 2542,
      "##gang": 2543,
      "veg": 2544,
      "þetta": 2545,
      "##ika": 2546,
      "##ard": 2547,
      "svo": 2548,
      "##nir": 2549,
      "##raf": 2550,
      "helt": 2551,
      "skri": 2552,
      "##aður": 2553,
      "##äg": 2554,
      "Sam": 2555,
      "någ": 2556,
      "##skri": 2557,
      "##amp": 2558,
      "gru": 2559,
      "prod": 2560,
      "fer": 2561,
      "mell": 2562,
      "går": 2563,
      "##ire": 2564,
      "##vers": 2565,
      "etter": 2566,
      "má": 2567,
      "sag": 2568,
      "ans": 2569,
      "nog": 2570,
      "get": 2571,
      "úr": 2572,
      "##élag": 2573,
      "##ym": 2574,
      "##alg": 2575,
      "##sh": 2576,
      "##ulle": 2577,
      "Al": 2578,
      "##ack": 2579,
      "##sam": 2580,
      "##rar": 2581,
      "##ati": 2582,
      "här": 2583,
      "Der": 2584,
      "##ick": 2585,
      "##ten": 2586,
      "fyr": 2587,
      "##sv": 2588,
      "##ighet": 2589,
      "Ch": 2590,
      "Og": 2591,
      "mere": 2592,
      "hafi": 2593,
      "per": 2594,
      "ber": 2595,
      "##lem": 2596,
      "##øj": 2597,
      "form": 2598,
      "##beid": 2599,
      "la": 2600,
      "##oliti": 2601,
      "bra": 2602,
      "##yt": 2603,
      "mark": 2604,
      "både": 2605,
      "##mar": 2606,
      "##ank": 2607,
      "All": 2608,
      "##kker": 2609,
      "bes": 2610,
      "##ansk": 2611,
      "##ub": 2612,
      "gang": 2613,
      "##tter": 2614,
      "allt": 2615,
      "gre": 2616,
      "##mel": 2617,
      "##pe": 2618,
      "lang": 2619,
      "##far": 2620,
      "Ég": 2621,
      "Hv": 2622,
      "##før": 2623,
      "##este": 2624,
      "alla": 2625,
      "eig": 2626,
      "##ode": 2627,
      "##hver": 2628,
      "##ön": 2629,
      "þegar": 2630,
      "mod": 2631,
      "där": 2632,
      "ak": 2633,
      "beg": 2634,
      "tre": 2635,
      "ger": 2636,
      "pla": 2637,
      "vin": 2638,
      "##set": 2639,
      "För": 2640,
      "##slag": 2641,
      "##br": 2642,
      "Fr": 2643,
      "##ór": 2644,
      "heim": 2645,
      "25": 2646,
      "##øb": 2647,
      "hå": 2648,
      "##old": 2649,
      "##rag": 2650,
      "##fe": 2651,
      "##ala": 2652,
      "Se": 2653,
      "över": 2654,
      "svar": 2655,
      "21": 2656,
      "skulle": 2657,
      "ár": 2658,
      "##emp": 2659,
      "##okk": 2660,
      "forsk": 2661,
      "vår": 2662,
      "##slu": 2663,
      "##kar": 2664,
      "sen": 2665,
      "##unum": 2666,
      "Kom": 2667,
      "##jör": 2668,
      "##hus": 2669,
      "##led": 2670,
      "##ager": 2671,
      "barn": 2672,
      "læ": 2673,
      "##ús": 2674,
      "##ille": 2675,
      "lok": 2676,
      "tí": 2677,
      "far": 2678,
      "the": 2679,
      "ned": 2680,
      "sjá": 2681,
      "yfir": 2682,
      "##oc": 2683,
      "##elle": 2684,
      "oss": 2685,
      "##átt": 2686,
      "22": 2687,
      "gå": 2688,
      "fri": 2689,
      "ex": 2690,
      "##up": 2691,
      "##ung": 2692,
      "flere": 2693,
      "Her": 2694,
      "Med": 2695,
      "ad": 2696,
      "hos": 2697,
      "Le": 2698,
      "##her": 2699,
      "alt": 2700,
      "##åd": 2701,
      "mat": 2702,
      "nær": 2703,
      "Jag": 2704,
      "##IN": 2705,
      "##vær": 2706,
      "##olog": 2707,
      "##let": 2708,
      "##otel": 2709,
      "##ester": 2710,
      "##reg": 2711,
      "##ita": 2712,
      "nor": 2713,
      "enn": 2714,
      "##øg": 2715,
      "##inger": 2716,
      "##bb": 2717,
      "ne": 2718,
      "ung": 2719,
      "nú": 2720,
      "##aka": 2721,
      "fle": 2722,
      "##borg": 2723,
      "sammen": 2724,
      "kunne": 2725,
      "godt": 2726,
      "##liga": 2727,
      "red": 2728,
      "Han": 2729,
      "job": 2730,
      "par": 2731,
      "mulig": 2732,
      "##fl": 2733,
      "2017": 2734,
      "##äng": 2735,
      "##nas": 2736,
      "Pro": 2737,
      "##ðum": 2738,
      "Ísl": 2739,
      "blev": 2740,
      "##ike": 2741,
      "##cer": 2742,
      "ný": 2743,
      "##som": 2744,
      "##rat": 2745,
      "leik": 2746,
      "##olk": 2747,
      "##rav": 2748,
      "##nes": 2749,
      "liv": 2750,
      "##rø": 2751,
      "finns": 2752,
      "nye": 2753,
      "by": 2754,
      "hjá": 2755,
      "enk": 2756,
      "hon": 2757,
      "bygg": 2758,
      "Mar": 2759,
      "På": 2760,
      "hotell": 2761,
      "##öm": 2762,
      "vara": 2763,
      "##pa": 2764,
      "##öra": 2765,
      "##æt": 2766,
      "hur": 2767,
      "Om": 2768,
      "Er": 2769,
      "##emm": 2770,
      "##lad": 2771,
      "leg": 2772,
      "mynd": 2773,
      "##hand": 2774,
      "##mark": 2775,
      "##over": 2776,
      "##bo": 2777,
      "##ff": 2778,
      "##io": 2779,
      "##eller": 2780,
      "##las": 2781,
      "##eter": 2782,
      "##EN": 2783,
      "gi": 2784,
      "##verk": 2785,
      "##gr": 2786,
      "##ment": 2787,
      "mest": 2788,
      "vill": 2789,
      "##oner": 2790,
      "bör": 2791,
      "##öl": 2792,
      "vera": 2793,
      "##ister": 2794,
      "##ykk": 2795,
      "Dan": 2796,
      "hún": 2797,
      "sä": 2798,
      "sitt": 2799,
      "nå": 2800,
      "##tat": 2801,
      "hans": 2802,
      "##rig": 2803,
      "##ont": 2804,
      "is": 2805,
      "Til": 2806,
      "##ec": 2807,
      "##sten": 2808,
      "##man": 2809,
      "##fi": 2810,
      "##cket": 2811,
      "##una": 2812,
      "##int": 2813,
      "sø": 2814,
      "ald": 2815,
      "23": 2816,
      "Vis": 2817,
      "anv": 2818,
      "ra": 2819,
      "Har": 2820,
      "##lev": 2821,
      "##rik": 2822,
      "bør": 2823,
      "Tr": 2824,
      "im": 2825,
      "full": 2826,
      "24": 2827,
      "arbet": 2828,
      "fast": 2829,
      "eg": 2830,
      "##jekt": 2831,
      "segir": 2832,
      "##ystem": 2833,
      "bor": 2834,
      "sn": 2835,
      "##gj": 2836,
      "ek": 2837,
      "mál": 2838,
      "##arna": 2839,
      "plan": 2840,
      "##unar": 2841,
      "100": 2842,
      "##kur": 2843,
      "eins": 2844,
      "##iner": 2845,
      "te": 2846,
      "##tik": 2847,
      "Jo": 2848,
      "led": 2849,
      "##olig": 2850,
      "2016": 2851,
      "##jóð": 2852,
      "eks": 2853,
      "kont": 2854,
      "bare": 2855,
      "tal": 2856,
      "lever": 2857,
      "ju": 2858,
      "##sf": 2859,
      "##tte": 2860,
      "eng": 2861,
      "verk": 2862,
      "þeim": 2863,
      "##yl": 2864,
      "kost": 2865,
      "##tak": 2866,
      "Ef": 2867,
      "##amil": 2868,
      "føl": 2869,
      "##stå": 2870,
      "vikt": 2871,
      "##ordan": 2872,
      "stað": 2873,
      "okk": 2874,
      "kund": 2875,
      "km": 2876,
      "gam": 2877,
      "fors": 2878,
      "##ib": 2879,
      "##tisk": 2880,
      "kj": 2881,
      "##öj": 2882,
      "fun": 2883,
      "##ou": 2884,
      "2018": 2885,
      "##berg": 2886,
      "des": 2887,
      "##pro": 2888,
      "síð": 2889,
      "##aði": 2890,
      "hele": 2891,
      "on": 2892,
      "arbej": 2893,
      "meget": 2894,
      "forb": 2895,
      "skol": 2896,
      "##form": 2897,
      "##ay": 2898,
      "##nn": 2899,
      "##ps": 2900,
      "Ne": 2901,
      "2015": 2902,
      "##æs": 2903,
      "sier": 2904,
      "ord": 2905,
      "000": 2906,
      "com": 2907,
      "styr": 2908,
      "##yld": 2909,
      "50": 2910,
      "næ": 2911,
      "##str": 2912,
      "##ands": 2913,
      "##unni": 2914,
      "##tag": 2915,
      "##hå": 2916,
      "lög": 2917,
      "då": 2918,
      "##dd": 2919,
      "ol": 2920,
      "##går": 2921,
      "##ón": 2922,
      "##alen": 2923,
      "##dom": 2924,
      "utan": 2925,
      "##agn": 2926,
      "##min": 2927,
      "##esta": 2928,
      "Så": 2929,
      "hun": 2930,
      "Dette": 2931,
      "##ats": 2932,
      "starf": 2933,
      "ná": 2934,
      "str": 2935,
      "##anns": 2936,
      "hav": 2937,
      "ret": 2938,
      "2019": 2939,
      "##fatt": 2940,
      "##alla": 2941,
      "##ook": 2942,
      "##blem": 2943,
      "lite": 2944,
      "sak": 2945,
      "ock": 2946,
      "fort": 2947,
      "##rið": 2948,
      "##pet": 2949,
      "##heten": 2950,
      "##vent": 2951,
      "##heter": 2952,
      "dis": 2953,
      "##kvæm": 2954,
      "också": 2955,
      "##res": 2956,
      "##ingu": 2957,
      "##ey": 2958,
      "voru": 2959,
      "verður": 2960,
      "##kl": 2961,
      "første": 2962,
      "##idt": 2963,
      "##ice": 2964,
      "##rer": 2965,
      "##äs": 2966,
      "mind": 2967,
      "##jár": 2968,
      "##jórn": 2969,
      "stør": 2970,
      "##ira": 2971,
      "##irk": 2972,
      "##nað": 2973,
      "##aler": 2974,
      "##anske": 2975,
      "##ín": 2976,
      "##ksom": 2977,
      "grund": 2978,
      "vå": 2979,
      "su": 2980,
      "##dö": 2981,
      "bre": 2982,
      "bæ": 2983,
      "set": 2984,
      "##val": 2985,
      "gra": 2986,
      "mycket": 2987,
      "hen": 2988,
      "2014": 2989,
      "hvis": 2990,
      "##gram": 2991,
      "fil": 2992,
      "ligger": 2993,
      "##akt": 2994,
      "##oto": 2995,
      "##ha": 2996,
      "även": 2997,
      "##jum": 2998,
      "##med": 2999,
      "##AN": 3000,
      "hér": 3001,
      "bak": 3002,
      "2013": 3003,
      "##uld": 3004,
      "##our": 3005,
      "##ors": 3006,
      "##20": 3007,
      "politi": 3008,
      "mål": 3009,
      "vä": 3010,
      "vegna": 3011,
      "inne": 3012,
      "noe": 3013,
      "##istor": 3014,
      "milli": 3015,
      "Ind": 3016,
      "##ennem": 3017,
      "siden": 3018,
      "##innar": 3019,
      "##iska": 3020,
      "##heder": 3021,
      "##styr": 3022,
      "syn": 3023,
      "##iður": 3024,
      "øn": 3025,
      "ly": 3026,
      "##vel": 3027,
      "Ny": 3028,
      "##itu": 3029,
      "##ona": 3030,
      "2012": 3031,
      "##veg": 3032,
      "##ót": 3033,
      "skip": 3034,
      "##iss": 3035,
      "##terna": 3036,
      "deg": 3037,
      "mér": 3038,
      "##lý": 3039,
      "Ber": 3040,
      "natur": 3041,
      "##ppen": 3042,
      "##delser": 3043,
      "områ": 3044,
      "##vs": 3045,
      "nem": 3046,
      "##fa": 3047,
      "tel": 3048,
      "gl": 3049,
      "tro": 3050,
      "##OR": 3051,
      "##by": 3052,
      "##íð": 3053,
      "##raft": 3054,
      "##adde": 3055,
      "##arl": 3056,
      "##ian": 3057,
      "##gan": 3058,
      "än": 3059,
      "##skol": 3060,
      "##tast": 3061,
      "##ris": 3062,
      "##afn": 3063,
      "Sver": 3064,
      "mun": 3065,
      "##tis": 3066,
      "##læg": 3067,
      "##endur": 3068,
      "dri": 3069,
      "##unkt": 3070,
      "Man": 3071,
      "199": 3072,
      "henn": 3073,
      "##jón": 3074,
      "rek": 3075,
      "nr": 3076,
      "##oð": 3077,
      "##ólk": 3078,
      "Hotel": 3079,
      "##oder": 3080,
      "##kken": 3081,
      "##ennom": 3082,
      "##rak": 3083,
      "fá": 3084,
      "##menn": 3085,
      "andra": 3086,
      "The": 3087,
      "##AR": 3088,
      "##ink": 3089,
      "##tið": 3090,
      "ann": 3091,
      "26": 3092,
      "store": 3093,
      "##ligere": 3094,
      "mar": 3095,
      "ingen": 3096,
      "##nad": 3097,
      "##iga": 3098,
      "##ilt": 3099,
      "27": 3100,
      "ch": 3101,
      "##ensk": 3102,
      "##ställ": 3103,
      "##par": 3104,
      "##óð": 3105,
      "##empel": 3106,
      "##bar": 3107,
      "28": 3108,
      "tur": 3109,
      "vet": 3110,
      "Ing": 3111,
      "He": 3112,
      "##stu": 3113,
      "noen": 3114,
      "tim": 3115,
      "##ST": 3116,
      "##ana": 3117,
      "##konom": 3118,
      "09": 3119,
      "##atte": 3120,
      "hug": 3121,
      "##öld": 3122,
      "hadde": 3123,
      "##anda": 3124,
      "##pper": 3125,
      "Kon": 3126,
      "##mation": 3127,
      "##føl": 3128,
      "einn": 3129,
      "##jöl": 3130,
      "vär": 3131,
      "áh": 3132,
      "##alitet": 3133,
      "##avn": 3134,
      "litt": 3135,
      "##ly": 3136,
      "##stö": 3137,
      "##ry": 3138,
      "##urder": 3139,
      "Th": 3140,
      "bú": 3141,
      "held": 3142,
      "##ms": 3143,
      "##jög": 3144,
      "##tivitet": 3145,
      "Be": 3146,
      "##iller": 3147,
      "ráð": 3148,
      "þeirra": 3149,
      "##bú": 3150,
      "dk": 3151,
      "##iser": 3152,
      "##inum": 3153,
      "Við": 3154,
      "deres": 3155,
      "##gt": 3156,
      "##arbej": 3157,
      "aug": 3158,
      "bu": 3159,
      "van": 3160,
      "skil": 3161,
      "##óttir": 3162,
      "rík": 3163,
      "th": 3164,
      "genom": 3165,
      "##meldelser": 3166,
      "##bru": 3167,
      "behand": 3168,
      "##ond": 3169,
      "##ultur": 3170,
      "lá": 3171,
      "##ægt": 3172,
      "forts": 3173,
      "produ": 3174,
      "##urs": 3175,
      "rund": 3176,
      "08": 3177,
      "##ileg": 3178,
      "##iden": 3179,
      "omdö": 3180,
      "þessu": 3181,
      "##iste": 3182,
      "##gre": 3183,
      "01": 3184,
      "29": 3185,
      "egen": 3186,
      "arbeid": 3187,
      "##egn": 3188,
      "##ligen": 3189,
      "ge": 3190,
      "##ró": 3191,
      "##ært": 3192,
      "##rid": 3193,
      "##edet": 3194,
      "have": 3195,
      "Ste": 3196,
      "kort": 3197,
      "##estaur": 3198,
      "40": 3199,
      "nok": 3200,
      "undir": 3201,
      "##urinn": 3202,
      "bland": 3203,
      "##dater": 3204,
      "2011": 3205,
      "hem": 3206,
      "##yll": 3207,
      "väl": 3208,
      "##ís": 3209,
      "##etag": 3210,
      "leið": 3211,
      "##ater": 3212,
      "stud": 3213,
      "##nat": 3214,
      "Norge": 3215,
      "ræ": 3216,
      "Br": 3217,
      "Gr": 3218,
      "##edan": 3219,
      "Sig": 3220,
      "##skip": 3221,
      "hvað": 3222,
      "US": 3223,
      "##gru": 3224,
      "bliver": 3225,
      "met": 3226,
      "el": 3227,
      "##stad": 3228,
      "##formation": 3229,
      "Da": 3230,
      "##ity": 3231,
      "Var": 3232,
      "mor": 3233,
      "##unnar": 3234,
      "problem": 3235,
      "samme": 3236,
      "##rett": 3237,
      "##ening": 3238,
      "##tivt": 3239,
      "gjennom": 3240,
      "vad": 3241,
      "Nord": 3242,
      "##ET": 3243,
      "tar": 3244,
      "##sd": 3245,
      "væri": 3246,
      "tíma": 3247,
      "hæ": 3248,
      "anmeldelser": 3249,
      "##bud": 3250,
      "vores": 3251,
      "##mi": 3252,
      "##äst": 3253,
      "Ut": 3254,
      "mø": 3255,
      "sol": 3256,
      "priser": 3257,
      "##lø": 3258,
      "##pla": 3259,
      "Krist": 3260,
      "mång": 3261,
      "##tek": 3262,
      "mis": 3263,
      "##vikling": 3264,
      "##öp": 3265,
      "Bl": 3266,
      "jan": 3267,
      "##sn": 3268,
      "hjem": 3269,
      "##ære": 3270,
      "famil": 3271,
      "##etter": 3272,
      "##kte": 3273,
      "##tioner": 3274,
      "stö": 3275,
      "jo": 3276,
      "##ella": 3277,
      "##rá": 3278,
      "off": 3279,
      "tra": 3280,
      "##iter": 3281,
      "rétt": 3282,
      "Som": 3283,
      "lu": 3284,
      "dess": 3285,
      "gode": 3286,
      "står": 3287,
      "##ign": 3288,
      "kli": 3289,
      "##lever": 3290,
      "##ýr": 3291,
      "##ustu": 3292,
      "pros": 3293,
      "sett": 3294,
      "hvordan": 3295,
      "hus": 3296,
      "##vend": 3297,
      "##uni": 3298,
      "fj": 3299,
      "##ðið": 3300,
      "##takt": 3301,
      "##cent": 3302,
      "hvil": 3303,
      "##anden": 3304,
      "##ikker": 3305,
      "##ons": 3306,
      "disse": 3307,
      "sjálf": 3308,
      "Ro": 3309,
      "mindre": 3310,
      "##bil": 3311,
      "##iet": 3312,
      "Bar": 3313,
      "skap": 3314,
      "##fek": 3315,
      "##tet": 3316,
      "07": 3317,
      "##gar": 3318,
      "##smål": 3319,
      "Læs": 3320,
      "lið": 3321,
      "öll": 3322,
      "2010": 3323,
      "fjár": 3324,
      "þau": 3325,
      "##skin": 3326,
      "fö": 3327,
      "##giv": 3328,
      "And": 3329,
      "31": 3330,
      "Hann": 3331,
      "##sjon": 3332,
      "þann": 3333,
      "##ræð": 3334,
      "##bygg": 3335,
      "htt": 3336,
      "##elige": 3337,
      "Fl": 3338,
      "##rev": 3339,
      "dire": 3340,
      "##egg": 3341,
      "##atter": 3342,
      "tilf": 3343,
      "##still": 3344,
      "mye": 3345,
      "þú": 3346,
      "##äk": 3347,
      "##heden": 3348,
      "eitt": 3349,
      "vært": 3350,
      "átt": 3351,
      "många": 3352,
      "hög": 3353,
      "göra": 3354,
      "##aste": 3355,
      "##ron": 3356,
      "ca": 3357,
      "Me": 3358,
      "Sta": 3359,
      "##stra": 3360,
      "mjög": 3361,
      "##skab": 3362,
      "##vice": 3363,
      "##óla": 3364,
      "##fri": 3365,
      "Joh": 3366,
      "fæ": 3367,
      "Per": 3368,
      "05": 3369,
      "hitt": 3370,
      "stad": 3371,
      "gör": 3372,
      "##öng": 3373,
      "sna": 3374,
      "fag": 3375,
      "Ma": 3376,
      "Þetta": 3377,
      "##klu": 3378,
      "##ore": 3379,
      "fall": 3380,
      "sý": 3381,
      "hald": 3382,
      "##ct": 3383,
      "fund": 3384,
      "okt": 3385,
      "06": 3386,
      "rett": 3387,
      "##elses": 3388,
      "spør": 3389,
      "hade": 3390,
      "byg": 3391,
      "##ww": 3392,
      "##ren": 3393,
      "inv": 3394,
      "bok": 3395,
      "##line": 3396,
      "själ": 3397,
      "##ænd": 3398,
      "##leik": 3399,
      "##vär": 3400,
      "produk": 3401,
      "verði": 3402,
      "kjø": 3403,
      "nokk": 3404,
      "hal": 3405,
      "Su": 3406,
      "##utom": 3407,
      "##äck": 3408,
      "apr": 3409,
      "##meld": 3410,
      "sy": 3411,
      "##stak": 3412,
      "ro": 3413,
      "folk": 3414,
      "##ðir": 3415,
      "##lys": 3416,
      "gennem": 3417,
      "##ive": 3418,
      "##agen": 3419,
      "sh": 3420,
      "##xt": 3421,
      "##emur": 3422,
      "##tæk": 3423,
      "resul": 3424,
      "medlem": 3425,
      "nett": 3426,
      "##iri": 3427,
      "vinn": 3428,
      "##akk": 3429,
      "##önd": 3430,
      "##ägg": 3431,
      "##ake": 3432,
      "viktig": 3433,
      "##fram": 3434,
      "detta": 3435,
      "www": 3436,
      "spel": 3437,
      "##veck": 3438,
      "höf": 3439,
      "ville": 3440,
      "gera": 3441,
      "03": 3442,
      "vand": 3443,
      "##van": 3444,
      "igen": 3445,
      "##ppe": 3446,
      "El": 3447,
      "##enger": 3448,
      "hol": 3449,
      "kän": 3450,
      "pris": 3451,
      "##urop": 3452,
      "##oved": 3453,
      "##entlig": 3454,
      "ig": 3455,
      "fólk": 3456,
      "menne": 3457,
      "Or": 3458,
      "##ue": 3459,
      "annar": 3460,
      "##rip": 3461,
      "mann": 3462,
      "##ON": 3463,
      "##gå": 3464,
      "##lýs": 3465,
      "##ele": 3466,
      "##óm": 3467,
      "IB": 3468,
      "Under": 3469,
      "innan": 3470,
      "##veit": 3471,
      "##ører": 3472,
      "##arer": 3473,
      "inst": 3474,
      "kor": 3475,
      "virk": 3476,
      "fara": 3477,
      "##øn": 3478,
      "##inga": 3479,
      "små": 3480,
      "mus": 3481,
      "använd": 3482,
      "##ong": 3483,
      "02": 3484,
      "##æng": 3485,
      "##ING": 3486,
      "félag": 3487,
      "kar": 3488,
      "hund": 3489,
      "##legg": 3490,
      "Läs": 3491,
      "bek": 3492,
      "##efnd": 3493,
      "04": 3494,
      "fyl": 3495,
      "##esten": 3496,
      "##ptember": 3497,
      "fe": 3498,
      "##anter": 3499,
      "olika": 3500,
      "inom": 3501,
      "hjäl": 3502,
      "##enda": 3503,
      "Hvis": 3504,
      "uten": 3505,
      "koma": 3506,
      "dra": 3507,
      "feb": 3508,
      "##ubl": 3509,
      "os": 3510,
      "##tar": 3511,
      "##ator": 3512,
      "##uss": 3513,
      "##du": 3514,
      "nytt": 3515,
      "##tu": 3516,
      "bo": 3517,
      "cm": 3518,
      "Foto": 3519,
      "stort": 3520,
      "val": 3521,
      "jobb": 3522,
      "##æði": 3523,
      "##anger": 3524,
      "ísl": 3525,
      "##tive": 3526,
      "##spro": 3527,
      "##ement": 3528,
      "##stand": 3529,
      "ur": 3530,
      "fått": 3531,
      "Af": 3532,
      "##one": 3533,
      "##dan": 3534,
      "##holm": 3535,
      "##ider": 3536,
      "derfor": 3537,
      "Sverige": 3538,
      "##ästa": 3539,
      "##fekt": 3540,
      "##ráð": 3541,
      "##håll": 3542,
      "##atten": 3543,
      "Ver": 3544,
      "##utt": 3545,
      "un": 3546,
      "Guð": 3547,
      "##ital": 3548,
      "fordi": 3549,
      "##ksjon": 3550,
      "Ud": 3551,
      "lå": 3552,
      "##ress": 3553,
      "ønsker": 3554,
      "grunn": 3555,
      "##øm": 3556,
      "##ila": 3557,
      "sedan": 3558,
      "##AT": 3559,
      "##ema": 3560,
      "##æld": 3561,
      "##ane": 3562,
      "mellom": 3563,
      "Ha": 3564,
      "saman": 3565,
      "2009": 3566,
      "minn": 3567,
      "##EL": 3568,
      "lit": 3569,
      "int": 3570,
      "##mið": 3571,
      "##pen": 3572,
      "##ise": 3573,
      "em": 3574,
      "##syn": 3575,
      "lov": 3576,
      "hlu": 3577,
      "minu": 3578,
      "pass": 3579,
      "kro": 3580,
      "organ": 3581,
      "35": 3582,
      "##stof": 3583,
      "noget": 3584,
      "##band": 3585,
      "##ED": 3586,
      "La": 3587,
      "Inn": 3588,
      "trä": 3589,
      "##okus": 3590,
      "Når": 3591,
      "niður": 3592,
      "virksom": 3593,
      "##osi": 3594,
      "ansvar": 3595,
      "45": 3596,
      "##vin": 3597,
      "høy": 3598,
      "råd": 3599,
      "bedre": 3600,
      "##jek": 3601,
      "mill": 3602,
      "tror": 3603,
      "brug": 3604,
      "taka": 3605,
      "start": 3606,
      "sätt": 3607,
      "##sel": 3608,
      "þó": 3609,
      "tag": 3610,
      "##mal": 3611,
      "fjöl": 3612,
      "vurder": 3613,
      "rätt": 3614,
      "##ensen": 3615,
      "##efn": 3616,
      "##ford": 3617,
      "histor": 3618,
      "##IL": 3619,
      "gjør": 3620,
      "lik": 3621,
      "möj": 3622,
      "tak": 3623,
      "Av": 3624,
      "bas": 3625,
      "##mann": 3626,
      "##nivers": 3627,
      "høj": 3628,
      "något": 3629,
      "omdömen": 3630,
      "ák": 3631,
      "två": 3632,
      "##kket": 3633,
      "rundt": 3634,
      "gener": 3635,
      "ditt": 3636,
      "Hel": 3637,
      "einhver": 3638,
      "##jud": 3639,
      "##vinn": 3640,
      "##igh": 3641,
      "##ksam": 3642,
      "september": 3643,
      "##orter": 3644,
      "sagði": 3645,
      "förs": 3646,
      "##änn": 3647,
      "komp": 3648,
      "behö": 3649,
      "##lug": 3650,
      "fak": 3651,
      "fal": 3652,
      "##ES": 3653,
      "gjort": 3654,
      "pas": 3655,
      "spec": 3656,
      "##íl": 3657,
      "##æti": 3658,
      "sc": 3659,
      "års": 3660,
      "##arbeid": 3661,
      "##fall": 3662,
      "##oms": 3663,
      "##hl": 3664,
      "okkur": 3665,
      "##cker": 3666,
      "valg": 3667,
      "dit": 3668,
      "##ork": 3669,
      "nya": 3670,
      "##tionen": 3671,
      "##gende": 3672,
      "slik": 3673,
      "langt": 3674,
      "information": 3675,
      "##områ": 3676,
      "##under": 3677,
      "Res": 3678,
      "stör": 3679,
      "tiden": 3680,
      "Reg": 3681,
      "##ktor": 3682,
      "Sel": 3683,
      "##illa": 3684,
      "enda": 3685,
      "mið": 3686,
      "##taf": 3687,
      "tekn": 3688,
      "po": 3689,
      "sek": 3690,
      "Ser": 3691,
      "kyn": 3692,
      "##ies": 3693,
      "##pport": 3694,
      "Dag": 3695,
      "##efon": 3696,
      "enkelt": 3697,
      "hva": 3698,
      "stjórn": 3699,
      "##endt": 3700,
      "##ach": 3701,
      "##bund": 3702,
      "behov": 3703,
      "rikt": 3704,
      "kri": 3705,
      "Ad": 3706,
      "þr": 3707,
      "hvort": 3708,
      "öð": 3709,
      "uden": 3710,
      "##oft": 3711,
      "Hotell": 3712,
      "##hv": 3713,
      "Sh": 3714,
      "##aren": 3715,
      "##tif": 3716,
      "aller": 3717,
      "##rif": 3718,
      "Ja": 3719,
      "sa": 3720,
      "##handling": 3721,
      "##jan": 3722,
      "##heim": 3723,
      "besk": 3724,
      "ben": 3725,
      "samf": 3726,
      "bro": 3727,
      "TV": 3728,
      "##ringer": 3729,
      "##dig": 3730,
      "##ellige": 3731,
      "##ski": 3732,
      "Kommun": 3733,
      "pres": 3734,
      "sine": 3735,
      "klar": 3736,
      "mån": 3737,
      "ul": 3738,
      "ekkert": 3739,
      "alltid": 3740,
      "##eldig": 3741,
      "bort": 3742,
      "##enh": 3743,
      "2020": 3744,
      "dom": 3745,
      "At": 3746,
      "Et": 3747,
      "##æn": 3748,
      "havde": 3749,
      "##jør": 3750,
      "##roll": 3751,
      "##ifter": 3752,
      "þur": 3753,
      "Reyk": 3754,
      "pa": 3755,
      "##røm": 3756,
      "##su": 3757,
      "ham": 3758,
      "##jur": 3759,
      "fær": 3760,
      "60": 3761,
      "tidligere": 3762,
      "bid": 3763,
      "forhold": 3764,
      "personer": 3765,
      "jafn": 3766,
      "ára": 3767,
      "juni": 3768,
      "hl": 3769,
      "vit": 3770,
      "komme": 3771,
      "hår": 3772,
      "fre": 3773,
      "##legt": 3774,
      "nov": 3775,
      "Að": 3776,
      "kvalitet": 3777,
      "##øk": 3778,
      "stof": 3779,
      "stø": 3780,
      "behandling": 3781,
      "kemur": 3782,
      "Nu": 3783,
      "há": 3784,
      "rum": 3785,
      "##tas": 3786,
      "post": 3787,
      "auk": 3788,
      "##til": 3789,
      "##ix": 3790,
      "fråg": 3791,
      "##bild": 3792,
      "fot": 3793,
      "fan": 3794,
      "via": 3795,
      "Upp": 3796,
      "##ich": 3797,
      "þessum": 3798,
      "##cka": 3799,
      "Danmark": 3800,
      "leng": 3801,
      "##kes": 3802,
      "været": 3803,
      "ener": 3804,
      "gång": 3805,
      "##él": 3806,
      "sik": 3807,
      "mid": 3808,
      "##nun": 3809,
      "##stru": 3810,
      "2008": 3811,
      "ter": 3812,
      "hvad": 3813,
      "##vat": 3814,
      "##arbet": 3815,
      "##ationer": 3816,
      "Osl": 3817,
      "hånd": 3818,
      "sum": 3819,
      "##mynd": 3820,
      "själv": 3821,
      "##enska": 3822,
      "##inar": 3823,
      "##øde": 3824,
      "einnig": 3825,
      "hefði": 3826,
      "ljó": 3827,
      "bel": 3828,
      "þær": 3829,
      "program": 3830,
      "##eret": 3831,
      "hjæl": 3832,
      "##lutt": 3833,
      "mikið": 3834,
      "sagt": 3835,
      "Land": 3836,
      "##tab": 3837,
      "kø": 3838,
      "##ober": 3839,
      "rej": 3840,
      "någon": 3841,
      "dine": 3842,
      "blog": 3843,
      "##ften": 3844,
      "stat": 3845,
      "##tidig": 3846,
      "erfar": 3847,
      "##yder": 3848,
      "mitt": 3849,
      "##unt": 3850,
      "##ule": 3851,
      "inden": 3852,
      "##agt": 3853,
      "system": 3854,
      "##lat": 3855,
      "##sted": 3856,
      "Bil": 3857,
      "ting": 3858,
      "säger": 3859,
      "mars": 3860,
      "gar": 3861,
      "##dann": 3862,
      "web": 3863,
      "borg": 3864,
      "haft": 3865,
      "lær": 3866,
      "sær": 3867,
      "klu": 3868,
      "mellan": 3869,
      "##vid": 3870,
      "menn": 3871,
      "##ingum": 3872,
      "mm": 3873,
      "##iz": 3874,
      "am": 3875,
      "36": 3876,
      "##xx": 3877,
      "##ära": 3878,
      "##kost": 3879,
      "fem": 3880,
      "##orde": 3881,
      "koll": 3882,
      "Min": 3883,
      "##má": 3884,
      "##entr": 3885,
      "##sport": 3886,
      "ni": 3887,
      "hela": 3888,
      "##elen": 3889,
      "lige": 3890,
      "dr": 3891,
      "gir": 3892,
      "##hj": 3893,
      "##obil": 3894,
      "kamp": 3895,
      "##sätt": 3896,
      "läng": 3897,
      "online": 3898,
      "##lað": 3899,
      "kontakt": 3900,
      "##ningu": 3901,
      "líka": 3902,
      "hu": 3903,
      "##egor": 3904,
      "okkar": 3905,
      "##lighet": 3906,
      "æt": 3907,
      "##gja": 3908,
      "##fil": 3909,
      "sö": 3910,
      "##avík": 3911,
      "mener": 3912,
      "gef": 3913,
      "##ips": 3914,
      "##lin": 3915,
      "Pri": 3916,
      "##okum": 3917,
      "fokus": 3918,
      "##ytte": 3919,
      "di": 3920,
      "##nig": 3921,
      "Denne": 3922,
      "##unk": 3923,
      "byr": 3924,
      "ven": 3925,
      "##bur": 3926,
      "##sla": 3927,
      "##bu": 3928,
      "vik": 3929,
      "id": 3930,
      "Oslo": 3931,
      "##úk": 3932,
      "##ætti": 3933,
      "##syk": 3934,
      "##erna": 3935,
      "##omm": 3936,
      "heldur": 3937,
      "##skriv": 3938,
      "kn": 3939,
      "ofte": 3940,
      "fisk": 3941,
      "Ex": 3942,
      "kunna": 3943,
      "maj": 3944,
      "Op": 3945,
      "áður": 3946,
      "mellem": 3947,
      "##nen": 3948,
      "les": 3949,
      "änd": 3950,
      "##sat": 3951,
      "##isert": 3952,
      "net": 3953,
      "Eng": 3954,
      "##erer": 3955,
      "blive": 3956,
      "kap": 3957,
      "##emi": 3958,
      "janu": 3959,
      "##ep": 3960,
      "##spunkt": 3961,
      "viser": 3962,
      "##svar": 3963,
      "fick": 3964,
      "##jórnar": 3965,
      "##sku": 3966,
      "företag": 3967,
      "kultur": 3968,
      "Þá": 3969,
      "##vej": 3970,
      "Mer": 3971,
      "geng": 3972,
      "hoved": 3973,
      "løs": 3974,
      "##oss": 3975,
      "EU": 3976,
      "pre": 3977,
      "##enge": 3978,
      "Sv": 3979,
      "maskin": 3980,
      "##ilega": 3981,
      "getur": 3982,
      "##AL": 3983,
      "Stock": 3984,
      "Ved": 3985,
      "##ran": 3986,
      "verða": 3987,
      "hægt": 3988,
      "##gifter": 3989,
      "kö": 3990,
      "lidt": 3991,
      "32": 3992,
      "##vil": 3993,
      "##tikk": 3994,
      "##lum": 3995,
      "maður": 3996,
      "honum": 3997,
      "##yp": 3998,
      "list": 3999,
      "feng": 4000,
      "##bef": 4001,
      "ríkis": 4002,
      "mens": 4003,
      "##öd": 4004,
      "##orn": 4005,
      "##les": 4006,
      "33": 4007,
      "mör": 4008,
      "prø": 4009,
      "fikk": 4010,
      "##lit": 4011,
      "klass": 4012,
      "Efter": 4013,
      "april": 4014,
      "##ategor": 4015,
      "nød": 4016,
      "måste": 4017,
      "##ferð": 4018,
      "pl": 4019,
      "##ras": 4020,
      "utveck": 4021,
      "När": 4022,
      "Te": 4023,
      "stand": 4024,
      "svona": 4025,
      "yr": 4026,
      "Europ": 4027,
      "kvar": 4028,
      "just": 4029,
      "##RI": 4030,
      "##edag": 4031,
      "några": 4032,
      "eld": 4033,
      "segja": 4034,
      "aktivitet": 4035,
      "ref": 4036,
      "mikil": 4037,
      "produkter": 4038,
      "##OM": 4039,
      "Vest": 4040,
      "##drag": 4041,
      "nogle": 4042,
      "Íslands": 4043,
      "##äd": 4044,
      "kre": 4045,
      "lav": 4046,
      "##ades": 4047,
      "##skar": 4048,
      "##ener": 4049,
      "första": 4050,
      "denna": 4051,
      "##sid": 4052,
      "##ah": 4053,
      "##po": 4054,
      "restaur": 4055,
      "##tere": 4056,
      "Ander": 4057,
      "##lla": 4058,
      "##jän": 4059,
      "##óp": 4060,
      "##sti": 4061,
      "verð": 4062,
      "##asta": 4063,
      "eksempel": 4064,
      "lång": 4065,
      "##mt": 4066,
      "##ith": 4067,
      "Køb": 4068,
      "##oden": 4069,
      "unders": 4070,
      "betal": 4071,
      "hold": 4072,
      "skriver": 4073,
      "videre": 4074,
      "##leið": 4075,
      "topp": 4076,
      "þannig": 4077,
      "##gång": 4078,
      "##holder": 4079,
      "null": 4080,
      "star": 4081,
      "Sm": 4082,
      "##nader": 4083,
      "##lekt": 4084,
      "##hald": 4085,
      "ev": 4086,
      "##list": 4087,
      "bag": 4088,
      "þessa": 4089,
      "disk": 4090,
      "kraft": 4091,
      "##ktur": 4092,
      "##fr": 4093,
      "varð": 4094,
      "þarf": 4095,
      "Alle": 4096,
      "Kan": 4097,
      "##aker": 4098,
      "ákv": 4099,
      "198": 4100,
      "Vil": 4101,
      "træ": 4102,
      "bill": 4103,
      "giver": 4104,
      "krav": 4105,
      "projekt": 4106,
      "##revet": 4107,
      "##fið": 4108,
      "##lägg": 4109,
      "soc": 4110,
      "annet": 4111,
      "##ood": 4112,
      "stund": 4113,
      "##isering": 4114,
      "##stjó": 4115,
      "##vir": 4116,
      "##part": 4117,
      "spill": 4118,
      "faktisk": 4119,
      "Bru": 4120,
      "##äller": 4121,
      "##ár": 4122,
      "veldig": 4123,
      "Stor": 4124,
      "tog": 4125,
      "##ologi": 4126,
      "trygg": 4127,
      "side": 4128,
      "Reykj": 4129,
      "##mentarer": 4130,
      "##igtig": 4131,
      "hvert": 4132,
      "lík": 4133,
      "##vert": 4134,
      "##isjon": 4135,
      "dog": 4136,
      "##asse": 4137,
      "varit": 4138,
      "Sol": 4139,
      "gør": 4140,
      "##ges": 4141,
      "##oen": 4142,
      "##kvæmt": 4143,
      "##plan": 4144,
      "##cc": 4145,
      "like": 4146,
      "USA": 4147,
      "sikker": 4148,
      "árið": 4149,
      "##sj": 4150,
      "kroner": 4151,
      "##ös": 4152,
      "##pu": 4153,
      "børn": 4154,
      "##fter": 4155,
      "tilbud": 4156,
      "heil": 4157,
      "Christ": 4158,
      "oktober": 4159,
      "ram": 4160,
      "større": 4161,
      "sinn": 4162,
      "##klar": 4163,
      "enkel": 4164,
      "##orna": 4165,
      "dagen": 4166,
      "Ak": 4167,
      "gjøre": 4168,
      "##stre": 4169,
      "##ej": 4170,
      "Till": 4171,
      "geta": 4172,
      "vann": 4173,
      "##nast": 4174,
      "##íu": 4175,
      "hlut": 4176,
      "stig": 4177,
      "sty": 4178,
      "##dagen": 4179,
      "##ette": 4180,
      "Jó": 4181,
      "åter": 4182,
      "##ame": 4183,
      "komið": 4184,
      "vok": 4185,
      "##ium": 4186,
      "bef": 4187,
      "ban": 4188,
      "##valg": 4189,
      "##ension": 4190,
      "##gør": 4191,
      "70": 4192,
      "mo": 4193,
      "##des": 4194,
      "##anum": 4195,
      "bilder": 4196,
      "80": 4197,
      "annat": 4198,
      "leder": 4199,
      "##bro": 4200,
      "##mál": 4201,
      "##öll": 4202,
      "##hvað": 4203,
      "undan": 4204,
      "mennesker": 4205,
      "aftur": 4206,
      "##ledning": 4207,
      "først": 4208,
      "##efni": 4209,
      "Ev": 4210,
      "skatt": 4211,
      "con": 4212,
      "##erk": 4213,
      "ren": 4214,
      "fór": 4215,
      "Ge": 4216,
      "sínum": 4217,
      "##igheter": 4218,
      "##50": 4219,
      "akt": 4220,
      "þessi": 4221,
      "halv": 4222,
      "rel": 4223,
      "##uleg": 4224,
      "Reykjavík": 4225,
      "34": 4226,
      "part": 4227,
      "##mat": 4228,
      "##elp": 4229,
      "##úar": 4230,
      "##ellt": 4231,
      "va": 4232,
      "gert": 4233,
      "gott": 4234,
      "##tra": 4235,
      "Här": 4236,
      "kaf": 4237,
      "##lo": 4238,
      "Sc": 4239,
      "##orer": 4240,
      "##lutning": 4241,
      "##naðar": 4242,
      "##qu": 4243,
      "##IT": 4244,
      "Hol": 4245,
      "verden": 4246,
      "##aly": 4247,
      "forskellige": 4248,
      "vilket": 4249,
      "verd": 4250,
      "##ags": 4251,
      "resultat": 4252,
      "##åt": 4253,
      "sinni": 4254,
      "http": 4255,
      "fantast": 4256,
      "november": 4257,
      "íslensk": 4258,
      "igjen": 4259,
      "siger": 4260,
      "økonom": 4261,
      "##öt": 4262,
      "##nis": 4263,
      "fly": 4264,
      "heller": 4265,
      "sama": 4266,
      "IN": 4267,
      "endur": 4268,
      "organis": 4269,
      "Mo": 4270,
      "2007": 4271,
      "##dóttir": 4272,
      "##rit": 4273,
      "august": 4274,
      "kvinn": 4275,
      "åt": 4276,
      "##tist": 4277,
      "produkt": 4278,
      "án": 4279,
      "AB": 4280,
      "##emt": 4281,
      "gó": 4282,
      "##vit": 4283,
      "Hj": 4284,
      "inf": 4285,
      "##duk": 4286,
      "sög": 4287,
      "året": 4288,
      "90": 4289,
      "mó": 4290,
      "plass": 4291,
      "rom": 4292,
      "##nal": 4293,
      "kal": 4294,
      "##kring": 4295,
      "Post": 4296,
      "##yrir": 4297,
      "alveg": 4298,
      "ab": 4299,
      "##lend": 4300,
      "vän": 4301,
      "Bo": 4302,
      "##KK": 4303,
      "##herra": 4304,
      "##hug": 4305,
      "##ebook": 4306,
      "þátt": 4307,
      "lagt": 4308,
      "fyrirtæk": 4309,
      "##essen": 4310,
      "##stur": 4311,
      "Fra": 4312,
      "##änder": 4313,
      "Sl": 4314,
      "Sch": 4315,
      "##iskt": 4316,
      "park": 4317,
      "blant": 4318,
      "siste": 4319,
      "effek": 4320,
      "Sigur": 4321,
      "tók": 4322,
      "##äv": 4323,
      "##ås": 4324,
      "stær": 4325,
      "38": 4326,
      "dec": 4327,
      "séu": 4328,
      "##acebook": 4329,
      "gjorde": 4330,
      "##rang": 4331,
      "hafði": 4332,
      "annars": 4333,
      "##gir": 4334,
      "eitthvað": 4335,
      "mater": 4336,
      "gegn": 4337,
      "nord": 4338,
      "##niversitet": 4339,
      "andet": 4340,
      "##illing": 4341,
      "39": 4342,
      "##opul": 4343,
      "##si": 4344,
      "Kl": 4345,
      "febru": 4346,
      "event": 4347,
      "våra": 4348,
      "##fest": 4349,
      "##fin": 4350,
      "jul": 4351,
      "alltaf": 4352,
      "bud": 4353,
      "##skyld": 4354,
      "meira": 4355,
      "##formasjon": 4356,
      "##alm": 4357,
      "##stæð": 4358,
      "##sett": 4359,
      "##beh": 4360,
      "jord": 4361,
      "síðan": 4362,
      "sommer": 4363,
      "##lek": 4364,
      "fär": 4365,
      "mín": 4366,
      "ner": 4367,
      "þing": 4368,
      "Nr": 4369,
      "##ppa": 4370,
      "Visa": 4371,
      "skyld": 4372,
      "vegar": 4373,
      "##endes": 4374,
      "föl": 4375,
      "Kr": 4376,
      "##nef": 4377,
      "500": 4378,
      "slut": 4379,
      "annað": 4380,
      "##annsók": 4381,
      "erb": 4382,
      "##stil": 4383,
      "spes": 4384,
      "##anse": 4385,
      "hoteller": 4386,
      "omfatt": 4387,
      "blevet": 4388,
      "fé": 4389,
      "hús": 4390,
      "stå": 4391,
      "slag": 4392,
      "##indelse": 4393,
      "##gu": 4394,
      "##tale": 4395,
      "##ård": 4396,
      "##anser": 4397,
      "hvernig": 4398,
      "Att": 4399,
      "auð": 4400,
      "upplýs": 4401,
      "morg": 4402,
      "##aga": 4403,
      "##inder": 4404,
      "komm": 4405,
      "vind": 4406,
      "##obb": 4407,
      "New": 4408,
      "konkur": 4409,
      "Fri": 4410,
      "37": 4411,
      "##upp": 4412,
      "55": 4413,
      "not": 4414,
      "##lysninger": 4415,
      "bild": 4416,
      "##ograf": 4417,
      "##skil": 4418,
      "##lade": 4419,
      "##ban": 4420,
      "dy": 4421,
      "sina": 4422,
      "Och": 4423,
      "blitt": 4424,
      "området": 4425,
      "##lands": 4426,
      "##tiske": 4427,
      "##ført": 4428,
      "##ish": 4429,
      "Les": 4430,
      "##mund": 4431,
      "##rek": 4432,
      "##idler": 4433,
      "##rån": 4434,
      "##sak": 4435,
      "moder": 4436,
      "meðal": 4437,
      "##jálf": 4438,
      "Par": 4439,
      "##rétt": 4440,
      "##uden": 4441,
      "spur": 4442,
      "##sætt": 4443,
      "##fess": 4444,
      "snar": 4445,
      "bolig": 4446,
      "Tra": 4447,
      "sted": 4448,
      "dyr": 4449,
      "idag": 4450,
      "##vn": 4451,
      "behöver": 4452,
      "hins": 4453,
      "##ph": 4454,
      "##igare": 4455,
      "Val": 4456,
      "præ": 4457,
      "funger": 4458,
      "##SK": 4459,
      "##ubli": 4460,
      "##lí": 4461,
      "svært": 4462,
      "film": 4463,
      "##öst": 4464,
      "Hur": 4465,
      "juli": 4466,
      "##bart": 4467,
      "omkring": 4468,
      "orð": 4469,
      "grein": 4470,
      "##tions": 4471,
      "##eins": 4472,
      "##mans": 4473,
      "##ighed": 4474,
      "##rateg": 4475,
      "##aller": 4476,
      "sli": 4477,
      "##står": 4478,
      "##visor": 4479,
      "mang": 4480,
      "##eligt": 4481,
      "##anska": 4482,
      "ST": 4483,
      "Stockholm": 4484,
      "skj": 4485,
      "bruk": 4486,
      "pol": 4487,
      "innen": 4488,
      "ví": 4489,
      "ute": 4490,
      "##enser": 4491,
      "ja": 4492,
      "dre": 4493,
      "norske": 4494,
      "tillegg": 4495,
      "tän": 4496,
      "ley": 4497,
      "##gift": 4498,
      "##igin": 4499,
      "##bol": 4500,
      "##byr": 4501,
      "##sikt": 4502,
      "intr": 4503,
      "Ty": 4504,
      "Opp": 4505,
      "##enta": 4506,
      "Detta": 4507,
      "bred": 4508,
      "##æll": 4509,
      "##eringen": 4510,
      "##skóla": 4511,
      "Pla": 4512,
      "dansk": 4513,
      "##stað": 4514,
      "fel": 4515,
      "##co": 4516,
      "rad": 4517,
      "teng": 4518,
      "inklu": 4519,
      "finde": 4520,
      "hag": 4521,
      "##anir": 4522,
      "Finn": 4523,
      "##råd": 4524,
      "##use": 4525,
      "kna": 4526,
      "God": 4527,
      "##visning": 4528,
      "##ummer": 4529,
      "lý": 4530,
      "eiga": 4531,
      "miljø": 4532,
      "greið": 4533,
      "kau": 4534,
      "ten": 4535,
      "hennar": 4536,
      "direkt": 4537,
      "Fil": 4538,
      "##AM": 4539,
      "na": 4540,
      "##olf": 4541,
      "allerede": 4542,
      "ris": 4543,
      "hopp": 4544,
      "##yck": 4545,
      "sá": 4546,
      "##enner": 4547,
      "##iver": 4548,
      "##uðu": 4549,
      "##endom": 4550,
      "##ðist": 4551,
      "hál": 4552,
      "##atisk": 4553,
      "dokum": 4554,
      "Hun": 4555,
      "nota": 4556,
      "##hús": 4557,
      "Vad": 4558,
      "ob": 4559,
      "##eren": 4560,
      "##ät": 4561,
      "##kvæmd": 4562,
      "insp": 4563,
      "peng": 4564,
      "psyk": 4565,
      "##ure": 4566,
      "Fin": 4567,
      "##gsmål": 4568,
      "liten": 4569,
      "##mála": 4570,
      "anbef": 4571,
      "test": 4572,
      "##als": 4573,
      "peri": 4574,
      "klart": 4575,
      "44": 4576,
      "##OL": 4577,
      "##ult": 4578,
      "##bær": 4579,
      "##ath": 4580,
      "Svar": 4581,
      "aldrig": 4582,
      "Björ": 4583,
      "197": 4584,
      "sex": 4585,
      "42": 4586,
      "situ": 4587,
      "##maður": 4588,
      "vej": 4589,
      "##vå": 4590,
      "##Ad": 4591,
      "data": 4592,
      "tilk": 4593,
      "Com": 4594,
      "altid": 4595,
      "##äder": 4596,
      "sit": 4597,
      "##ygt": 4598,
      "##sli": 4599,
      "41": 4600,
      "tru": 4601,
      "lille": 4602,
      "Københ": 4603,
      "##udag": 4604,
      "##bex": 4605,
      "Tor": 4606,
      "Inter": 4607,
      "Bra": 4608,
      "gøre": 4609,
      "##ID": 4610,
      "##len": 4611,
      "##ves": 4612,
      "##lus": 4613,
      "Eg": 4614,
      "##rei": 4615,
      "vide": 4616,
      "##che": 4617,
      "Ta": 4618,
      "Hún": 4619,
      "stem": 4620,
      "Co": 4621,
      "fik": 4622,
      "##andar": 4623,
      "ibex": 4624,
      "##ena": 4625,
      "##skapet": 4626,
      "spil": 4627,
      "46": 4628,
      "48": 4629,
      "##ham": 4630,
      "##ledes": 4631,
      "Alt": 4632,
      "##nads": 4633,
      "bästa": 4634,
      "##lagt": 4635,
      "##allet": 4636,
      "verksam": 4637,
      "Mark": 4638,
      "Ol": 4639,
      "prak": 4640,
      "hø": 4641,
      "bedste": 4642,
      "##son": 4643,
      "ke": 4644,
      "##yttet": 4645,
      "59": 4646,
      "dessa": 4647,
      "vinna": 4648,
      "fordel": 4649,
      "Ett": 4650,
      "flera": 4651,
      "Lu": 4652,
      "##ilitet": 4653,
      "anden": 4654,
      "synes": 4655,
      "ekstra": 4656,
      "aðeins": 4657,
      "app": 4658,
      "þjóð": 4659,
      "##AS": 4660,
      "##dition": 4661,
      "##port": 4662,
      "halda": 4663,
      "stk": 4664,
      "fleste": 4665,
      "##vr": 4666,
      "bad": 4667,
      "arbejde": 4668,
      "Mil": 4669,
      "##stæ": 4670,
      "fjer": 4671,
      "procent": 4672,
      "##rätt": 4673,
      "ga": 4674,
      "##elder": 4675,
      "ör": 4676,
      "##fær": 4677,
      "fø": 4678,
      "ætt": 4679,
      "regist": 4680,
      "sti": 4681,
      "fru": 4682,
      "##aks": 4683,
      "fire": 4684,
      "pra": 4685,
      "##öð": 4686,
      "mí": 4687,
      "engel": 4688,
      "43": 4689,
      "annan": 4690,
      "##pass": 4691,
      "utt": 4692,
      "##esser": 4693,
      "gratis": 4694,
      "##örð": 4695,
      "danske": 4696,
      "landet": 4697,
      "sko": 4698,
      "##inna": 4699,
      "funk": 4700,
      "##ydd": 4701,
      "49": 4702,
      "ej": 4703,
      "mand": 4704,
      "forbindelse": 4705,
      "kompet": 4706,
      "energi": 4707,
      "livet": 4708,
      "##bok": 4709,
      "300": 4710,
      "Um": 4711,
      "dæm": 4712,
      "##yrk": 4713,
      "mulighed": 4714,
      "Jan": 4715,
      "##jöld": 4716,
      "sú": 4717,
      "breyt": 4718,
      "stór": 4719,
      "fyrr": 4720,
      "minst": 4721,
      "##bla": 4722,
      "nødvend": 4723,
      "mobil": 4724,
      "##IG": 4725,
      "helst": 4726,
      "##ustri": 4727,
      "##reið": 4728,
      "samma": 4729,
      "bur": 4730,
      "##haf": 4731,
      "henni": 4732,
      "stora": 4733,
      "##øger": 4734,
      "ungdom": 4735,
      "Sven": 4736,
      "##vare": 4737,
      "minutter": 4738,
      "sveit": 4739,
      "betyd": 4740,
      "virkelig": 4741,
      "Em": 4742,
      "##änt": 4743,
      "##flokk": 4744,
      "##andet": 4745,
      "##varp": 4746,
      "kanske": 4747,
      "Del": 4748,
      "##ättre": 4749,
      "##fum": 4750,
      "unge": 4751,
      "##esp": 4752,
      "##ton": 4753,
      "##jast": 4754,
      "januar": 4755,
      "##ben": 4756,
      "##esse": 4757,
      "telefon": 4758,
      "##þing": 4759,
      "##pl": 4760,
      "##älj": 4761,
      "##eres": 4762,
      "##gerð": 4763,
      "Kar": 4764,
      "männ": 4765,
      "gäller": 4766,
      "farið": 4767,
      "##cel": 4768,
      "Fram": 4769,
      "stol": 4770,
      "##aget": 4771,
      "bank": 4772,
      "Gar": 4773,
      "posi": 4774,
      "##gg": 4775,
      "Car": 4776,
      "þér": 4777,
      "##fis": 4778,
      "##skrift": 4779,
      "2006": 4780,
      "áfram": 4781,
      "##fald": 4782,
      "Nå": 4783,
      "##ldigt": 4784,
      "##lingen": 4785,
      "AS": 4786,
      "##manna": 4787,
      "Tel": 4788,
      "hana": 4789,
      "flokk": 4790,
      "Facebook": 4791,
      "gær": 4792,
      "hurt": 4793,
      "öllum": 4794,
      "##sfor": 4795,
      "tæk": 4796,
      "##out": 4797,
      "alterna": 4798,
      "##inst": 4799,
      "##hop": 4800,
      "##iði": 4801,
      "sku": 4802,
      "##öte": 4803,
      "##væg": 4804,
      "##ino": 4805,
      "handler": 4806,
      "Þess": 4807,
      "ant": 4808,
      "Trip": 4809,
      "ställ": 4810,
      "Publ": 4811,
      "börn": 4812,
      "barna": 4813,
      "stadig": 4814,
      "##meldelse": 4815,
      "47": 4816,
      "##sket": 4817,
      "ákve": 4818,
      "læng": 4819,
      "sjuk": 4820,
      "##jú": 4821,
      "##lund": 4822,
      "sund": 4823,
      "Ra": 4824,
      "##splan": 4825,
      "##gum": 4826,
      "prosent": 4827,
      "tri": 4828,
      "##dere": 4829,
      "##ræn": 4830,
      "gamle": 4831,
      "##ight": 4832,
      "##ögum": 4833,
      "tot": 4834,
      "##laus": 4835,
      "##følge": 4836,
      "##fur": 4837,
      "lager": 4838,
      "##ili": 4839,
      "altså": 4840,
      "Tid": 4841,
      "finnst": 4842,
      "Þar": 4843,
      "eget": 4844,
      "foreld": 4845,
      "elever": 4846,
      "tekið": 4847,
      "kur": 4848,
      "svenska": 4849,
      "##vere": 4850,
      "ei": 4851,
      "##OK": 4852,
      "lin": 4853,
      "SE": 4854,
      "Gu": 4855,
      "Pr": 4856,
      "Restaur": 4857,
      "Dis": 4858,
      "Hen": 4859,
      "Sen": 4860,
      "vårt": 4861,
      "##út": 4862,
      "##ove": 4863,
      "##råk": 4864,
      "false": 4865,
      "musik": 4866,
      "ses": 4867,
      "kunder": 4868,
      "sat": 4869,
      "51": 4870,
      "##sdag": 4871,
      "75": 4872,
      "##iale": 4873,
      "##følg": 4874,
      "##naden": 4875,
      "##skrá": 4876,
      "##fär": 4877,
      "room": 4878,
      "samtidig": 4879,
      "Am": 4880,
      "aldrei": 4881,
      "bruker": 4882,
      "største": 4883,
      "##minist": 4884,
      "öðrum": 4885,
      "regler": 4886,
      "fol": 4887,
      "hre": 4888,
      "##fræð": 4889,
      "tjen": 4890,
      "##ba": 4891,
      "kons": 4892,
      "##ildar": 4893,
      "##tering": 4894,
      "Jón": 4895,
      "##entrum": 4896,
      "##önnum": 4897,
      "tap": 4898,
      "varje": 4899,
      "nav": 4900,
      "Des": 4901,
      "Kj": 4902,
      "fler": 4903,
      "##ppet": 4904,
      "mon": 4905,
      "##ræði": 4906,
      "##erat": 4907,
      "hor": 4908,
      "skor": 4909,
      "##kning": 4910,
      "oft": 4911,
      "muligt": 4912,
      "Ham": 4913,
      "##huset": 4914,
      "region": 4915,
      "##ley": 4916,
      "värld": 4917,
      "https": 4918,
      "##ista": 4919,
      "finner": 4920,
      "##stid": 4921,
      "hvilket": 4922,
      "##kommen": 4923,
      "grad": 4924,
      "Ni": 4925,
      "före": 4926,
      "##ance": 4927,
      "bättre": 4928,
      "lek": 4929,
      "Fred": 4930,
      "lys": 4931,
      "##naði": 4932,
      "##kka": 4933,
      "##ielt": 4934,
      "##starf": 4935,
      "##valt": 4936,
      "væl": 4937,
      "tidigare": 4938,
      "informasjon": 4939,
      "Evró": 4940,
      "##kki": 4941,
      "enligt": 4942,
      "ræða": 4943,
      "holde": 4944,
      "bol": 4945,
      "hjälp": 4946,
      "##grund": 4947,
      "kron": 4948,
      "##eningen": 4949,
      "Sa": 4950,
      "##ase": 4951,
      "luft": 4952,
      "väldigt": 4953,
      "ark": 4954,
      "ferð": 4955,
      "godk": 4956,
      "##skud": 4957,
      "forslag": 4958,
      "fim": 4959,
      "##ogen": 4960,
      "##entet": 4961,
      "##AG": 4962,
      "##kor": 4963,
      "følge": 4964,
      "##tor": 4965,
      "##gur": 4966,
      "##tök": 4967,
      "tran": 4968,
      "Mad": 4969,
      "##fang": 4970,
      "##ift": 4971,
      "finans": 4972,
      "fest": 4973,
      "##óf": 4974,
      "##sók": 4975,
      "sína": 4976,
      "framkvæmd": 4977,
      "Hvor": 4978,
      "kam": 4979,
      "góð": 4980,
      "tips": 4981,
      "dere": 4982,
      "##ärn": 4983,
      "##cis": 4984,
      "lätt": 4985,
      "tan": 4986,
      "forn": 4987,
      "design": 4988,
      "Rom": 4989,
      "##ato": 4990,
      "##lighed": 4991,
      "Sør": 4992,
      "Ph": 4993,
      "veit": 4994,
      "##alet": 4995,
      "artik": 4996,
      "##hets": 4997,
      "##enten": 4998,
      "##ikation": 4999,
      "exempel": 5000,
      "##ivå": 5001,
      "##chen": 5002,
      "si": 5003,
      "eigin": 5004,
      "##skt": 5005,
      "gu": 5006,
      "##dal": 5007,
      "beste": 5008,
      "##vist": 5009,
      "##tiden": 5010,
      "bi": 5011,
      "##ående": 5012,
      "##OT": 5013,
      "mag": 5014,
      "spørgsmål": 5015,
      "nærm": 5016,
      "sådan": 5017,
      "##amma": 5018,
      "kunde": 5019,
      "kil": 5020,
      "År": 5021,
      "elekt": 5022,
      "##IS": 5023,
      "árum": 5024,
      "Þór": 5025,
      "våre": 5026,
      "fys": 5027,
      "Gre": 5028,
      "gerne": 5029,
      "ide": 5030,
      "roll": 5031,
      "##hæ": 5032,
      "##heng": 5033,
      "popul": 5034,
      "##RK": 5035,
      "##Advisor": 5036,
      "##inde": 5037,
      "##satt": 5038,
      "##tre": 5039,
      "måtte": 5040,
      "##idget": 5041,
      "##stöð": 5042,
      "54": 5043,
      "sal": 5044,
      "fyrsta": 5045,
      "##ved": 5046,
      "tilbake": 5047,
      "##ulega": 5048,
      "Derfor": 5049,
      "##året": 5050,
      "##rafik": 5051,
      "stil": 5052,
      "Best": 5053,
      "##ytter": 5054,
      "Íslandi": 5055,
      "##ole": 5056,
      "passer": 5057,
      "vís": 5058,
      "##verket": 5059,
      "##fte": 5060,
      "bæði": 5061,
      "líf": 5062,
      "##back": 5063,
      "log": 5064,
      "stu": 5065,
      "##full": 5066,
      "Með": 5067,
      "##vand": 5068,
      "##ellen": 5069,
      "samarbej": 5070,
      "väg": 5071,
      "Tak": 5072,
      "alls": 5073,
      "nó": 5074,
      "snabb": 5075,
      "##ansen": 5076,
      "##rund": 5077,
      "send": 5078,
      "ári": 5079,
      "Då": 5080,
      "52": 5081,
      "måned": 5082,
      "##ile": 5083,
      "##ndag": 5084,
      "Con": 5085,
      "##pri": 5086,
      "laga": 5087,
      "##vä": 5088,
      "##tiver": 5089,
      "##úr": 5090,
      "##pres": 5091,
      "satt": 5092,
      "Stef": 5093,
      "Sand": 5094,
      "frétt": 5095,
      "Fer": 5096,
      "##oven": 5097,
      "##lex": 5098,
      "sker": 5099,
      "##félag": 5100,
      "rú": 5101,
      "##kret": 5102,
      "##kort": 5103,
      "lokal": 5104,
      "##skur": 5105,
      "orðið": 5106,
      "Andre": 5107,
      "flott": 5108,
      "läm": 5109,
      "56": 5110,
      "##enti": 5111,
      "samkvæmt": 5112,
      "hjælp": 5113,
      "invest": 5114,
      "Þegar": 5115,
      "kær": 5116,
      "ulike": 5117,
      "196": 5118,
      "##vud": 5119,
      "Vid": 5120,
      "##delig": 5121,
      "millioner": 5122,
      "anmeldelse": 5123,
      "hætt": 5124,
      "##merik": 5125,
      "veck": 5126,
      "##mär": 5127,
      "##ulag": 5128,
      "##rí": 5129,
      "Go": 5130,
      "mæ": 5131,
      "##vor": 5132,
      "autom": 5133,
      "internet": 5134,
      "##stjórn": 5135,
      "december": 5136,
      "Hver": 5137,
      "Gra": 5138,
      "super": 5139,
      "kann": 5140,
      "##án": 5141,
      "##itað": 5142,
      "##trol": 5143,
      "##tum": 5144,
      "##ogle": 5145,
      "tred": 5146,
      "barne": 5147,
      "##asser": 5148,
      "##ilegt": 5149,
      "##sol": 5150,
      "rannsók": 5151,
      "##iel": 5152,
      "Karl": 5153,
      "##byg": 5154,
      "##þykk": 5155,
      "kurs": 5156,
      "forset": 5157,
      "Dav": 5158,
      "sérstak": 5159,
      "køb": 5160,
      "människ": 5161,
      "##isen": 5162,
      "##ekn": 5163,
      "##rog": 5164,
      "Sil": 5165,
      "Ben": 5166,
      "service": 5167,
      "##skje": 5168,
      "##SB": 5169,
      "##øs": 5170,
      "bók": 5171,
      "bruger": 5172,
      "##itter": 5173,
      "skall": 5174,
      "gæ": 5175,
      "kunst": 5176,
      "Hå": 5177,
      "No": 5178,
      "tycker": 5179,
      "53": 5180,
      "57": 5181,
      "##vald": 5182,
      "##akter": 5183,
      "tage": 5184,
      "komb": 5185,
      "Sn": 5186,
      "bí": 5187,
      "bir": 5188,
      "End": 5189,
      "##asjoner": 5190,
      "bruke": 5191,
      "are": 5192,
      "timer": 5193,
      "fakt": 5194,
      "sikre": 5195,
      "##aster": 5196,
      "uddann": 5197,
      "salg": 5198,
      "dår": 5199,
      "tilbage": 5200,
      "Mat": 5201,
      "let": 5202,
      "Hvad": 5203,
      "vinter": 5204,
      "København": 5205,
      "mass": 5206,
      "raun": 5207,
      "fint": 5208,
      "síðustu": 5209,
      "Sj": 5210,
      "##we": 5211,
      "auðv": 5212,
      "norsk": 5213,
      "én": 5214,
      "Selv": 5215,
      "Hal": 5216,
      "lär": 5217,
      "frum": 5218,
      "unn": 5219,
      "##landi": 5220,
      "saker": 5221,
      "##tade": 5222,
      "áhrif": 5223,
      "inde": 5224,
      "##rom": 5225,
      "begyn": 5226,
      "parti": 5227,
      "typ": 5228,
      "##amenn": 5229,
      "58": 5230,
      "plats": 5231,
      "íbú": 5232,
      "##RE": 5233,
      "vansk": 5234,
      "##årt": 5235,
      "atvinn": 5236,
      "dina": 5237,
      "##spek": 5238,
      "Før": 5239,
      "Bed": 5240,
      "Þe": 5241,
      "dock": 5242,
      "vist": 5243,
      "##UN": 5244,
      "##ikkert": 5245,
      "Un": 5246,
      "##hæng": 5247,
      "enkelte": 5248,
      "Mart": 5249,
      "arbejd": 5250,
      "antal": 5251,
      "##orsdag": 5252,
      "Erik": 5253,
      "von": 5254,
      "##sammans": 5255,
      "Park": 5256,
      "sidste": 5257,
      "##fører": 5258,
      "Publisert": 5259,
      "##liv": 5260,
      "Str": 5261,
      "rå": 5262,
      "skemm": 5263,
      "meter": 5264,
      "blandt": 5265,
      "##føre": 5266,
      "##bre": 5267,
      "##bæ": 5268,
      "##jónustu": 5269,
      "Berg": 5270,
      "ænd": 5271,
      "it": 5272,
      "##lasse": 5273,
      "stedet": 5274,
      "bal": 5275,
      "einstak": 5276,
      "kanskje": 5277,
      "Gunnar": 5278,
      "Lind": 5279,
      "skick": 5280,
      "forstå": 5281,
      "Ve": 5282,
      "2005": 5283,
      "##fj": 5284,
      "##inner": 5285,
      "Pa": 5286,
      "imp": 5287,
      "##gra": 5288,
      "hjemm": 5289,
      "##efor": 5290,
      "still": 5291,
      "máli": 5292,
      "eksp": 5293,
      "with": 5294,
      "##eln": 5295,
      "##nefnd": 5296,
      "samtal": 5297,
      "Mon": 5298,
      "snart": 5299,
      "åp": 5300,
      "##arm": 5301,
      "Hvordan": 5302,
      "sætt": 5303,
      "Inst": 5304,
      "material": 5305,
      "tom": 5306,
      "slu": 5307,
      "Bir": 5308,
      "##ama": 5309,
      "##ash": 5310,
      "##kten": 5311,
      "##lið": 5312,
      "Europa": 5313,
      "##deling": 5314,
      "Hans": 5315,
      "finne": 5316,
      "##san": 5317,
      "##fu": 5318,
      "desember": 5319,
      "Etter": 5320,
      "##trú": 5321,
      "##ørende": 5322,
      "eventu": 5323,
      "jäm": 5324,
      "februar": 5325,
      "gagn": 5326,
      "TripAdvisor": 5327,
      "buti": 5328,
      "##skatt": 5329,
      "vilja": 5330,
      "tatt": 5331,
      "stjórnar": 5332,
      "erum": 5333,
      "tve": 5334,
      "2000": 5335,
      "##mu": 5336,
      "först": 5337,
      "gild": 5338,
      "miljö": 5339,
      "kalla": 5340,
      "To": 5341,
      "##ola": 5342,
      "##10": 5343,
      "komma": 5344,
      "cyk": 5345,
      "##abil": 5346,
      "##inister": 5347,
      "##iddel": 5348,
      "##ikring": 5349,
      "##arar": 5350,
      "##kun": 5351,
      "##asjonen": 5352,
      "utr": 5353,
      "##virk": 5354,
      "##stöðu": 5355,
      "##stjóri": 5356,
      "skoð": 5357,
      "vanlig": 5358,
      "##sc": 5359,
      "utbild": 5360,
      "samning": 5361,
      "Lund": 5362,
      "##mæ": 5363,
      "##sdóttir": 5364,
      "##jus": 5365,
      "Bu": 5366,
      "kommune": 5367,
      "måde": 5368,
      "##uga": 5369,
      "##TER": 5370,
      "Ju": 5371,
      "fortsatt": 5372,
      "##samt": 5373,
      "morgen": 5374,
      "Tack": 5375,
      "bruge": 5376,
      "hátt": 5377,
      "##tiva": 5378,
      "San": 5379,
      "forskning": 5380,
      "##okra": 5381,
      "direkte": 5382,
      "Hand": 5383,
      "reyn": 5384,
      "give": 5385,
      "99": 5386,
      "pati": 5387,
      "bidra": 5388,
      "dagar": 5389,
      "stra": 5390,
      "lögreg": 5391,
      "udvikling": 5392,
      "stopp": 5393,
      "Peter": 5394,
      "##30": 5395,
      "deb": 5396,
      "##onn": 5397,
      "##ji": 5398,
      "##gave": 5399,
      "##hag": 5400,
      "tillb": 5401,
      "##emper": 5402,
      "fir": 5403,
      "nemlig": 5404,
      "##amm": 5405,
      "Gl": 5406,
      "##amál": 5407,
      "##ationen": 5408,
      "##íma": 5409,
      "Ikke": 5410,
      "##EG": 5411,
      "lé": 5412,
      "Haf": 5413,
      "##za": 5414,
      "##iker": 5415,
      "origin": 5416,
      "##own": 5417,
      "##ivet": 5418,
      "##äster": 5419,
      "##ender": 5420,
      "vak": 5421,
      "kg": 5422,
      "meiri": 5423,
      "kró": 5424,
      "publ": 5425,
      "betyder": 5426,
      "##urnar": 5427,
      "Sø": 5428,
      "##ku": 5429,
      "skole": 5430,
      "tón": 5431,
      "##nuð": 5432,
      "læg": 5433,
      "do": 5434,
      "##ros": 5435,
      "##nsdag": 5436,
      "##dt": 5437,
      "##rem": 5438,
      "##indi": 5439,
      "trenger": 5440,
      "Nej": 5441,
      "aktu": 5442,
      "inkluder": 5443,
      "fékk": 5444,
      "##jál": 5445,
      "##nade": 5446,
      "regn": 5447,
      "kvöld": 5448,
      "runt": 5449,
      "mö": 5450,
      "##its": 5451,
      "##allar": 5452,
      "häl": 5453,
      "samþykk": 5454,
      "##mod": 5455,
      "privat": 5456,
      "##ødt": 5457,
      "Over": 5458,
      "vest": 5459,
      "kos": 5460,
      "##ända": 5461,
      "##avor": 5462,
      "Nú": 5463,
      "därför": 5464,
      "##arts": 5465,
      "risik": 5466,
      "##abel": 5467,
      "##ux": 5468,
      "##rað": 5469,
      "gått": 5470,
      "##sför": 5471,
      "holder": 5472,
      "##ball": 5473,
      "kommunen": 5474,
      "##ral": 5475,
      "spiller": 5476,
      "detal": 5477,
      "Magn": 5478,
      "vita": 5479,
      "lån": 5480,
      "##bland": 5481,
      "allir": 5482,
      "Bør": 5483,
      "finna": 5484,
      "delt": 5485,
      "aldri": 5486,
      "sør": 5487,
      "##amn": 5488,
      "Jon": 5489,
      "Ung": 5490,
      "Alla": 5491,
      "##inter": 5492,
      "##tíð": 5493,
      "skad": 5494,
      "Ly": 5495,
      "riktigt": 5496,
      "##ica": 5497,
      "##lio": 5498,
      "##ils": 5499,
      "##lun": 5500,
      "App": 5501,
      "##gaver": 5502,
      "væk": 5503,
      "nærheden": 5504,
      "##edel": 5505,
      "fyrst": 5506,
      "##ko": 5507,
      "##joner": 5508,
      "##ölu": 5509,
      "##rift": 5510,
      "##ublicer": 5511,
      "dags": 5512,
      "##tera": 5513,
      "består": 5514,
      "as": 5515,
      "Ár": 5516,
      "##pporter": 5517,
      "##ørt": 5518,
      "geg": 5519,
      "helse": 5520,
      "##æring": 5521,
      "redan": 5522,
      "ág": 5523,
      "##tic": 5524,
      "gjelder": 5525,
      "Person": 5526,
      "fell": 5527,
      "##ple": 5528,
      "forskj": 5529,
      "hitta": 5530,
      "syk": 5531,
      "blogg": 5532,
      "##yri": 5533,
      "þekk": 5534,
      "sjó": 5535,
      "65": 5536,
      "sym": 5537,
      "marked": 5538,
      "flug": 5539,
      "Stud": 5540,
      "aktiviteter": 5541,
      "##bär": 5542,
      "stjer": 5543,
      "flest": 5544,
      "nema": 5545,
      "##bi": 5546,
      "hatt": 5547,
      "vör": 5548,
      "##skaper": 5549,
      "##cept": 5550,
      "Óla": 5551,
      "beslut": 5552,
      "støtte": 5553,
      "teg": 5554,
      "##igheten": 5555,
      "Dess": 5556,
      "##igtigt": 5557,
      "##eget": 5558,
      "##ander": 5559,
      "##onen": 5560,
      "rigtig": 5561,
      "##edes": 5562,
      "##tidigt": 5563,
      "viðskip": 5564,
      "slutt": 5565,
      "fredag": 5566,
      "My": 5567,
      "find": 5568,
      "hluta": 5569,
      "Sund": 5570,
      "senere": 5571,
      "sjúk": 5572,
      "ytter": 5573,
      "194": 5574,
      "##verð": 5575,
      "skjer": 5576,
      "##behandling": 5577,
      "##atri": 5578,
      "kul": 5579,
      "##kast": 5580,
      "effekt": 5581,
      "Pol": 5582,
      "dóm": 5583,
      "##vok": 5584,
      "eftersom": 5585,
      "ph": 5586,
      "blod": 5587,
      "##vest": 5588,
      "retur": 5589,
      "mine": 5590,
      "Hus": 5591,
      "##smenn": 5592,
      "ætla": 5593,
      "##íðar": 5594,
      "##sra": 5595,
      "##rust": 5596,
      "Ag": 5597,
      "milljó": 5598,
      "utvikling": 5599,
      "us": 5600,
      "##sst": 5601,
      "drift": 5602,
      "##endte": 5603,
      "titt": 5604,
      "Bro": 5605,
      "Vel": 5606,
      "##bor": 5607,
      "Få": 5608,
      "kontroll": 5609,
      "klubb": 5610,
      "Ingen": 5611,
      "landi": 5612,
      "##öngu": 5613,
      "berätt": 5614,
      "síðar": 5615,
      "##levelse": 5616,
      "verdens": 5617,
      "##AND": 5618,
      "##ern": 5619,
      "##fund": 5620,
      "samarbeid": 5621,
      "indiv": 5622,
      "nefnd": 5623,
      "län": 5624,
      "tillsammans": 5625,
      "forret": 5626,
      "##sg": 5627,
      "Eller": 5628,
      "fantastisk": 5629,
      "gikk": 5630,
      "hjemme": 5631,
      "ka": 5632,
      "henne": 5633,
      "nyt": 5634,
      "##anne": 5635,
      "kenn": 5636,
      "SK": 5637,
      "Bla": 5638,
      "##stånd": 5639,
      "##ome": 5640,
      "börja": 5641,
      "press": 5642,
      "##iges": 5643,
      "##AD": 5644,
      "##inge": 5645,
      "##organ": 5646,
      "arrang": 5647,
      "##sent": 5648,
      "samband": 5649,
      "##run": 5650,
      "##ction": 5651,
      "Kommentarer": 5652,
      "hin": 5653,
      "eink": 5654,
      "laget": 5655,
      "konst": 5656,
      "##press": 5657,
      "##komm": 5658,
      "ti": 5659,
      "##häll": 5660,
      "##malt": 5661,
      "område": 5662,
      "række": 5663,
      "##rådet": 5664,
      "ganske": 5665,
      "virksomhed": 5666,
      "##giver": 5667,
      "finnes": 5668,
      "sikkert": 5669,
      "vurdering": 5670,
      "proc": 5671,
      "amerik": 5672,
      "##iblio": 5673,
      "##æst": 5674,
      "##fort": 5675,
      "Air": 5676,
      "IT": 5677,
      "Ek": 5678,
      "##ida": 5679,
      "Lok": 5680,
      "##valget": 5681,
      "ök": 5682,
      "##enskap": 5683,
      "Aust": 5684,
      "dage": 5685,
      "##riv": 5686,
      "dei": 5687,
      "##anti": 5688,
      "Sport": 5689,
      "Bre": 5690,
      "social": 5691,
      "umræ": 5692,
      "gick": 5693,
      "offent": 5694,
      "fleiri": 5695,
      "tjän": 5696,
      "##ki": 5697,
      "##ose": 5698,
      "resp": 5699,
      "this": 5700,
      "400": 5701,
      "##ftet": 5702,
      "##ärna": 5703,
      "gul": 5704,
      "Frank": 5705,
      "Lars": 5706,
      "##skj": 5707,
      "##aser": 5708,
      "parkering": 5709,
      "Bor": 5710,
      "##bord": 5711,
      "##óttur": 5712,
      "dermed": 5713,
      "Red": 5714,
      "##skaber": 5715,
      "Må": 5716,
      "##ðan": 5717,
      "##brig": 5718,
      "flyg": 5719,
      "##ligheter": 5720,
      "co": 5721,
      "kir": 5722,
      "##på": 5723,
      "Guðmund": 5724,
      "au": 5725,
      "nogen": 5726,
      "ansatte": 5727,
      "håll": 5728,
      "trú": 5729,
      "betur": 5730,
      "Kli": 5731,
      "kör": 5732,
      "Þeir": 5733,
      "##fra": 5734,
      "hör": 5735,
      "##mål": 5736,
      "offentlig": 5737,
      "##ini": 5738,
      "perfekt": 5739,
      "slík": 5740,
      "##ttet": 5741,
      "##völd": 5742,
      "begge": 5743,
      "strateg": 5744,
      "sumar": 5745,
      "Bandar": 5746,
      "profess": 5747,
      "##bel": 5748,
      "starfs": 5749,
      "mail": 5750,
      "##NING": 5751,
      "2004": 5752,
      "##lam": 5753,
      "##inc": 5754,
      "sport": 5755,
      "tab": 5756,
      "sann": 5757,
      "Hon": 5758,
      "##nummer": 5759,
      "syg": 5760,
      "##stilling": 5761,
      "##ögn": 5762,
      "hotel": 5763,
      "##iger": 5764,
      "##UR": 5765,
      "##holde": 5766,
      "analy": 5767,
      "Sw": 5768,
      "flytt": 5769,
      "##snitt": 5770,
      "regel": 5771,
      "##tes": 5772,
      "lett": 5773,
      "Politi": 5774,
      "##rä": 5775,
      "skýr": 5776,
      "rele": 5777,
      "Blu": 5778,
      "##versätt": 5779,
      "Gud": 5780,
      "spørsmål": 5781,
      "wh": 5782,
      "##efter": 5783,
      "Ísland": 5784,
      "byrj": 5785,
      "töl": 5786,
      "DKK": 5787,
      "tillbaka": 5788,
      "yrði": 5789,
      "Mag": 5790,
      "##ostad": 5791,
      "Kommune": 5792,
      "móti": 5793,
      "læk": 5794,
      "##æri": 5795,
      "##ldre": 5796,
      "geti": 5797,
      "##ori": 5798,
      "Tur": 5799,
      "##jektet": 5800,
      "##IK": 5801,
      "mad": 5802,
      "##mær": 5803,
      "ske": 5804,
      "##istri": 5805,
      "einu": 5806,
      "eigi": 5807,
      "##lingar": 5808,
      "hens": 5809,
      "annen": 5810,
      "##ca": 5811,
      "##last": 5812,
      "hud": 5813,
      "glad": 5814,
      "naturlig": 5815,
      "almenn": 5816,
      "##oret": 5817,
      "gange": 5818,
      "##nation": 5819,
      "##zz": 5820,
      "deltag": 5821,
      "Fors": 5822,
      "##efna": 5823,
      "##boð": 5824,
      "Hva": 5825,
      "spenn": 5826,
      "##ouse": 5827,
      "##rík": 5828,
      "##arfélag": 5829,
      "huvud": 5830,
      "kategor": 5831,
      "følgende": 5832,
      "By": 5833,
      "tit": 5834,
      "same": 5835,
      "##ðis": 5836,
      "##OS": 5837,
      "smá": 5838,
      "natt": 5839,
      "kart": 5840,
      "hóp": 5841,
      "Mus": 5842,
      "##skabet": 5843,
      "##sende": 5844,
      "##eta": 5845,
      "Mål": 5846,
      "reynd": 5847,
      "Soc": 5848,
      "þús": 5849,
      "barnet": 5850,
      "tok": 5851,
      "núna": 5852,
      "##hav": 5853,
      "##yra": 5854,
      "þessari": 5855,
      "##stol": 5856,
      "bord": 5857,
      "átti": 5858,
      "erbjud": 5859,
      "blå": 5860,
      "ens": 5861,
      "grid": 5862,
      "##öteborg": 5863,
      "forvent": 5864,
      "Kn": 5865,
      "##vrig": 5866,
      "hjel": 5867,
      "##esl": 5868,
      "rik": 5869,
      "##sæt": 5870,
      "lö": 5871,
      "##enna": 5872,
      "##vör": 5873,
      "##mäl": 5874,
      "kroppen": 5875,
      "läg": 5876,
      "vald": 5877,
      "##ørdag": 5878,
      "Natur": 5879,
      "Hall": 5880,
      "##eth": 5881,
      "Po": 5882,
      "säker": 5883,
      "interess": 5884,
      "prw": 5885,
      "##naður": 5886,
      "gæti": 5887,
      "##ettet": 5888,
      "kræ": 5889,
      "##bert": 5890,
      "måske": 5891,
      "konse": 5892,
      "##ingur": 5893,
      "##gående": 5894,
      "FOR": 5895,
      "skrev": 5896,
      "##RA": 5897,
      "hotellet": 5898,
      "##OW": 5899,
      "##person": 5900,
      "tager": 5901,
      "kunn": 5902,
      "##samling": 5903,
      "##løs": 5904,
      "viss": 5905,
      "alternativ": 5906,
      "lokale": 5907,
      "ba": 5908,
      "Lar": 5909,
      "##sne": 5910,
      "således": 5911,
      "navn": 5912,
      "egne": 5913,
      "##ower": 5914,
      "##væ": 5915,
      "mai": 5916,
      "avtal": 5917,
      "##ancer": 5918,
      "##íf": 5919,
      "Där": 5920,
      "##aling": 5921,
      "Hu": 5922,
      "vek": 5923,
      "##holdet": 5924,
      "kontak": 5925,
      "Þor": 5926,
      "ing": 5927,
      "billig": 5928,
      "öðru": 5929,
      "II": 5930,
      "##rene": 5931,
      "deras": 5932,
      "95": 5933,
      "tala": 5934,
      "##arinnar": 5935,
      "##ologisk": 5936,
      "##bra": 5937,
      "##center": 5938,
      "City": 5939,
      "Mange": 5940,
      "##ðl": 5941,
      "grav": 5942,
      "eneste": 5943,
      "möjligt": 5944,
      "gjerne": 5945,
      "##hånd": 5946,
      "##rott": 5947,
      "vatten": 5948,
      "##aff": 5949,
      "risk": 5950,
      "pró": 5951,
      "##lles": 5952,
      "oplysninger": 5953,
      "##ionen": 5954,
      "##datert": 5955,
      "Dansk": 5956,
      "##þjóð": 5957,
      "##idd": 5958,
      "##chef": 5959,
      "##lede": 5960,
      "universitet": 5961,
      "lave": 5962,
      "vare": 5963,
      "##yni": 5964,
      "##ím": 5965,
      "##ström": 5966,
      "följ": 5967,
      "inds": 5968,
      "Ang": 5969,
      "stefn": 5970,
      "##inne": 5971,
      "kol": 5972,
      "##bladet": 5973,
      "##kku": 5974,
      "tør": 5975,
      "##icin": 5976,
      "mót": 5977,
      "Far": 5978,
      "##jekter": 5979,
      "Gen": 5980,
      "större": 5981,
      "##SE": 5982,
      "##emperatur": 5983,
      "kröf": 5984,
      "använda": 5985,
      "favor": 5986,
      "##CH": 5987,
      "dagens": 5988,
      "##vänd": 5989,
      "##omas": 5990,
      "150": 5991,
      "##skole": 5992,
      "stó": 5993,
      "##cep": 5994,
      "söm": 5995,
      "##oo": 5996,
      "bíl": 5997,
      "##ningsm": 5998,
      "Mich": 5999,
      "ofta": 6000,
      "##nunar": 6001,
      "Bandarík": 6002,
      "standard": 6003,
      "##varer": 6004,
      "##ött": 6005,
      "Bok": 6006,
      "##11": 6007,
      "fas": 6008,
      "##bed": 6009,
      "administ": 6010,
      "sitter": 6011,
      "Jes": 6012,
      "fla": 6013,
      "skrif": 6014,
      "##juder": 6015,
      "##ION": 6016,
      "##iliteter": 6017,
      "##uten": 6018,
      "åb": 6019,
      "stuð": 6020,
      "##ementet": 6021,
      "tredje": 6022,
      "bilen": 6023,
      "frågor": 6024,
      "##iken": 6025,
      "finder": 6026,
      "##eden": 6027,
      "vol": 6028,
      "kannski": 6029,
      "myndi": 6030,
      "fjölskyld": 6031,
      "##th": 6032,
      "##úl": 6033,
      "##ativ": 6034,
      "endnu": 6035,
      "##kkje": 6036,
      "##ada": 6037,
      "Anna": 6038,
      "##isa": 6039,
      "OG": 6040,
      "levering": 6041,
      "nám": 6042,
      "fengið": 6043,
      "##atet": 6044,
      "bygge": 6045,
      "##ningsl": 6046,
      "människor": 6047,
      "Kun": 6048,
      "skuld": 6049,
      "##orges": 6050,
      "Anders": 6051,
      "64": 6052,
      "medlemmer": 6053,
      "vinnu": 6054,
      "##dra": 6055,
      "##uter": 6056,
      "##þr": 6057,
      "##komst": 6058,
      "hygg": 6059,
      "##erar": 6060,
      "opti": 6061,
      "erf": 6062,
      "hvilke": 6063,
      "special": 6064,
      "##fors": 6065,
      "you": 6066,
      "ste": 6067,
      "##følgelig": 6068,
      "we": 6069,
      "rapport": 6070,
      "nivå": 6071,
      "verkligen": 6072,
      "läsa": 6073,
      "sérstaklega": 6074,
      "##asam": 6075,
      "Stat": 6076,
      "Göteborg": 6077,
      "Johan": 6078,
      "Byg": 6079,
      "##väg": 6080,
      "lika": 6081,
      "opin": 6082,
      "##anc": 6083,
      "Fj": 6084,
      "##illar": 6085,
      "##ias": 6086,
      "ford": 6087,
      "##resse": 6088,
      "Jóh": 6089,
      "Ekki": 6090,
      "láta": 6091,
      "mott": 6092,
      "##ckning": 6093,
      "##marks": 6094,
      "OK": 6095,
      "##fyl": 6096,
      "fuld": 6097,
      "betyg": 6098,
      "##ørs": 6099,
      "Vær": 6100,
      "Ed": 6101,
      "mög": 6102,
      "Är": 6103,
      "##tater": 6104,
      "sige": 6105,
      "##slum": 6106,
      "måte": 6107,
      "sterk": 6108,
      "##entral": 6109,
      "##une": 6110,
      "##brug": 6111,
      "##ox": 6112,
      "2003": 6113,
      "vanskelig": 6114,
      "steder": 6115,
      "internation": 6116,
      "##éf": 6117,
      "hjemmes": 6118,
      "ekonom": 6119,
      "upplýsingar": 6120,
      "##ieb": 6121,
      "##urt": 6122,
      "##way": 6123,
      "svensk": 6124,
      "##ora": 6125,
      "##roller": 6126,
      "##ksis": 6127,
      "##omen": 6128,
      "þótt": 6129,
      "króna": 6130,
      "if": 6131,
      "Ba": 6132,
      "hum": 6133,
      "##gangspunkt": 6134,
      "##off": 6135,
      "lyst": 6136,
      "ásamt": 6137,
      "kommet": 6138,
      "##igur": 6139,
      "##landet": 6140,
      "Bjar": 6141,
      "þig": 6142,
      "##ikken": 6143,
      "dager": 6144,
      "senaste": 6145,
      "varer": 6146,
      "##holds": 6147,
      "rejse": 6148,
      "##ogg": 6149,
      "interv": 6150,
      "##lög": 6151,
      "195": 6152,
      "årets": 6153,
      "##vic": 6154,
      "kra": 6155,
      "tilgang": 6156,
      "##oom": 6157,
      "sla": 6158,
      "Øst": 6159,
      "##ugar": 6160,
      "Ener": 6161,
      "Ka": 6162,
      "##best": 6163,
      "##endum": 6164,
      "##ielle": 6165,
      "erfaring": 6166,
      "##stri": 6167,
      "inför": 6168,
      "þeirri": 6169,
      "##nå": 6170,
      "##CE": 6171,
      "##ärer": 6172,
      "##ration": 6173,
      "##cher": 6174,
      "Gj": 6175,
      "##stein": 6176,
      "fået": 6177,
      "setja": 6178,
      "Há": 6179,
      "##taget": 6180,
      "rab": 6181,
      "umhver": 6182,
      "sæti": 6183,
      "tråd": 6184,
      "mina": 6185,
      "kommentarer": 6186,
      "utvik": 6187,
      "morgun": 6188,
      "skapa": 6189,
      "Freder": 6190,
      "97": 6191,
      "hennes": 6192,
      "##osa": 6193,
      "##sminister": 6194,
      "penge": 6195,
      "##ya": 6196,
      "##føring": 6197,
      "funktion": 6198,
      "alvor": 6199,
      "gro": 6200,
      "##byrg": 6201,
      "##aráð": 6202,
      "##området": 6203,
      "problemer": 6204,
      "##21": 6205,
      "##skól": 6206,
      "låg": 6207,
      "þjó": 6208,
      "##ärsk": 6209,
      "John": 6210,
      "sjö": 6211,
      "motor": 6212,
      "Bygg": 6213,
      "##ærer": 6214,
      "innebär": 6215,
      "pe": 6216,
      "ikkje": 6217,
      "##itar": 6218,
      "leggja": 6219,
      "rev": 6220,
      "##skon": 6221,
      "##äkring": 6222,
      "##overs": 6223,
      "stöð": 6224,
      "sov": 6225,
      "##ólks": 6226,
      "medarbej": 6227,
      "##ultat": 6228,
      "##bered": 6229,
      "Spil": 6230,
      "##øren": 6231,
      "kring": 6232,
      "priva": 6233,
      "automatisk": 6234,
      "##UT": 6235,
      "##änk": 6236,
      "annon": 6237,
      "##ht": 6238,
      "iden": 6239,
      "stöd": 6240,
      "nära": 6241,
      "Pris": 6242,
      "##aby": 6243,
      "tæn": 6244,
      "fó": 6245,
      "##úst": 6246,
      "Bes": 6247,
      "varm": 6248,
      "hjer": 6249,
      "förslag": 6250,
      "##deles": 6251,
      "##ming": 6252,
      "yder": 6253,
      "frekar": 6254,
      "Barn": 6255,
      "##iew": 6256,
      "Bet": 6257,
      "hjelp": 6258,
      "Port": 6259,
      "helg": 6260,
      "##oth": 6261,
      "##usen": 6262,
      "##stat": 6263,
      "ster": 6264,
      "sök": 6265,
      "##øv": 6266,
      "##isins": 6267,
      "##arbete": 6268,
      "##vart": 6269,
      "þý": 6270,
      "kaup": 6271,
      "##KT": 6272,
      "lære": 6273,
      "findes": 6274,
      "sammenlig": 6275,
      "nátt": 6276,
      "##iljø": 6277,
      "server": 6278,
      "forl": 6279,
      "følger": 6280,
      "Tysk": 6281,
      "egentlig": 6282,
      "þrið": 6283,
      "krig": 6284,
      "forbru": 6285,
      "allra": 6286,
      "##OG": 6287,
      "Svo": 6288,
      "##laget": 6289,
      "##vi": 6290,
      "rör": 6291,
      "##smark": 6292,
      "vat": 6293,
      "Gener": 6294,
      "gamla": 6295,
      "reser": 6296,
      "mist": 6297,
      "tilkyn": 6298,
      "##iða": 6299,
      "Can": 6300,
      "##talien": 6301,
      "idé": 6302,
      "##gte": 6303,
      "individ": 6304,
      "akti": 6305,
      "fimm": 6306,
      "hluti": 6307,
      "Fa": 6308,
      "integ": 6309,
      "##tabler": 6310,
      "kepp": 6311,
      "nauð": 6312,
      "forteller": 6313,
      "byen": 6314,
      "yng": 6315,
      "##hör": 6316,
      "sommar": 6317,
      "##äns": 6318,
      "slå": 6319,
      "familie": 6320,
      "##EM": 6321,
      "særlig": 6322,
      "varme": 6323,
      "##gård": 6324,
      "extra": 6325,
      "Sal": 6326,
      "hætti": 6327,
      "tj": 6328,
      "We": 6329,
      "##jarðar": 6330,
      "Qu": 6331,
      "vef": 6332,
      "##lle": 6333,
      "raf": 6334,
      "Ter": 6335,
      "##parti": 6336,
      "Ans": 6337,
      "huset": 6338,
      "Kultur": 6339,
      "##yna": 6340,
      "skre": 6341,
      "ákvörð": 6342,
      "fatt": 6343,
      "fælles": 6344,
      "kronor": 6345,
      "saken": 6346,
      "tæ": 6347,
      "alder": 6348,
      "spille": 6349,
      "##atan": 6350,
      "##tta": 6351,
      "top": 6352,
      "Fol": 6353,
      "##bruk": 6354,
      "vei": 6355,
      "måneder": 6356,
      "##olv": 6357,
      "lyd": 6358,
      "##LL": 6359,
      "##US": 6360,
      "##raff": 6361,
      "mær": 6362,
      "##nuði": 6363,
      "eit": 6364,
      "##mentar": 6365,
      "##reds": 6366,
      "maskinö": 6367,
      "##lur": 6368,
      "##atal": 6369,
      "miklu": 6370,
      "lif": 6371,
      "erlend": 6372,
      "##gäng": 6373,
      "gav": 6374,
      "málið": 6375,
      "Super": 6376,
      "##allen": 6377,
      "##gjør": 6378,
      "##60": 6379,
      "Kal": 6380,
      "pers": 6381,
      "##eri": 6382,
      "styrk": 6383,
      "##bätt": 6384,
      "##rakt": 6385,
      "Carl": 6386,
      "NRK": 6387,
      "sub": 6388,
      "krä": 6389,
      "kval": 6390,
      "sim": 6391,
      "mgr": 6392,
      "prøve": 6393,
      "##inget": 6394,
      "##sland": 6395,
      "Mod": 6396,
      "ac": 6397,
      "##pan": 6398,
      "nokkur": 6399,
      "##nnur": 6400,
      "hvorfor": 6401,
      "##ogn": 6402,
      "ko": 6403,
      "fann": 6404,
      "info": 6405,
      "transport": 6406,
      "##idlertid": 6407,
      "längre": 6408,
      "##fyll": 6409,
      "fortsätt": 6410,
      "##nere": 6411,
      "##80": 6412,
      "##anten": 6413,
      "PR": 6414,
      "grøn": 6415,
      "vidare": 6416,
      "visar": 6417,
      "Permal": 6418,
      "dø": 6419,
      "neste": 6420,
      "Eftir": 6421,
      "Norges": 6422,
      "næst": 6423,
      "##orm": 6424,
      "arbete": 6425,
      "Allt": 6426,
      "##förs": 6427,
      "samfélag": 6428,
      "selvfølgelig": 6429,
      "já": 6430,
      "minni": 6431,
      "##gaard": 6432,
      "##kepp": 6433,
      "Hot": 6434,
      "Mari": 6435,
      "størr": 6436,
      "hemma": 6437,
      "##ligare": 6438,
      "##mid": 6439,
      "skrive": 6440,
      "##kj": 6441,
      "ljós": 6442,
      "85": 6443,
      "vise": 6444,
      "Vill": 6445,
      "alm": 6446,
      "kve": 6447,
      "Im": 6448,
      "##snit": 6449,
      "gärna": 6450,
      "bla": 6451,
      "##kkur": 6452,
      "repres": 6453,
      "Sim": 6454,
      "##úð": 6455,
      "forklar": 6456,
      "årene": 6457,
      "rep": 6458,
      "##pool": 6459,
      "##ondon": 6460,
      "pot": 6461,
      "##ppar": 6462,
      "##ura": 6463,
      "Syd": 6464,
      "##ælder": 6465,
      "stre": 6466,
      "##yss": 6467,
      "Produ": 6468,
      "##föra": 6469,
      "partner": 6470,
      "Di": 6471,
      "##æd": 6472,
      "##ärt": 6473,
      "skóla": 6474,
      "utveckling": 6475,
      "deild": 6476,
      "Sveriges": 6477,
      "sínu": 6478,
      "##ous": 6479,
      "Martin": 6480,
      "ganger": 6481,
      "Lang": 6482,
      "tekur": 6483,
      "Met": 6484,
      "fullt": 6485,
      "fac": 6486,
      "síðasta": 6487,
      "tvær": 6488,
      "konsekv": 6489,
      "Íslend": 6490,
      "masse": 6491,
      "fyrstu": 6492,
      "##orden": 6493,
      "Pe": 6494,
      "##In": 6495,
      "gegnum": 6496,
      "##öv": 6497,
      "registr": 6498,
      "div": 6499,
      "69": 6500,
      "##ssystem": 6501,
      "utford": 6502,
      "hoppas": 6503,
      "##lim": 6504,
      "##skó": 6505,
      "##kår": 6506,
      "##jól": 6507,
      "nødvendig": 6508,
      "##område": 6509,
      "hverju": 6510,
      "##amin": 6511,
      "##ånd": 6512,
      "engelsk": 6513,
      "##40": 6514,
      "##tatt": 6515,
      "key": 6516,
      "områder": 6517,
      "##unkter": 6518,
      "torsdag": 6519,
      "udvik": 6520,
      "Alþing": 6521,
      "Universitet": 6522,
      "Mal": 6523,
      "##ism": 6524,
      "##endelse": 6525,
      "##öndum": 6526,
      "Ein": 6527,
      "##ape": 6528,
      "##yrirtæk": 6529,
      "Gam": 6530,
      "Hvað": 6531,
      "##kan": 6532,
      "samhäll": 6533,
      "##nande": 6534,
      "##bum": 6535,
      "Reykjavíkur": 6536,
      "##irsdag": 6537,
      "out": 6538,
      "##sut": 6539,
      "##yta": 6540,
      "kväll": 6541,
      "up": 6542,
      "##givning": 6543,
      "SV": 6544,
      "medier": 6545,
      "##ninga": 6546,
      "syke": 6547,
      "Malm": 6548,
      "##skor": 6549,
      "##ugt": 6550,
      "ändå": 6551,
      "##ines": 6552,
      "Ey": 6553,
      "standa": 6554,
      "regjer": 6555,
      "time": 6556,
      "Permalink": 6557,
      "##skolen": 6558,
      "personal": 6559,
      "Bri": 6560,
      "Rad": 6561,
      "Kir": 6562,
      "NT": 6563,
      "mel": 6564,
      "Plan": 6565,
      "##sættelse": 6566,
      "##gör": 6567,
      "vant": 6568,
      "hjälper": 6569,
      "##EST": 6570,
      "##behør": 6571,
      "Region": 6572,
      "hugmynd": 6573,
      "SP": 6574,
      "tor": 6575,
      "##fäll": 6576,
      "plads": 6577,
      "reglu": 6578,
      "fang": 6579,
      "løsning": 6580,
      "##usjon": 6581,
      "nummer": 6582,
      "Borg": 6583,
      "Sve": 6584,
      "##nasjon": 6585,
      "##én": 6586,
      "Ark": 6587,
      "historie": 6588,
      "##aland": 6589,
      "##ross": 6590,
      "tale": 6591,
      "##rad": 6592,
      "##rup": 6593,
      "##post": 6594,
      "hittar": 6595,
      "##öfn": 6596,
      "saf": 6597,
      "meðan": 6598,
      "Wh": 6599,
      "höfum": 6600,
      "digit": 6601,
      "þró": 6602,
      "##iber": 6603,
      "##ente": 6604,
      "##ited": 6605,
      "##yrelsen": 6606,
      "etabler": 6607,
      "rö": 6608,
      "burde": 6609,
      "säga": 6610,
      "mörk": 6611,
      "höfuð": 6612,
      "Int": 6613,
      "Einn": 6614,
      "krist": 6615,
      "##ansvar": 6616,
      "##enden": 6617,
      "næstu": 6618,
      "foran": 6619,
      "London": 6620,
      "ey": 6621,
      "##forsk": 6622,
      "##Class": 6623,
      "##yf": 6624,
      "##amanna": 6625,
      "ætti": 6626,
      "##træ": 6627,
      "ifølge": 6628,
      "erhver": 6629,
      "##føres": 6630,
      "##ssam": 6631,
      "##sättning": 6632,
      "##ula": 6633,
      "foret": 6634,
      "##assen": 6635,
      "##rens": 6636,
      "nation": 6637,
      "gefa": 6638,
      "##gjeng": 6639,
      "Bandaríkj": 6640,
      "ker": 6641,
      "gjald": 6642,
      "##sken": 6643,
      "lenge": 6644,
      "deler": 6645,
      "samman": 6646,
      "feil": 6647,
      "##gav": 6648,
      "øvr": 6649,
      "ön": 6650,
      "absol": 6651,
      "Vir": 6652,
      "##arnir": 6653,
      "##ssonar": 6654,
      "##meldt": 6655,
      "öllu": 6656,
      "energ": 6657,
      "stendur": 6658,
      "Disse": 6659,
      "that": 6660,
      "##ykke": 6661,
      "fart": 6662,
      "##lef": 6663,
      "Mér": 6664,
      "glæ": 6665,
      "imidlertid": 6666,
      "##lere": 6667,
      "##aðir": 6668,
      "hjál": 6669,
      "##ringar": 6670,
      "##ám": 6671,
      "þúsund": 6672,
      "##værende": 6673,
      "stru": 6674,
      "##IF": 6675,
      "resten": 6676,
      "faste": 6677,
      "67": 6678,
      "##25": 6679,
      "##spill": 6680,
      "inni": 6681,
      "As": 6682,
      "strøm": 6683,
      "stef": 6684,
      "2002": 6685,
      "##plat": 6686,
      "##mæl": 6687,
      "Tre": 6688,
      "samlet": 6689,
      "##äss": 6690,
      "Fort": 6691,
      "frå": 6692,
      "che": 6693,
      "lej": 6694,
      "##ournal": 6695,
      "##oren": 6696,
      "studer": 6697,
      "##deild": 6698,
      "merk": 6699,
      "Publicer": 6700,
      "bygger": 6701,
      "lögum": 6702,
      "##blik": 6703,
      "sand": 6704,
      "þið": 6705,
      "hvaða": 6706,
      "Bå": 6707,
      "EM": 6708,
      "##rop": 6709,
      "lyck": 6710,
      "##iveau": 6711,
      "slags": 6712,
      "uds": 6713,
      "hverdag": 6714,
      "kommuner": 6715,
      "##ersom": 6716,
      "##úss": 6717,
      "##köp": 6718,
      "ryg": 6719,
      "konkret": 6720,
      "##ader": 6721,
      "##við": 6722,
      "##bank": 6723,
      "kirk": 6724,
      "Net": 6725,
      "försö": 6726,
      "rekke": 6727,
      "samtidigt": 6728,
      "gem": 6729,
      "Bergen": 6730,
      "##saf": 6731,
      "aðal": 6732,
      "väx": 6733,
      "presenter": 6734,
      "##ningi": 6735,
      "##ela": 6736,
      "##kere": 6737,
      "samarbejde": 6738,
      "Christian": 6739,
      "investering": 6740,
      "typer": 6741,
      "ene": 6742,
      "##pris": 6743,
      "##entene": 6744,
      "##stället": 6745,
      "##æðinu": 6746,
      "him": 6747,
      "600": 6748,
      "##ovis": 6749,
      "gerð": 6750,
      "Track": 6751,
      "onsdag": 6752,
      "sín": 6753,
      "fald": 6754,
      "##lick": 6755,
      "CO": 6756,
      "boð": 6757,
      "##terer": 6758,
      "##jónust": 6759,
      "särsk": 6760,
      "2001": 6761,
      "tung": 6762,
      "##artner": 6763,
      "lad": 6764,
      "##ælde": 6765,
      "blivit": 6766,
      "##rý": 6767,
      "##verandi": 6768,
      "maí": 6769,
      "##enhet": 6770,
      "Kort": 6771,
      "minuter": 6772,
      "steg": 6773,
      "känner": 6774,
      "##apir": 6775,
      "ass": 6776,
      "##ráðherra": 6777,
      "kjent": 6778,
      "##ness": 6779,
      "##stjóra": 6780,
      "kred": 6781,
      "##iðar": 6782,
      "66": 6783,
      "##hlu": 6784,
      "længere": 6785,
      "prote": 6786,
      "jar": 6787,
      "##mis": 6788,
      "from": 6789,
      "vilka": 6790,
      "viktigt": 6791,
      "hvilken": 6792,
      "##levelser": 6793,
      "reyna": 6794,
      "voksne": 6795,
      "##Pri": 6796,
      "##hel": 6797,
      "arbejds": 6798,
      "efna": 6799,
      "##mon": 6800,
      "jaf": 6801,
      "79": 6802,
      "Hansen": 6803,
      "jobbet": 6804,
      "hækk": 6805,
      "föränd": 6806,
      "elev": 6807,
      "Ann": 6808,
      "##stående": 6809,
      "##kr": 6810,
      "hö": 6811,
      "Hem": 6812,
      "##teret": 6813,
      "enten": 6814,
      "praksis": 6815,
      "kig": 6816,
      "##ennan": 6817,
      "##CK": 6818,
      "þessar": 6819,
      "meld": 6820,
      "iP": 6821,
      "Bjør": 6822,
      "punkt": 6823,
      "##ses": 6824,
      "ath": 6825,
      "shopp": 6826,
      "##jern": 6827,
      "vård": 6828,
      "marts": 6829,
      "plast": 6830,
      "Mot": 6831,
      "inng": 6832,
      "##øver": 6833,
      "David": 6834,
      "samstarf": 6835,
      "endast": 6836,
      "##ensjon": 6837,
      "##rige": 6838,
      "athug": 6839,
      "##oligt": 6840,
      "##uney": 6841,
      "##spel": 6842,
      "##dukter": 6843,
      "##plass": 6844,
      "näst": 6845,
      "Fast": 6846,
      "konser": 6847,
      "##ygge": 6848,
      "temp": 6849,
      "daga": 6850,
      "grupp": 6851,
      "##ningarna": 6852,
      "dele": 6853,
      "stress": 6854,
      "Ska": 6855,
      "Fre": 6856,
      "lev": 6857,
      "##PS": 6858,
      "dó": 6859,
      "handlar": 6860,
      "##adem": 6861,
      "##rim": 6862,
      "##vokat": 6863,
      "lo": 6864,
      "flyt": 6865,
      "skul": 6866,
      "Hér": 6867,
      "Tim": 6868,
      "##jerg": 6869,
      "ill": 6870,
      "##ilbud": 6871,
      "##fla": 6872,
      "##öjd": 6873,
      "##orte": 6874,
      "##nende": 6875,
      "##former": 6876,
      "forbed": 6877,
      "##ÖR": 6878,
      "##greið": 6879,
      "##ations": 6880,
      "Aar": 6881,
      "Thomas": 6882,
      "løpet": 6883,
      "beskri": 6884,
      "spr": 6885,
      "Norður": 6886,
      "##ipp": 6887,
      "ákvörðun": 6888,
      "ganga": 6889,
      "Ul": 6890,
      "##bes": 6891,
      "##ykt": 6892,
      "##agnar": 6893,
      "vari": 6894,
      "glob": 6895,
      "##tjek": 6896,
      "skolen": 6897,
      "pengar": 6898,
      "Flere": 6899,
      "hálf": 6900,
      "öpp": 6901,
      "port": 6902,
      "klukk": 6903,
      "betale": 6904,
      "spesielt": 6905,
      "##kraft": 6906,
      "näm": 6907,
      "Norsk": 6908,
      "närheten": 6909,
      "##tjekning": 6910,
      "##mater": 6911,
      "ákær": 6912,
      "jú": 6913,
      "oms": 6914,
      "##äkt": 6915,
      "rette": 6916,
      "þarna": 6917,
      "Film": 6918,
      "kropp": 6919,
      "type": 6920,
      "##rekt": 6921,
      "##taler": 6922,
      "##øge": 6923,
      "##ams": 6924,
      "##AB": 6925,
      "##leder": 6926,
      "tyd": 6927,
      "##ype": 6928,
      "##derne": 6929,
      "karakter": 6930,
      "uans": 6931,
      "##ites": 6932,
      "næsta": 6933,
      "þurfa": 6934,
      "jafnvel": 6935,
      "milljónir": 6936,
      "##lene": 6937,
      "virksomheder": 6938,
      "dæ": 6939,
      "##stjórnar": 6940,
      "inspir": 6941,
      "##skom": 6942,
      "##grunn": 6943,
      "##vek": 6944,
      "pasi": 6945,
      "##över": 6946,
      "63": 6947,
      "gym": 6948,
      "61": 6949,
      "##klart": 6950,
      "besøg": 6951,
      "Vår": 6952,
      "##politi": 6953,
      "plat": 6954,
      "##Nr": 6955,
      "ábyrg": 6956,
      "##úní": 6957,
      "bog": 6958,
      "verksamhet": 6959,
      "vigtigt": 6960,
      "länge": 6961,
      "resa": 6962,
      "nesten": 6963,
      "fro": 6964,
      "##program": 6965,
      "tema": 6966,
      "##iks": 6967,
      "##so": 6968,
      "widget": 6969,
      "77": 6970,
      "Side": 6971,
      "##elli": 6972,
      "##stø": 6973,
      "tímabil": 6974,
      "laun": 6975,
      "Henrik": 6976,
      "búið": 6977,
      "industri": 6978,
      "##MS": 6979,
      "dans": 6980,
      "##øring": 6981,
      "Þó": 6982,
      "hvem": 6983,
      "varier": 6984,
      "Jensen": 6985,
      "einstakling": 6986,
      "##abri": 6987,
      "svårt": 6988,
      "forseti": 6989,
      "##heds": 6990,
      "mánuði": 6991,
      "alene": 6992,
      "eina": 6993,
      "BO": 6994,
      "##organis": 6995,
      "Tyskland": 6996,
      "##lder": 6997,
      "ag": 6998,
      "video": 6999,
      "##ror": 7000,
      "##ordning": 7001,
      "##eland": 7002,
      "batter": 7003,
      "##håller": 7004,
      "blom": 7005,
      "text": 7006,
      "erbjuder": 7007,
      "##natt": 7008,
      "svart": 7009,
      "##ales": 7010,
      "ellers": 7011,
      "##mor": 7012,
      "hljó": 7013,
      "##uðum": 7014,
      "##æðum": 7015,
      "real": 7016,
      "Gro": 7017,
      "##punkt": 7018,
      "spar": 7019,
      "honom": 7020,
      "##elsens": 7021,
      "auðvitað": 7022,
      "##øst": 7023,
      "##mad": 7024,
      "bety": 7025,
      "Google": 7026,
      "inget": 7027,
      "bevis": 7028,
      "Akur": 7029,
      "ferie": 7030,
      "##irka": 7031,
      "##fag": 7032,
      "Ga": 7033,
      "##asm": 7034,
      "förut": 7035,
      "car": 7036,
      "hé": 7037,
      "##ölj": 7038,
      "bom": 7039,
      "ru": 7040,
      "##vne": 7041,
      "120": 7042,
      "virker": 7043,
      "arkite": 7044,
      "herunder": 7045,
      "lagi": 7046,
      "efni": 7047,
      "bá": 7048,
      "##lub": 7049,
      "stille": 7050,
      "hla": 7051,
      "##ðin": 7052,
      "fyrra": 7053,
      "hend": 7054,
      "##úru": 7055,
      "dersom": 7056,
      "meddel": 7057,
      "brukes": 7058,
      "##redning": 7059,
      "On": 7060,
      "stefnd": 7061,
      "##vík": 7062,
      "flutt": 7063,
      "72": 7064,
      "eta": 7065,
      "förstå": 7066,
      "använder": 7067,
      "##bundet": 7068,
      "digital": 7069,
      "ännu": 7070,
      "Lever": 7071,
      "##oriter": 7072,
      "##æss": 7073,
      "ól": 7074,
      "mär": 7075,
      "plu": 7076,
      "##þrótt": 7077,
      "##backs": 7078,
      "62": 7079,
      "bestäm": 7080,
      "##emed": 7081,
      "felles": 7082,
      "##iler": 7083,
      "##anleg": 7084,
      "moderne": 7085,
      "##sler": 7086,
      "stati": 7087,
      "dårlig": 7088,
      "##jl": 7089,
      "detaljer": 7090,
      "offentlige": 7091,
      "##park": 7092,
      "viden": 7093,
      "haldið": 7094,
      "Tekn": 7095,
      "##kerne": 7096,
      "sur": 7097,
      "Just": 7098,
      "##andid": 7099,
      "vissa": 7100,
      "##styrelsen": 7101,
      "##äld": 7102,
      "fólki": 7103,
      "##mör": 7104,
      "smak": 7105,
      "##ometer": 7106,
      "Famil": 7107,
      "##unnet": 7108,
      "##IV": 7109,
      "##øret": 7110,
      "##amer": 7111,
      "Kat": 7112,
      "júní": 7113,
      "##emål": 7114,
      "gerir": 7115,
      "riktig": 7116,
      "forsvar": 7117,
      "Col": 7118,
      "Wil": 7119,
      "løn": 7120,
      "formål": 7121,
      "vælge": 7122,
      "håller": 7123,
      "##dar": 7124,
      "##vård": 7125,
      "##skan": 7126,
      "##ningum": 7127,
      "##xxxx": 7128,
      "##jöf": 7129,
      "Beg": 7130,
      "##ante": 7131,
      "##farande": 7132,
      "##otter": 7133,
      "maskinovers": 7134,
      "##ommen": 7135,
      "##ear": 7136,
      "rapporter": 7137,
      "kopp": 7138,
      "brukt": 7139,
      "89": 7140,
      "allar": 7141,
      "##pum": 7142,
      "loft": 7143,
      "översätt": 7144,
      "##ival": 7145,
      "so": 7146,
      "Skal": 7147,
      "##egi": 7148,
      "ýms": 7149,
      "##Hotell": 7150,
      "rúm": 7151,
      "##ason": 7152,
      "äl": 7153,
      "krón": 7154,
      "blot": 7155,
      "##ägen": 7156,
      "Ger": 7157,
      "Matt": 7158,
      "Þann": 7159,
      "sve": 7160,
      "##ndi": 7161,
      "##ilda": 7162,
      "lørdag": 7163,
      "aut": 7164,
      "##unda": 7165,
      "kæm": 7166,
      "##etten": 7167,
      "gerði": 7168,
      "ml": 7169,
      "undervis": 7170,
      "börjar": 7171,
      "Trackbacks": 7172,
      "udvalg": 7173,
      "januari": 7174,
      "köpa": 7175,
      "Alex": 7176,
      "Ven": 7177,
      "anti": 7178,
      "Þessi": 7179,
      "bem": 7180,
      "##rede": 7181,
      "känns": 7182,
      "##jörn": 7183,
      "##rettet": 7184,
      "spænd": 7185,
      "bri": 7186,
      "stod": 7187,
      "##ores": 7188,
      "søndag": 7189,
      "betydning": 7190,
      "upphaf": 7191,
      "##skiner": 7192,
      "normalt": 7193,
      "##alega": 7194,
      "janúar": 7195,
      "Kont": 7196,
      "fred": 7197,
      "EN": 7198,
      "oversættelse": 7199,
      "Bus": 7200,
      "vack": 7201,
      "kveld": 7202,
      "##óber": 7203,
      "##PP": 7204,
      "TIL": 7205,
      "þennan": 7206,
      "ósk": 7207,
      "##skolan": 7208,
      "Led": 7209,
      "precis": 7210,
      "1000": 7211,
      "mamma": 7212,
      "tillgäng": 7213,
      "IS": 7214,
      "##ael": 7215,
      "##ony": 7216,
      "Dig": 7217,
      "Jør": 7218,
      "max": 7219,
      "mindst": 7220,
      "samræ": 7221,
      "##ás": 7222,
      "DV": 7223,
      "Mor": 7224,
      "taget": 7225,
      "nokkuð": 7226,
      "##holdt": 7227,
      "##angen": 7228,
      "köp": 7229,
      "valgt": 7230,
      "tilgjeng": 7231,
      "þjónustu": 7232,
      "##till": 7233,
      "##rin": 7234,
      "jur": 7235,
      "desig": 7236,
      "74": 7237,
      "##arn": 7238,
      "##inda": 7239,
      "##oga": 7240,
      "##gär": 7241,
      "Fyrir": 7242,
      "midt": 7243,
      "lærer": 7244,
      "Fyr": 7245,
      "minim": 7246,
      "Harald": 7247,
      "##ykket": 7248,
      "gla": 7249,
      "kjö": 7250,
      "starfsm": 7251,
      "Sy": 7252,
      "firma": 7253,
      "##komandi": 7254,
      "##ew": 7255,
      "##ringen": 7256,
      "Off": 7257,
      "Björn": 7258,
      "vart": 7259,
      "##boll": 7260,
      "##hlut": 7261,
      "opinber": 7262,
      "##igtige": 7263,
      "York": 7264,
      "osv": 7265,
      "Mik": 7266,
      "egna": 7267,
      "##ökk": 7268,
      "starter": 7269,
      "##cering": 7270,
      "billeder": 7271,
      "##mag": 7272,
      "##ows": 7273,
      "##plats": 7274,
      "##ylland": 7275,
      "internasjon": 7276,
      "náð": 7277,
      "Ac": 7278,
      "væru": 7279,
      "91": 7280,
      "##nin": 7281,
      "73": 7282,
      "virðist": 7283,
      "##dr": 7284,
      "##tan": 7285,
      "AF": 7286,
      "sider": 7287,
      "rent": 7288,
      "klokk": 7289,
      "tveim": 7290,
      "margir": 7291,
      "250": 7292,
      "nóv": 7293,
      "##män": 7294,
      "##itz": 7295,
      "##ativt": 7296,
      "sidan": 7297,
      "buss": 7298,
      "##vant": 7299,
      "##vægt": 7300,
      "innov": 7301,
      "faktiskt": 7302,
      "tölv": 7303,
      "AN": 7304,
      "skabe": 7305,
      "Leg": 7306,
      "##dir": 7307,
      "betyr": 7308,
      "bostad": 7309,
      "forud": 7310,
      "tæt": 7311,
      "manna": 7312,
      "niveau": 7313,
      "78": 7314,
      "heilbrig": 7315,
      "##slaget": 7316,
      "##værk": 7317,
      "##ete": 7318,
      "sil": 7319,
      "71": 7320,
      "##ifte": 7321,
      "##St": 7322,
      "önnur": 7323,
      "Stort": 7324,
      "fyra": 7325,
      "fremst": 7326,
      "Veg": 7327,
      "Bel": 7328,
      "Bal": 7329,
      "hring": 7330,
      "##kel": 7331,
      "ple": 7332,
      "viku": 7333,
      "avslu": 7334,
      "heter": 7335,
      "vilken": 7336,
      "delar": 7337,
      "aðst": 7338,
      "sof": 7339,
      "lítið": 7340,
      "adgang": 7341,
      "hy": 7342,
      "##sida": 7343,
      "##læ": 7344,
      "Vå": 7345,
      "alltså": 7346,
      "##orld": 7347,
      "vers": 7348,
      "Hoved": 7349,
      "beskriv": 7350,
      "Grø": 7351,
      "800": 7352,
      "møte": 7353,
      "gjen": 7354,
      "befolk": 7355,
      "mit": 7356,
      "nega": 7357,
      "##øker": 7358,
      "##fold": 7359,
      "##ína": 7360,
      "almen": 7361,
      "europ": 7362,
      "##spoliti": 7363,
      "skrevet": 7364,
      "Anne": 7365,
      "språk": 7366,
      "##óta": 7367,
      "skriv": 7368,
      "Beach": 7369,
      "Ob": 7370,
      "##förande": 7371,
      "##örer": 7372,
      "kunnskap": 7373,
      "ang": 7374,
      "##jóða": 7375,
      "handling": 7376,
      "rejsende": 7377,
      "individu": 7378,
      "stöðu": 7379,
      "##stæður": 7380,
      "##orten": 7381,
      "búin": 7382,
      "eðl": 7383,
      "redus": 7384,
      "ert": 7385,
      "frivil": 7386,
      "reik": 7387,
      "borger": 7388,
      "flesta": 7389,
      "hurtigt": 7390,
      "##uer": 7391,
      "##framt": 7392,
      "legge": 7393,
      "betaling": 7394,
      "skó": 7395,
      "##ukt": 7396,
      "##ferðar": 7397,
      "løsninger": 7398,
      "##handler": 7399,
      "landsins": 7400,
      "största": 7401,
      "Liv": 7402,
      "gammel": 7403,
      "høre": 7404,
      "unnið": 7405,
      "foreg": 7406,
      "aðra": 7407,
      "tidspunkt": 7408,
      "rök": 7409,
      "##ssp": 7410,
      "##råg": 7411,
      "hensyn": 7412,
      "nýtt": 7413,
      "##bara": 7414,
      "Maria": 7415,
      "arbejder": 7416,
      "profil": 7417,
      "##kohol": 7418,
      "tónlist": 7419,
      "áhuga": 7420,
      "möjlighet": 7421,
      "október": 7422,
      "##ney": 7423,
      "68": 7424,
      "##uts": 7425,
      "nærmere": 7426,
      "##rike": 7427,
      "##ía": 7428,
      "##lik": 7429,
      "Ap": 7430,
      "strax": 7431,
      "håber": 7432,
      "ganska": 7433,
      "besök": 7434,
      "vecka": 7435,
      "##værelse": 7436,
      "erfitt": 7437,
      "Evrópu": 7438,
      "##AV": 7439,
      "##aket": 7440,
      "sömu": 7441,
      "##24": 7442,
      "##emme": 7443,
      "##box": 7444,
      "politiet": 7445,
      "##aða": 7446,
      "Sjálf": 7447,
      "gat": 7448,
      "##ssel": 7449,
      "vent": 7450,
      "##osp": 7451,
      "##ningst": 7452,
      "mund": 7453,
      "##sko": 7454,
      "##rets": 7455,
      "190": 7456,
      "tvö": 7457,
      "##udaginn": 7458,
      "##nett": 7459,
      "trans": 7460,
      "bæjar": 7461,
      "Sid": 7462,
      "øy": 7463,
      "Vej": 7464,
      "Black": 7465,
      "##istar": 7466,
      "næste": 7467,
      "kampen": 7468,
      "fx": 7469,
      "##uddann": 7470,
      "##terne": 7471,
      "resultater": 7472,
      "##70": 7473,
      "##gs": 7474,
      "##jef": 7475,
      "##emark": 7476,
      "klare": 7477,
      "##ák": 7478,
      "##fell": 7479,
      "fjor": 7480,
      "rec": 7481,
      "##ior": 7482,
      "tank": 7483,
      "##ric": 7484,
      "##pren": 7485,
      "Nov": 7486,
      "##ternation": 7487,
      "##asin": 7488,
      "##vara": 7489,
      "Fal": 7490,
      "struktur": 7491,
      "nauðsyn": 7492,
      "indk": 7493,
      "##lementer": 7494,
      "##arder": 7495,
      "##stud": 7496,
      "uppdater": 7497,
      "PC": 7498,
      "Mere": 7499,
      "##vang": 7500,
      "sunn": 7501,
      "##wa": 7502,
      "stj": 7503,
      "ress": 7504,
      "Jóhann": 7505,
      "jobber": 7506,
      "Din": 7507,
      "græ": 7508,
      "bær": 7509,
      "Mø": 7510,
      "mening": 7511,
      "##kkurat": 7512,
      "##fti": 7513,
      "føler": 7514,
      "##cen": 7515,
      "defin": 7516,
      "##lende": 7517,
      "##ögu": 7518,
      "Tro": 7519,
      "ljus": 7520,
      "76": 7521,
      "Book": 7522,
      "journal": 7523,
      "síðast": 7524,
      "tilfælde": 7525,
      "Arbet": 7526,
      "glas": 7527,
      "gitt": 7528,
      "kommentar": 7529,
      "kald": 7530,
      "istället": 7531,
      "perioden": 7532,
      "##able": 7533,
      "såd": 7534,
      "86": 7535,
      "##usam": 7536,
      "##ølv": 7537,
      "främ": 7538,
      "delta": 7539,
      "193": 7540,
      "##orð": 7541,
      "Center": 7542,
      "Bill": 7543,
      "##ældende": 7544,
      "musikk": 7545,
      "félagsins": 7546,
      "##staða": 7547,
      "##leika": 7548,
      "##lement": 7549,
      "##uta": 7550,
      "fod": 7551,
      "##bare": 7552,
      "##histor": 7553,
      "88": 7554,
      "budget": 7555,
      "planlæg": 7556,
      "kjör": 7557,
      "lands": 7558,
      "framför": 7559,
      "##ence": 7560,
      "##oler": 7561,
      "Idag": 7562,
      "leyti": 7563,
      "bund": 7564,
      "##struktur": 7565,
      "nettet": 7566,
      "##ningur": 7567,
      "amb": 7568,
      "illa": 7569,
      "skrift": 7570,
      "##try": 7571,
      "framleið": 7572,
      "Fot": 7573,
      "fyll": 7574,
      "Hels": 7575,
      "Holl": 7576,
      "##udover": 7577,
      "##endet": 7578,
      "Þú": 7579,
      "anställ": 7580,
      "sæl": 7581,
      "webb": 7582,
      "brand": 7583,
      "fortfarande": 7584,
      "Ref": 7585,
      "##spektiv": 7586,
      "##ese": 7587,
      "##önnun": 7588,
      "daglig": 7589,
      "##istisk": 7590,
      "skemmt": 7591,
      "match": 7592,
      "nästan": 7593,
      "##élög": 7594,
      "sette": 7595,
      "Einar": 7596,
      "##hæð": 7597,
      "##ädd": 7598,
      "##orp": 7599,
      "##TE": 7600,
      "FL": 7601,
      "##isme": 7602,
      "##iness": 7603,
      "kommunikation": 7604,
      "skog": 7605,
      "private": 7606,
      "##jun": 7607,
      "Ford": 7608,
      "##nivå": 7609,
      "##jandi": 7610,
      "##spar": 7611,
      "grader": 7612,
      "grå": 7613,
      "kaffe": 7614,
      "ring": 7615,
      "Sem": 7616,
      "##ii": 7617,
      "fólks": 7618,
      "nästa": 7619,
      "##juk": 7620,
      "##tiviteter": 7621,
      "sent": 7622,
      "##sleg": 7623,
      "Aug": 7624,
      "##slur": 7625,
      "studie": 7626,
      "slí": 7627,
      "finansier": 7628,
      "serien": 7629,
      "sveitarfélag": 7630,
      "dej": 7631,
      "nasjon": 7632,
      "##OD": 7633,
      "##andra": 7634,
      "##aden": 7635,
      "Nyheter": 7636,
      "Dal": 7637,
      "team": 7638,
      "skö": 7639,
      "##óknar": 7640,
      "Samtidig": 7641,
      "##con": 7642,
      "tack": 7643,
      "##ruk": 7644,
      "##partementet": 7645,
      "##ano": 7646,
      "##stig": 7647,
      "Bank": 7648,
      "Peder": 7649,
      "sort": 7650,
      "##æller": 7651,
      "familien": 7652,
      "foræld": 7653,
      "hæst": 7654,
      "Gratis": 7655,
      "inga": 7656,
      "fjöld": 7657,
      "mør": 7658,
      "cirka": 7659,
      "heimil": 7660,
      "dat": 7661,
      "##kra": 7662,
      "senare": 7663,
      "øk": 7664,
      "gånger": 7665,
      "Forsk": 7666,
      "ihop": 7667,
      "##ætlun": 7668,
      "##df": 7669,
      "Hoteller": 7670,
      "udford": 7671,
      "##mitt": 7672,
      "stri": 7673,
      "mikilvæg": 7674,
      "##ála": 7675,
      "omsorg": 7676,
      "##checkning": 7677,
      "jätt": 7678,
      "##danning": 7679,
      "Tag": 7680,
      "##fo": 7681,
      "##lers": 7682,
      "hålla": 7683,
      "undersøg": 7684,
      "oper": 7685,
      "##allt": 7686,
      "rim": 7687,
      "PS": 7688,
      "tveimur": 7689,
      "##enärer": 7690,
      "##ømm": 7691,
      "Sist": 7692,
      "søk": 7693,
      "arbetar": 7694,
      "##rú": 7695,
      "ög": 7696,
      "lägen": 7697,
      "klima": 7698,
      "græn": 7699,
      "Grund": 7700,
      "sista": 7701,
      "profession": 7702,
      "##ulti": 7703,
      "artikel": 7704,
      "##tad": 7705,
      "passar": 7706,
      "Internation": 7707,
      "bruges": 7708,
      "##ligheten": 7709,
      "lækk": 7710,
      "##js": 7711,
      "chef": 7712,
      "Pre": 7713,
      "##tager": 7714,
      "apríl": 7715,
      "##ulering": 7716,
      "##endørs": 7717,
      "Suður": 7718,
      "laus": 7719,
      "ið": 7720,
      "##skrifter": 7721,
      "Mynd": 7722,
      "uge": 7723,
      "##bjud": 7724,
      "Kost": 7725,
      "Tom": 7726,
      "Mel": 7727,
      "lös": 7728,
      "skrá": 7729,
      "snabbt": 7730,
      "Trum": 7731,
      "##alys": 7732,
      "kraf": 7733,
      "##UM": 7734,
      "perfek": 7735,
      "##aken": 7736,
      "##sal": 7737,
      "välja": 7738,
      "verkt": 7739,
      "##useum": 7740,
      "##vind": 7741,
      "##lie": 7742,
      "Jens": 7743,
      "grupper": 7744,
      "##sats": 7745,
      "bestemt": 7746,
      "##leve": 7747,
      "likevel": 7748,
      "##ðast": 7749,
      "árinu": 7750,
      "smart": 7751,
      "sjálfs": 7752,
      "##ilde": 7753,
      "muligheder": 7754,
      "98": 7755,
      "landinu": 7756,
      "SEK": 7757,
      "tekst": 7758,
      "tilbyder": 7759,
      "##late": 7760,
      "##indre": 7761,
      "Heim": 7762,
      "hjælpe": 7763,
      "hurtig": 7764,
      "sendt": 7765,
      "bereg": 7766,
      "##ír": 7767,
      "##ific": 7768,
      "##sprogram": 7769,
      "##gruppen": 7770,
      "nóvember": 7771,
      "##atts": 7772,
      "trafik": 7773,
      "##rep": 7774,
      "##lubb": 7775,
      "tallet": 7776,
      "Web": 7777,
      "totalt": 7778,
      "##que": 7779,
      "Arbeid": 7780,
      "framtid": 7781,
      "netop": 7782,
      "fjalla": 7783,
      "##skeið": 7784,
      "##vän": 7785,
      "lavet": 7786,
      "kontor": 7787,
      "##ions": 7788,
      "legger": 7789,
      "komast": 7790,
      "##ragt": 7791,
      "##IR": 7792,
      "##ces": 7793,
      "fritid": 7794,
      "Malmö": 7795,
      "##iverpool": 7796,
      "skól": 7797,
      "miss": 7798,
      "##cken": 7799,
      "kaupa": 7800,
      "Einnig": 7801,
      "mulighet": 7802,
      "prioriter": 7803,
      "##slit": 7804,
      "##mänt": 7805,
      "##amen": 7806,
      "pos": 7807,
      "begynd": 7808,
      "Hos": 7809,
      "##22": 7810,
      "muni": 7811,
      "##minister": 7812,
      "##önster": 7813,
      "##fræði": 7814,
      "febr": 7815,
      "general": 7816,
      "dial": 7817,
      "##ination": 7818,
      "##engt": 7819,
      "styrke": 7820,
      "gik": 7821,
      "##jekk": 7822,
      "##sef": 7823,
      "Ke": 7824,
      "Lag": 7825,
      "##aðar": 7826,
      "Dr": 7827,
      "hefðu": 7828,
      "ský": 7829,
      "has": 7830,
      "Mu": 7831,
      "was": 7832,
      "84": 7833,
      "dokumenter": 7834,
      "Trond": 7835,
      "liðið": 7836,
      "Start": 7837,
      "go": 7838,
      "##ørte": 7839,
      "själva": 7840,
      "elektron": 7841,
      "Ólaf": 7842,
      "lun": 7843,
      "##isten": 7844,
      "##geir": 7845,
      "engin": 7846,
      "87": 7847,
      "ovan": 7848,
      "förl": 7849,
      "Ör": 7850,
      "##LE": 7851,
      "Ab": 7852,
      "##iell": 7853,
      "programmet": 7854,
      "Dom": 7855,
      "institu": 7856,
      "seks": 7857,
      "tiltak": 7858,
      "værd": 7859,
      "##duktion": 7860,
      "##emokra": 7861,
      "##dags": 7862,
      "Svenska": 7863,
      "borð": 7864,
      "##spla": 7865,
      "##fatter": 7866,
      "##tekn": 7867,
      "je": 7868,
      "VM": 7869,
      "komin": 7870,
      "##tryk": 7871,
      "løb": 7872,
      "lage": 7873,
      "cont": 7874,
      "klin": 7875,
      "##vern": 7876,
      "drøm": 7877,
      "##service": 7878,
      "utrolig": 7879,
      "praktisk": 7880,
      "##ått": 7881,
      "Van": 7882,
      "sats": 7883,
      "##livet": 7884,
      "##TA": 7885,
      "fråga": 7886,
      "påvir": 7887,
      "enginn": 7888,
      "##fast": 7889,
      "aften": 7890,
      "Høy": 7891,
      "fyrri": 7892,
      "num": 7893,
      "qu": 7894,
      "arbeidet": 7895,
      "Tot": 7896,
      "ums": 7897,
      "auka": 7898,
      "Ola": 7899,
      "##taka": 7900,
      "fungerer": 7901,
      "##ioner": 7902,
      "##løb": 7903,
      "##jöll": 7904,
      "forel": 7905,
      "registrer": 7906,
      "##valu": 7907,
      "##älla": 7908,
      "egent": 7909,
      "talet": 7910,
      "periode": 7911,
      "DN": 7912,
      "Folk": 7913,
      "midler": 7914,
      "pension": 7915,
      "kollek": 7916,
      "##skont": 7917,
      "centrum": 7918,
      "árang": 7919,
      "##asem": 7920,
      "produs": 7921,
      "album": 7922,
      "gælder": 7923,
      "##sled": 7924,
      "##rab": 7925,
      "Vurder": 7926,
      "höfðu": 7927,
      "sende": 7928,
      "manns": 7929,
      "##mur": 7930,
      "täv": 7931,
      "initi": 7932,
      "##kommer": 7933,
      "##DS": 7934,
      "greiða": 7935,
      "månader": 7936,
      "semester": 7937,
      "United": 7938,
      "brans": 7939,
      "séð": 7940,
      "##gjör": 7941,
      "vedr": 7942,
      "Også": 7943,
      "sölu": 7944,
      "Sammen": 7945,
      "filmen": 7946,
      "Ring": 7947,
      "Ný": 7948,
      "##nytt": 7949,
      "Jac": 7950,
      "hugs": 7951,
      "igennem": 7952,
      "fremtid": 7953,
      "##hen": 7954,
      "erfið": 7955,
      "ljóst": 7956,
      "Denna": 7957,
      "Aarhus": 7958,
      "Cas": 7959,
      "##laun": 7960,
      "lykk": 7961,
      "leita": 7962,
      "Danmarks": 7963,
      "##uro": 7964,
      "temperatur": 7965,
      "##yng": 7966,
      "##ool": 7967,
      "##sav": 7968,
      "funksjon": 7969,
      "##emang": 7970,
      "##start": 7971,
      "projektet": 7972,
      "191": 7973,
      "tradition": 7974,
      "forskjellige": 7975,
      "##uf": 7976,
      "##gren": 7977,
      "##laust": 7978,
      "##nede": 7979,
      "dessutom": 7980,
      "##amb": 7981,
      "árs": 7982,
      "##han": 7983,
      "undervisning": 7984,
      "Liverpool": 7985,
      "uke": 7986,
      "Vär": 7987,
      "medicin": 7988,
      "##eger": 7989,
      "aktiv": 7990,
      "##jóri": 7991,
      "Samkvæmt": 7992,
      "personlig": 7993,
      "augusti": 7994,
      "Mic": 7995,
      "##PR": 7996,
      "##itte": 7997,
      "##jente": 7998,
      "muse": 7999,
      "dest": 8000,
      "miljoner": 8001,
      "syd": 8002,
      "##yre": 8003,
      "gruppe": 8004,
      "Þannig": 8005,
      "Michael": 8006,
      "Því": 8007,
      "##ative": 8008,
      "##urser": 8009,
      "##gin": 8010,
      "inspira": 8011,
      "ofan": 8012,
      "##ologiske": 8013,
      "komu": 8014,
      "ude": 8015,
      "venner": 8016,
      "Bol": 8017,
      "Max": 8018,
      "ágúst": 8019,
      "världen": 8020,
      "lignende": 8021,
      "##DF": 8022,
      "umhverfis": 8023,
      "værelser": 8024,
      "Bod": 8025,
      "##talt": 8026,
      "180": 8027,
      "Kap": 8028,
      "middag": 8029,
      "ejendom": 8030,
      "Andersen": 8031,
      "##RG": 8032,
      "Tw": 8033,
      "vux": 8034,
      "West": 8035,
      "##ämp": 8036,
      "##ikasjon": 8037,
      "útg": 8038,
      "##spyr": 8039,
      "verkefni": 8040,
      "83": 8041,
      "Ole": 8042,
      "##gun": 8043,
      "Bas": 8044,
      "pan": 8045,
      "##ibliote": 8046,
      "##aleg": 8047,
      "februari": 8048,
      "fjar": 8049,
      "##oende": 8050,
      "##otten": 8051,
      "hóf": 8052,
      "##ervice": 8053,
      "##stænd": 8054,
      "##alli": 8055,
      "##ENT": 8056,
      "NY": 8057,
      "utstyr": 8058,
      "læse": 8059,
      "Ca": 8060,
      "mandag": 8061,
      "last": 8062,
      "##90": 8063,
      "##ident": 8064,
      "redig": 8065,
      "##eltet": 8066,
      "viður": 8067,
      "holdt": 8068,
      "##vernd": 8069,
      "##ho": 8070,
      "##äpp": 8071,
      "kjøp": 8072,
      "##23": 8073,
      "Skol": 8074,
      "rød": 8075,
      "Wind": 8076,
      "##isin": 8077,
      "rolig": 8078,
      "prisen": 8079,
      "Id": 8080,
      "eksister": 8081,
      "Na": 8082,
      "##jós": 8083,
      "bidrag": 8084,
      "##pil": 8085,
      "centr": 8086,
      "##slan": 8087,
      "bit": 8088,
      "Även": 8089,
      "##vís": 8090,
      "Amer": 8091,
      "fortæller": 8092,
      "son": 8093,
      "##ellem": 8094,
      "patienter": 8095,
      "lange": 8096,
      "##burg": 8097,
      "##edd": 8098,
      "pæ": 8099,
      "stemmer": 8100,
      "planer": 8101,
      "##ikum": 8102,
      "##gn": 8103,
      "kunskap": 8104,
      "##andre": 8105,
      "alkohol": 8106,
      "##gørelse": 8107,
      "restauranter": 8108,
      "##IM": 8109,
      "leig": 8110,
      "##holms": 8111,
      "konfer": 8112,
      "dobb": 8113,
      "almind": 8114,
      "leve": 8115,
      "Marie": 8116,
      "Bi": 8117,
      "Noen": 8118,
      "##nda": 8119,
      "##eggja": 8120,
      "hr": 8121,
      "febrúar": 8122,
      "afh": 8123,
      "staðar": 8124,
      "utenfor": 8125,
      "stutt": 8126,
      "##ikter": 8127,
      "anledning": 8128,
      "fina": 8129,
      "##ota": 8130,
      "former": 8131,
      "uk": 8132,
      "##sjonen": 8133,
      "##unders": 8134,
      "##legum": 8135,
      "tilst": 8136,
      "bedst": 8137,
      "Kristjá": 8138,
      "##ongen": 8139,
      "##nið": 8140,
      "samb": 8141,
      "##vriga": 8142,
      "næsten": 8143,
      "##slið": 8144,
      "tex": 8145,
      "##ærk": 8146,
      "Kina": 8147,
      "började": 8148,
      "Fredrik": 8149,
      "##ump": 8150,
      "langs": 8151,
      "klasse": 8152,
      "ingår": 8153,
      "##load": 8154,
      "frumvarp": 8155,
      "##forening": 8156,
      "overra": 8157,
      "##givet": 8158,
      "lengi": 8159,
      "##puter": 8160,
      "markað": 8161,
      "bon": 8162,
      "Ass": 8163,
      "gift": 8164,
      "##yper": 8165,
      "tanke": 8166,
      "gull": 8167,
      "brukar": 8168,
      "timmar": 8169,
      "##ary": 8170,
      "##iens": 8171,
      "##edia": 8172,
      "##smynd": 8173,
      "##versatts": 8174,
      "81": 8175,
      "##egående": 8176,
      "##rende": 8177,
      "viste": 8178,
      "interesse": 8179,
      "Kontakt": 8180,
      "Både": 8181,
      "Ell": 8182,
      "penger": 8183,
      "##örf": 8184,
      "breytingar": 8185,
      "bygget": 8186,
      "##disjon": 8187,
      "Hav": 8188,
      "skoða": 8189,
      "##skoð": 8190,
      "##eldi": 8191,
      "relig": 8192,
      "book": 8193,
      "strand": 8194,
      "givet": 8195,
      "Jak": 8196,
      "##mø": 8197,
      "stofn": 8198,
      "namn": 8199,
      "belig": 8200,
      "##mens": 8201,
      "##ækja": 8202,
      "lug": 8203,
      "handel": 8204,
      "ir": 8205,
      "scen": 8206,
      "96": 8207,
      "##aten": 8208,
      "##bör": 8209,
      "købe": 8210,
      "Posted": 8211,
      "jer": 8212,
      "##sókn": 8213,
      "respek": 8214,
      "##struk": 8215,
      "VI": 8216,
      "##rej": 8217,
      "maskinöversatts": 8218,
      "jämför": 8219,
      "Kristian": 8220,
      "spis": 8221,
      "##pon": 8222,
      "skill": 8223,
      "salt": 8224,
      "kok": 8225,
      "heima": 8226,
      "hversu": 8227,
      "fannst": 8228,
      "allan": 8229,
      "##vnt": 8230,
      "bekym": 8231,
      "mæl": 8232,
      "##hor": 8233,
      "fa": 8234,
      "fine": 8235,
      "studier": 8236,
      "prosjekt": 8237,
      "##isere": 8238,
      "##DE": 8239,
      "politisk": 8240,
      "såg": 8241,
      "náttúru": 8242,
      "overfor": 8243,
      "adress": 8244,
      "##lager": 8245,
      "Fisk": 8246,
      "##jent": 8247,
      "##emot": 8248,
      "##ingin": 8249,
      "RO": 8250,
      "bade": 8251,
      "##legu": 8252,
      "##leks": 8253,
      "##ravel": 8254,
      "kop": 8255,
      "##ærm": 8256,
      "svip": 8257,
      "markedet": 8258,
      "Bag": 8259,
      "inkl": 8260,
      "Resort": 8261,
      "ros": 8262,
      "mob": 8263,
      "Je": 8264,
      "##FOR": 8265,
      "intress": 8266,
      "##bred": 8267,
      "##UL": 8268,
      "##akka": 8269,
      "þjóðar": 8270,
      "##slut": 8271,
      "vigtig": 8272,
      "Thor": 8273,
      "##ét": 8274,
      "startet": 8275,
      "athyg": 8276,
      "rut": 8277,
      "Evróp": 8278,
      "ep": 8279,
      "munu": 8280,
      "gengið": 8281,
      "ferdig": 8282,
      "##undet": 8283,
      "##anlega": 8284,
      "tas": 8285,
      "kontroller": 8286,
      "akkurat": 8287,
      "tidlig": 8288,
      "Pal": 8289,
      "##mo": 8290,
      "##bane": 8291,
      "økt": 8292,
      "kast": 8293,
      "##lá": 8294,
      "oven": 8295,
      "skade": 8296,
      "fat": 8297,
      "spise": 8298,
      "formaður": 8299,
      "##lest": 8300,
      "toppen": 8301,
      "jf": 8302,
      "##tok": 8303,
      "Väl": 8304,
      "affär": 8305,
      "ok": 8306,
      "tilh": 8307,
      "þjálf": 8308,
      "emot": 8309,
      "enhver": 8310,
      "Eins": 8311,
      "ibland": 8312,
      "lyf": 8313,
      "##ånga": 8314,
      "fug": 8315,
      "Histor": 8316,
      "telur": 8317,
      "äm": 8318,
      "##nesk": 8319,
      "##indum": 8320,
      "modell": 8321,
      "Strand": 8322,
      "##uler": 8323,
      "##tav": 8324,
      "trening": 8325,
      "resenärer": 8326,
      "huden": 8327,
      "utbildning": 8328,
      "##fritt": 8329,
      "##bót": 8330,
      "93": 8331,
      "##jylland": 8332,
      "##alk": 8333,
      "Camp": 8334,
      "Dersom": 8335,
      "Design": 8336,
      "Midt": 8337,
      "statist": 8338,
      "##stæðis": 8339,
      "känd": 8340,
      "##vig": 8341,
      "back": 8342,
      "##yrði": 8343,
      "Vin": 8344,
      "##irnir": 8345,
      "bod": 8346,
      "Bur": 8347,
      "tilgjengelig": 8348,
      "BOOK": 8349,
      "##ops": 8350,
      "##smál": 8351,
      "##urer": 8352,
      "färg": 8353,
      "sist": 8354,
      "##mand": 8355,
      "politiske": 8356,
      "hra": 8357,
      "Köp": 8358,
      "mikla": 8359,
      "Spec": 8360,
      "Restaurant": 8361,
      "##iteten": 8362,
      "búa": 8363,
      "##RU": 8364,
      "män": 8365,
      "tölu": 8366,
      "##oli": 8367,
      "omdömet": 8368,
      "långt": 8369,
      "bræ": 8370,
      "Mac": 8371,
      "##skott": 8372,
      "ábyrgð": 8373,
      "##rade": 8374,
      "##IC": 8375,
      "brott": 8376,
      "##ningene": 8377,
      "Nielsen": 8378,
      "ykkur": 8379,
      "tækif": 8380,
      "stark": 8381,
      "ful": 8382,
      "##88": 8383,
      "sæ": 8384,
      "trev": 8385,
      "Stand": 8386,
      "##ännande": 8387,
      "##enting": 8388,
      "nál": 8389,
      "räk": 8390,
      "hjemmeside": 8391,
      "##irnar": 8392,
      "##iene": 8393,
      "Nation": 8394,
      "Ord": 8395,
      "94": 8396,
      "seneste": 8397,
      "hví": 8398,
      "##wn": 8399,
      "gransk": 8400,
      "Univers": 8401,
      "hlý": 8402,
      "band": 8403,
      "úti": 8404,
      "sentrum": 8405,
      "júlí": 8406,
      "Síð": 8407,
      "pengene": 8408,
      "##deren": 8409,
      "##mene": 8410,
      "82": 8411,
      "ton": 8412,
      "##ängd": 8413,
      "spennende": 8414,
      "oppdatert": 8415,
      "sýna": 8416,
      "##ical": 8417,
      "##verkar": 8418,
      "spor": 8419,
      "mánuð": 8420,
      "##ful": 8421,
      "AM": 8422,
      "placer": 8423,
      "Span": 8424,
      "##göng": 8425,
      "##gjort": 8426,
      "foresl": 8427,
      "##yde": 8428,
      "##edagog": 8429,
      "Service": 8430,
      "row": 8431,
      "örygg": 8432,
      "vax": 8433,
      "kvinner": 8434,
      "fysisk": 8435,
      "Spør": 8436,
      "##øse": 8437,
      "##ligheder": 8438,
      "utanför": 8439,
      "hinn": 8440,
      "##tage": 8441,
      "conta": 8442,
      "værelse": 8443,
      "fyrirtæki": 8444,
      "skar": 8445,
      "teknologi": 8446,
      "##spr": 8447,
      "##ården": 8448,
      "Dagbladet": 8449,
      "artikk": 8450,
      "##spil": 8451,
      "sögu": 8452,
      "##ate": 8453,
      "##skade": 8454,
      "systemet": 8455,
      "##siden": 8456,
      "##ampen": 8457,
      "##lej": 8458,
      "Ifølge": 8459,
      "skolan": 8460,
      "##aðila": 8461,
      "Art": 8462,
      "dýr": 8463,
      "stundum": 8464,
      "død": 8465,
      "nokkrum": 8466,
      "läk": 8467,
      "##kont": 8468,
      "frv": 8469,
      "møde": 8470,
      "Hej": 8471,
      "Hotellet": 8472,
      "700": 8473,
      "musk": 8474,
      "##ådan": 8475,
      "Styr": 8476,
      "muligvis": 8477,
      "góða": 8478,
      "kvik": 8479,
      "litter": 8480,
      "gest": 8481,
      "CD": 8482,
      "tall": 8483,
      "Hotels": 8484,
      "haust": 8485,
      "UN": 8486,
      "##kert": 8487,
      "##jóta": 8488,
      "##lov": 8489,
      "Italien": 8490,
      "frisk": 8491,
      "Lög": 8492,
      "##igheder": 8493,
      "handlers": 8494,
      "distri": 8495,
      "Mc": 8496,
      "PO": 8497,
      "áhers": 8498,
      "inlägg": 8499,
      "Paris": 8500,
      "##øp": 8501,
      "Social": 8502,
      "Hög": 8503,
      "nýr": 8504,
      "##ther": 8505,
      "##talte": 8506,
      "##ysi": 8507,
      "##æðis": 8508,
      "breytt": 8509,
      "Bild": 8510,
      "lade": 8511,
      "##ali": 8512,
      "##enk": 8513,
      "dels": 8514,
      "Bud": 8515,
      "##bæk": 8516,
      "veckan": 8517,
      "såsom": 8518,
      "blað": 8519,
      "delen": 8520,
      "fjölmið": 8521,
      "reyndar": 8522,
      "##kkar": 8523,
      "Anmeldt": 8524,
      "pening": 8525,
      "varför": 8526,
      "Bland": 8527,
      "hest": 8528,
      "arbeids": 8529,
      "fjór": 8530,
      "Kol": 8531,
      "VG": 8532,
      "##ólf": 8533,
      "##lare": 8534,
      "Jul": 8535,
      "mangler": 8536,
      "kvinnor": 8537,
      "hjelpe": 8538,
      "Skriv": 8539,
      "tilsvar": 8540,
      "##verka": 8541,
      "##ments": 8542,
      "So": 8543,
      "heild": 8544,
      "1999": 8545,
      "lista": 8546,
      "rit": 8547,
      "tillfäll": 8548,
      "gildi": 8549,
      "sjón": 8550,
      "Pet": 8551,
      "Vit": 8552,
      "##firði": 8553,
      "träff": 8554,
      "neitt": 8555,
      "Sti": 8556,
      "mínú": 8557,
      "##agram": 8558,
      "Frem": 8559,
      "##istan": 8560,
      "seier": 8561,
      "Artik": 8562,
      "Rasm": 8563,
      "især": 8564,
      "häm": 8565,
      "slike": 8566,
      "sch": 8567,
      "##enni": 8568,
      "dator": 8569,
      "populære": 8570,
      "trots": 8571,
      "straff": 8572,
      "oftast": 8573,
      "##iva": 8574,
      "900": 8575,
      "##SS": 8576,
      "gaman": 8577,
      "##komulag": 8578,
      "förm": 8579,
      "##ínu": 8580,
      "Aut": 8581,
      "##öder": 8582,
      "Va": 8583,
      "økonomi": 8584,
      "Ri": 8585,
      "början": 8586,
      "##öku": 8587,
      "##gangen": 8588,
      "lenger": 8589,
      "sbr": 8590,
      "NE": 8591,
      "LED": 8592,
      "##ykker": 8593,
      "Ur": 8594,
      "##iff": 8595,
      "Anmäl": 8596,
      "markeds": 8597,
      "ákveð": 8598,
      "sida": 8599,
      "formid": 8600,
      "träd": 8601,
      "Telefon": 8602,
      "nærings": 8603,
      "Mand": 8604,
      "##annen": 8605,
      "rest": 8606,
      "heimild": 8607,
      "##eyri": 8608,
      "konfl": 8609,
      "takk": 8610,
      "aðrir": 8611,
      "##bättra": 8612,
      "##ystemet": 8613,
      "servic": 8614,
      "##elserne": 8615,
      "lese": 8616,
      "##mærksom": 8617,
      "##yres": 8618,
      "HD": 8619,
      "sundhed": 8620,
      "##ettere": 8621,
      "varnar": 8622,
      "velge": 8623,
      "##ifi": 8624,
      "indlæg": 8625,
      "veitt": 8626,
      "sju": 8627,
      "##spur": 8628,
      "sosi": 8629,
      "nýja": 8630,
      "närm": 8631,
      "tirsdag": 8632,
      "##varing": 8633,
      "Kategor": 8634,
      "##hi": 8635,
      "##ekan": 8636,
      "øje": 8637,
      "can": 8638,
      "##seende": 8639,
      "##ekom": 8640,
      "borde": 8641,
      "##nr": 8642,
      "bilde": 8643,
      "gillar": 8644,
      "##produ": 8645,
      "##oter": 8646,
      "køre": 8647,
      "Bak": 8648,
      "demokra": 8649,
      "Danske": 8650,
      "##bold": 8651,
      "##hf": 8652,
      "##kkes": 8653,
      "##ugh": 8654,
      "##beskriv": 8655,
      "##sý": 8656,
      "konur": 8657,
      "##tiska": 8658,
      "##aðurinn": 8659,
      "konkurr": 8660,
      "##óðir": 8661,
      "##abet": 8662,
      "ment": 8663,
      "##ktar": 8664,
      "sor": 8665,
      "Information": 8666,
      "amerikanske": 8667,
      "verkar": 8668,
      "produksjon": 8669,
      "stål": 8670,
      "##ots": 8671,
      "##sóknar": 8672,
      "##TT": 8673,
      "ytterligare": 8674,
      "##orth": 8675,
      "stjerner": 8676,
      "syst": 8677,
      "check": 8678,
      "##ný": 8679,
      "daginn": 8680,
      "##yer": 8681,
      "fungerar": 8682,
      "månad": 8683,
      "annarra": 8684,
      "etc": 8685,
      "##undar": 8686,
      "princ": 8687,
      "##trygg": 8688,
      "minna": 8689,
      "intervju": 8690,
      "Sum": 8691,
      "##afl": 8692,
      "kvinder": 8693,
      "Nei": 8694,
      "rolle": 8695,
      "##høj": 8696,
      "íþrótt": 8697,
      "øv": 8698,
      "driver": 8699,
      "nam": 8700,
      "Cop": 8701,
      "##cy": 8702,
      "mennesk": 8703,
      "##ynt": 8704,
      "íslenska": 8705,
      "såk": 8706,
      "direktør": 8707,
      "Kor": 8708,
      "##tiser": 8709,
      "##otte": 8710,
      "sól": 8711,
      "Und": 8712,
      "Gru": 8713,
      "garanter": 8714,
      "##tíðar": 8715,
      "Halld": 8716,
      "køber": 8717,
      "ønske": 8718,
      "føre": 8719,
      "läs": 8720,
      "Rek": 8721,
      "Hvorfor": 8722,
      "##99": 8723,
      "kapital": 8724,
      "SM": 8725,
      "##grein": 8726,
      "Resultat": 8727,
      "generelt": 8728,
      "hérna": 8729,
      "tilbyr": 8730,
      "arbeta": 8731,
      "krónur": 8732,
      "uger": 8733,
      "##jarða": 8734,
      "##atch": 8735,
      "versl": 8736,
      "serie": 8737,
      "lande": 8738,
      "strå": 8739,
      "##rún": 8740,
      "opdater": 8741,
      "dialog": 8742,
      "##ally": 8743,
      "##affe": 8744,
      "venstre": 8745,
      "kamera": 8746,
      "vore": 8747,
      "stab": 8748,
      "vanligt": 8749,
      "##öcker": 8750,
      "##ilar": 8751,
      "##jóst": 8752,
      "Bad": 8753,
      "##ics": 8754,
      "##ansport": 8755,
      "Allmänt": 8756,
      "studenter": 8757,
      "Morg": 8758,
      "tje": 8759,
      "##emeld": 8760,
      "fylg": 8761,
      "col": 8762,
      "varmt": 8763,
      "Antal": 8764,
      "##akta": 8765,
      "åtgär": 8766,
      "relativt": 8767,
      "visa": 8768,
      "söker": 8769,
      "Nil": 8770,
      "##óður": 8771,
      "##ze": 8772,
      "##stillinger": 8773,
      "Lille": 8774,
      "alþjóð": 8775,
      "framkvæmdast": 8776,
      "##essage": 8777,
      "##havn": 8778,
      "Do": 8779,
      "søg": 8780,
      "Jakob": 8781,
      "##ømme": 8782,
      "##grupper": 8783,
      "##ökum": 8784,
      "##áða": 8785,
      "Tour": 8786,
      "##ælland": 8787,
      "##oppen": 8788,
      "##sme": 8789,
      "##ommender": 8790,
      "cykel": 8791,
      "aðila": 8792,
      "##ammer": 8793,
      "##ulegt": 8794,
      "##elsene": 8795,
      "opmærksom": 8796,
      "lögreglu": 8797,
      "betri": 8798,
      "##unge": 8799,
      "hot": 8800,
      "##ordin": 8801,
      "Mobil": 8802,
      "spela": 8803,
      "##itel": 8804,
      "##trepren": 8805,
      "art": 8806,
      "skuli": 8807,
      "Kro": 8808,
      "komi": 8809,
      "bus": 8810,
      "stjór": 8811,
      "##hone": 8812,
      "vildi": 8813,
      "arbets": 8814,
      "regering": 8815,
      "omgiv": 8816,
      "Kjø": 8817,
      "nyheter": 8818,
      "engelska": 8819,
      "heims": 8820,
      "Ret": 8821,
      "##refter": 8822,
      "##velli": 8823,
      "##ætis": 8824,
      "##þjónustu": 8825,
      "##skum": 8826,
      "pdf": 8827,
      "økonomiske": 8828,
      "Hvil": 8829,
      "málinu": 8830,
      "Sedan": 8831,
      "##rafikk": 8832,
      "tydelig": 8833,
      "framhald": 8834,
      "öru": 8835,
      "markmið": 8836,
      "##ders": 8837,
      "##hu": 8838,
      "Store": 8839,
      "Skrevet": 8840,
      "resultatet": 8841,
      "##jön": 8842,
      "##legar": 8843,
      "staðfest": 8844,
      "skjø": 8845,
      "händer": 8846,
      "Troms": 8847,
      "##verse": 8848,
      "Golf": 8849,
      "nemt": 8850,
      "indeholder": 8851,
      "äg": 8852,
      "##ussen": 8853,
      "arbejdet": 8854,
      "Hag": 8855,
      "lägga": 8856,
      "##astof": 8857,
      "selve": 8858,
      "##andt": 8859,
      "motiv": 8860,
      "##Price": 8861,
      "løbet": 8862,
      "##gade": 8863,
      "##AK": 8864,
      "hit": 8865,
      "hær": 8866,
      "##tað": 8867,
      "##kant": 8868,
      "House": 8869,
      "sinna": 8870,
      "risiko": 8871,
      "Omdö": 8872,
      "##laug": 8873,
      "##laga": 8874,
      "kem": 8875,
      "bäst": 8876,
      "##ningslin": 8877,
      "##hre": 8878,
      "Någ": 8879,
      "##værdig": 8880,
      "##mester": 8881,
      "liges": 8882,
      "ánæg": 8883,
      "Jacob": 8884,
      "tíð": 8885,
      "##åga": 8886,
      "innlegg": 8887,
      "##legur": 8888,
      "vurdere": 8889,
      "Från": 8890,
      "Don": 8891,
      "bæta": 8892,
      "äldre": 8893,
      "innehåller": 8894,
      "økonomisk": 8895,
      "deil": 8896,
      "Lad": 8897,
      "##itir": 8898,
      "##chester": 8899,
      "##sch": 8900,
      "garanti": 8901,
      "##vnte": 8902,
      "Þau": 8903,
      "Produkt": 8904,
      "##geng": 8905,
      "inviter": 8906,
      "skriva": 8907,
      "##ube": 8908,
      "mikro": 8909,
      "##ställning": 8910,
      "húsn": 8911,
      "Genom": 8912,
      "slår": 8913,
      "fördel": 8914,
      "Høj": 8915,
      "##ynam": 8916,
      "snú": 8917,
      "##asen": 8918,
      "kilometer": 8919,
      "##riks": 8920,
      "Log": 8921,
      "##skost": 8922,
      "reklam": 8923,
      "##jo": 8924,
      "##ræns": 8925,
      "baggrund": 8926,
      "hjälpa": 8927,
      "bidrar": 8928,
      "Já": 8929,
      "##tekt": 8930,
      "##afé": 8931,
      "tider": 8932,
      "angre": 8933,
      "hører": 8934,
      "##ament": 8935,
      "sjávar": 8936,
      "##aner": 8937,
      "gravid": 8938,
      "liggur": 8939,
      "##ause": 8940,
      "föräld": 8941,
      "##undur": 8942,
      "total": 8943,
      "roligt": 8944,
      "mála": 8945,
      "kjar": 8946,
      "##sig": 8947,
      "aðger": 8948,
      "##konomi": 8949,
      "nafn": 8950,
      "##bal": 8951,
      "##ækk": 8952,
      "doll": 8953,
      "dokument": 8954,
      "Program": 8955,
      "##iten": 8956,
      "hlutverk": 8957,
      "Leik": 8958,
      "##ated": 8959,
      "Trump": 8960,
      "##LIN": 8961,
      "##setning": 8962,
      "poeng": 8963,
      "##delingen": 8964,
      "tilsyn": 8965,
      "Meira": 8966,
      "sigur": 8967,
      "landsb": 8968,
      "Star": 8969,
      "Cor": 8970,
      "reng": 8971,
      "FN": 8972,
      "##smed": 8973,
      "lanser": 8974,
      "kvenna": 8975,
      "PRI": 8976,
      "dæmi": 8977,
      "født": 8978,
      "varðandi": 8979,
      "Tek": 8980,
      "cook": 8981,
      "grun": 8982,
      "Tv": 8983,
      "##verkan": 8984,
      "##srael": 8985,
      "särskilt": 8986,
      "##yen": 8987,
      "kommende": 8988,
      "##OF": 8989,
      "##talen": 8990,
      "koster": 8991,
      "##alisering": 8992,
      "##pas": 8993,
      "##ssk": 8994,
      "##edrag": 8995,
      "vider": 8996,
      "##skola": 8997,
      "##yrt": 8998,
      "Lo": 8999,
      "medan": 9000,
      "##15": 9001,
      "Vol": 9002,
      "rull": 9003,
      "##ege": 9004,
      "##løse": 9005,
      "används": 9006,
      "##arbejde": 9007,
      "##æra": 9008,
      "##Ja": 9009,
      "jarð": 9010,
      "smer": 9011,
      "##lfar": 9012,
      "##aup": 9013,
      "ejer": 9014,
      "folke": 9015,
      "##ritann": 9016,
      "Miljø": 9017,
      "positiv": 9018,
      "##ians": 9019,
      "##yttes": 9020,
      "##entation": 9021,
      "leverer": 9022,
      "Spa": 9023,
      "jeres": 9024,
      "tagit": 9025,
      "stilling": 9026,
      "fører": 9027,
      "þyk": 9028,
      "karri": 9029,
      "bera": 9030,
      "##områder": 9031,
      "##EC": 9032,
      "Paul": 9033,
      "einfald": 9034,
      "miðað": 9035,
      "##itta": 9036,
      "Gå": 9037,
      "sætte": 9038,
      "##fisk": 9039,
      "##VER": 9040,
      "##stöðum": 9041,
      "##pligt": 9042,
      "størrelse": 9043,
      "pul": 9044,
      "helgen": 9045,
      "Dire": 9046,
      "1998": 9047,
      "##star": 9048,
      "landets": 9049,
      "tviv": 9050,
      "udstyr": 9051,
      "Frétt": 9052,
      "sektor": 9053,
      "Jap": 9054,
      "Suites": 9055,
      "##enes": 9056,
      "jafnframt": 9057,
      "##cks": 9058,
      "Fly": 9059,
      "Arbej": 9060,
      "IF": 9061,
      "modeller": 9062,
      "##ellet": 9063,
      "Fi": 9064,
      "##skipti": 9065,
      "starfsemi": 9066,
      "Link": 9067,
      "stefnanda": 9068,
      "##valtning": 9069,
      "Fan": 9070,
      "Finans": 9071,
      "tillgång": 9072,
      "##varande": 9073,
      "brev": 9074,
      "##elag": 9075,
      "##alag": 9076,
      "håper": 9077,
      "flotte": 9078,
      "Bon": 9079,
      "Kv": 9080,
      "##dde": 9081,
      "anbefaler": 9082,
      "Norr": 9083,
      "##stedet": 9084,
      "speci": 9085,
      "##esen": 9086,
      "elsker": 9087,
      "##dens": 9088,
      "gången": 9089,
      "endelig": 9090,
      "##orks": 9091,
      "klubben": 9092,
      "sej": 9093,
      "hende": 9094,
      "naturen": 9095,
      "dvs": 9096,
      "veckor": 9097,
      "spændende": 9098,
      "Vores": 9099,
      "kla": 9100,
      "##sagt": 9101,
      "reis": 9102,
      "##ny": 9103,
      "##api": 9104,
      "##anen": 9105,
      "arr": 9106,
      "radio": 9107,
      "giv": 9108,
      "turen": 9109,
      "stats": 9110,
      "etabl": 9111,
      "boken": 9112,
      "fotograf": 9113,
      "undanfar": 9114,
      "Alþingi": 9115,
      "Ho": 9116,
      "lilla": 9117,
      "leverand": 9118,
      "92": 9119,
      "ríkisins": 9120,
      "prøver": 9121,
      "venn": 9122,
      "Home": 9123,
      "omdöme": 9124,
      "##hov": 9125,
      "##gården": 9126,
      "##mm": 9127,
      "evt": 9128,
      "allmän": 9129,
      "##ønn": 9130,
      "dreg": 9131,
      "One": 9132,
      "vænt": 9133,
      "fljó": 9134,
      "Apple": 9135,
      "fjó": 9136,
      "Siden": 9137,
      "starte": 9138,
      "##fart": 9139,
      "##mail": 9140,
      "kob": 9141,
      "Fag": 9142,
      "Frederik": 9143,
      "spyr": 9144,
      "##14": 9145,
      "spila": 9146,
      "hinanden": 9147,
      "England": 9148,
      "##lags": 9149,
      "tand": 9150,
      "sep": 9151,
      "Is": 9152,
      "þurfi": 9153,
      "naturligvis": 9154,
      "##splass": 9155,
      "ákveðið": 9156,
      "##ftig": 9157,
      "##ertif": 9158,
      "Full": 9159,
      "borgar": 9160,
      "forven": 9161,
      "websh": 9162,
      "ær": 9163,
      "sender": 9164,
      "viðkomandi": 9165,
      "##omer": 9166,
      "Félag": 9167,
      "##irt": 9168,
      "hlið": 9169,
      "Storb": 9170,
      "opplev": 9171,
      "##emati": 9172,
      "##uren": 9173,
      "pakk": 9174,
      "MA": 9175,
      "restaurant": 9176,
      "Sof": 9177,
      "##pg": 9178,
      "##terier": 9179,
      "##äker": 9180,
      "mörg": 9181,
      "teknik": 9182,
      "kall": 9183,
      "innenfor": 9184,
      "satte": 9185,
      "veta": 9186,
      "svara": 9187,
      "kræver": 9188,
      "Of": 9189,
      "##värd": 9190,
      "draga": 9191,
      "barneh": 9192,
      "unga": 9193,
      "målet": 9194,
      "íslensku": 9195,
      "lán": 9196,
      "imod": 9197,
      "tryggja": 9198,
      "ehf": 9199,
      "##hn": 9200,
      "Charl": 9201,
      "telja": 9202,
      "dro": 9203,
      "tänka": 9204,
      "##inen": 9205,
      "110": 9206,
      "succ": 9207,
      "##13": 9208,
      "guld": 9209,
      "mak": 9210,
      "SH": 9211,
      "##delen": 9212,
      "barns": 9213,
      "kjøpe": 9214,
      "skift": 9215,
      "innehåll": 9216,
      "##betal": 9217,
      "##itive": 9218,
      "##ýra": 9219,
      "samræmi": 9220,
      "##ware": 9221,
      "fanns": 9222,
      "##sjoner": 9223,
      "##play": 9224,
      "døg": 9225,
      "nab": 9226,
      "veik": 9227,
      "##Pro": 9228,
      "##gjaf": 9229,
      "knyttet": 9230,
      "tradisjon": 9231,
      "golf": 9232,
      "gle": 9233,
      "mbl": 9234,
      "funnet": 9235,
      "bestemm": 9236,
      "##sområ": 9237,
      "##igen": 9238,
      "##rest": 9239,
      "olje": 9240,
      "milit": 9241,
      "##läg": 9242,
      "sten": 9243,
      "produktion": 9244,
      "##stjór": 9245,
      "Slik": 9246,
      "##rønd": 9247,
      "##oster": 9248,
      "foto": 9249,
      "gruppen": 9250,
      "##mæli": 9251,
      "egentligen": 9252,
      "##følgende": 9253,
      "##itið": 9254,
      "fi": 9255,
      "Tal": 9256,
      "##skal": 9257,
      "##beg": 9258,
      "##tit": 9259,
      "##partiet": 9260,
      "reise": 9261,
      "##breytt": 9262,
      "högre": 9263,
      "jobbe": 9264,
      "beint": 9265,
      "##ementer": 9266,
      "misst": 9267,
      "##entre": 9268,
      "liknande": 9269,
      "positivt": 9270,
      "kombin": 9271,
      "##ript": 9272,
      "vekt": 9273,
      "mínum": 9274,
      "show": 9275,
      "##vering": 9276,
      "##nden": 9277,
      "##deg": 9278,
      "butik": 9279,
      "turn": 9280,
      "attrak": 9281,
      "##rika": 9282,
      "##steder": 9283,
      "##ält": 9284,
      "##ave": 9285,
      "##sek": 9286,
      "##besk": 9287,
      "opgaver": 9288,
      "intro": 9289,
      "dæmis": 9290,
      "##elefon": 9291,
      "prins": 9292,
      "mikilvægt": 9293,
      "øvrige": 9294,
      "##skort": 9295,
      "Bog": 9296,
      "##hund": 9297,
      "media": 9298,
      "##bildning": 9299,
      "ráðst": 9300,
      "Dagens": 9301,
      "##valitet": 9302,
      "KR": 9303,
      "##17": 9304,
      "identif": 9305,
      "fræð": 9306,
      "kraftig": 9307,
      "Syn": 9308,
      "##smø": 9309,
      "##nsdóttir": 9310,
      "Larsen": 9311,
      "gemens": 9312,
      "Lov": 9313,
      "lavere": 9314,
      "##ðja": 9315,
      "Aal": 9316,
      "typisk": 9317,
      "##terar": 9318,
      "heilbrigðis": 9319,
      "talið": 9320,
      "Bör": 9321,
      "Årets": 9322,
      "##eks": 9323,
      "##ørsel": 9324,
      "##ibliotek": 9325,
      "##ivelse": 9326,
      "glem": 9327,
      "##ætter": 9328,
      "indtil": 9329,
      "kandid": 9330,
      "livs": 9331,
      "Grøn": 9332,
      "Dår": 9333,
      "##AP": 9334,
      "Rík": 9335,
      "sikkerhet": 9336,
      "djur": 9337,
      "kvartal": 9338,
      "##ml": 9339,
      "tveggja": 9340,
      "desuden": 9341,
      "rammer": 9342,
      "basert": 9343,
      "rak": 9344,
      "Vikt": 9345,
      "atkv": 9346,
      "Storbritann": 9347,
      "##onym": 9348,
      "##dagog": 9349,
      "BR": 9350,
      "Bret": 9351,
      "Stre": 9352,
      "selskap": 9353,
      "##ssyni": 9354,
      "kommen": 9355,
      "International": 9356,
      "hed": 9357,
      "ráðherra": 9358,
      "ríkisstjórn": 9359,
      "##veckling": 9360,
      "ástæ": 9361,
      "Annar": 9362,
      "##asj": 9363,
      "hæstv": 9364,
      "metoder": 9365,
      "Hug": 9366,
      "##iør": 9367,
      "##øyd": 9368,
      "##ré": 9369,
      "##dur": 9370,
      "Akureyri": 9371,
      "tjenester": 9372,
      "båda": 9373,
      "liter": 9374,
      "þrátt": 9375,
      "nä": 9376,
      "fót": 9377,
      "##valda": 9378,
      "##anner": 9379,
      "indenfor": 9380,
      "absolut": 9381,
      "árat": 9382,
      "##ikar": 9383,
      "tilg": 9384,
      "lar": 9385,
      "Daniel": 9386,
      "##staden": 9387,
      "relevant": 9388,
      "##ius": 9389,
      "forest": 9390,
      "MS": 9391,
      "einmitt": 9392,
      "begr": 9393,
      "effektiv": 9394,
      "regeringen": 9395,
      "ákvæði": 9396,
      "Hjem": 9397,
      "ønsk": 9398,
      "Jack": 9399,
      "arbetet": 9400,
      "greiðslu": 9401,
      "värde": 9402,
      "##jänst": 9403,
      "alvar": 9404,
      "##íða": 9405,
      "AV": 9406,
      "beslu": 9407,
      "##rienter": 9408,
      "göm": 9409,
      "lettere": 9410,
      "##vd": 9411,
      "SF": 9412,
      "##bind": 9413,
      "liker": 9414,
      "sikkerhed": 9415,
      "huga": 9416,
      "Coll": 9417,
      "##serne": 9418,
      "møter": 9419,
      "personlige": 9420,
      "hente": 9421,
      "Elekt": 9422,
      "bist": 9423,
      "##bak": 9424,
      "brugt": 9425,
      "You": 9426,
      "málsins": 9427,
      "Lou": 9428,
      "Villa": 9429,
      "bakom": 9430,
      "##hengig": 9431,
      "diagn": 9432,
      "Medlem": 9433,
      "##smæss": 9434,
      "##flyt": 9435,
      "velkommen": 9436,
      "rø": 9437,
      "BL": 9438,
      "##finu": 9439,
      "redu": 9440,
      "May": 9441,
      "##itut": 9442,
      "butikker": 9443,
      "##stofu": 9444,
      "uddannelse": 9445,
      "##wood": 9446,
      "fört": 9447,
      "prim": 9448,
      "ledelse": 9449,
      "kjem": 9450,
      "##enings": 9451,
      "køkken": 9452,
      "##eringer": 9453,
      "Uni": 9454,
      "##uel": 9455,
      "moms": 9456,
      "Skri": 9457,
      "##ennis": 9458,
      "synd": 9459,
      "boka": 9460,
      "##26": 9461,
      "Pedersen": 9462,
      "##ospital": 9463,
      "nýju": 9464,
      "##ugardag": 9465,
      "handle": 9466,
      "døde": 9467,
      "uppdrag": 9468,
      "sle": 9469,
      "Nav": 9470,
      "Tri": 9471,
      "skru": 9472,
      "##bli": 9473,
      "ekstr": 9474,
      "vold": 9475,
      "##ítal": 9476,
      "Privat": 9477,
      "unna": 9478,
      "skape": 9479,
      "utom": 9480,
      "restauranger": 9481,
      "##yrer": 9482,
      "Nett": 9483,
      "DK": 9484,
      "medarbejdere": 9485,
      "NTB": 9486,
      "Bolig": 9487,
      "Top": 9488,
      "þessara": 9489,
      "##meter": 9490,
      "##ssen": 9491,
      "##16": 9492,
      "##hal": 9493,
      "Island": 9494,
      "snygg": 9495,
      "valgte": 9496,
      "##PL": 9497,
      "rob": 9498,
      "skyldes": 9499,
      "sens": 9500,
      "##grupp": 9501,
      "##27": 9502,
      "##spri": 9503,
      "fant": 9504,
      "bif": 9505,
      "driv": 9506,
      "Inne": 9507,
      "starten": 9508,
      "ålder": 9509,
      "konar": 9510,
      "úrskur": 9511,
      "##jet": 9512,
      "ársins": 9513,
      "Sun": 9514,
      "##skrif": 9515,
      "bein": 9516,
      "klukkan": 9517,
      "administra": 9518,
      "sæt": 9519,
      "Stav": 9520,
      "málef": 9521,
      "##ums": 9522,
      "##middag": 9523,
      "soci": 9524,
      "ID": 9525,
      "bestem": 9526,
      "##ikon": 9527,
      "Standard": 9528,
      "Grand": 9529,
      "##beret": 9530,
      "Fe": 9531,
      "säl": 9532,
      "##hr": 9533,
      "gekk": 9534,
      "##ico": 9535,
      "##match": 9536,
      "##somt": 9537,
      "Wi": 9538,
      "##eler": 9539,
      "##tider": 9540,
      "Manchester": 9541,
      "forskel": 9542,
      "##élt": 9543,
      "stiller": 9544,
      "##liti": 9545,
      "dö": 9546,
      "##legri": 9547,
      "hvers": 9548,
      "litteratur": 9549,
      "Rev": 9550,
      "##rikt": 9551,
      "hast": 9552,
      "##sætning": 9553,
      "kompetanse": 9554,
      "veien": 9555,
      "##íðu": 9556,
      "##Id": 9557,
      "analyser": 9558,
      "klock": 9559,
      "tids": 9560,
      "kostar": 9561,
      "sätta": 9562,
      "Windows": 9563,
      "##töku": 9564,
      "##jeneste": 9565,
      "mg": 9566,
      "brot": 9567,
      "##ningsb": 9568,
      "lengur": 9569,
      "kommit": 9570,
      "Næ": 9571,
      "##anefnd": 9572,
      "høyere": 9573,
      "utveckla": 9574,
      "eksempelvis": 9575,
      "Rog": 9576,
      "Vet": 9577,
      "setter": 9578,
      "tekin": 9579,
      "varandra": 9580,
      "drikke": 9581,
      "##inav": 9582,
      "tím": 9583,
      "följande": 9584,
      "Fir": 9585,
      "åpen": 9586,
      "##hem": 9587,
      "stóð": 9588,
      "igenom": 9589,
      "flot": 9590,
      "rig": 9591,
      "intens": 9592,
      "Kong": 9593,
      "utgangspunkt": 9594,
      "åren": 9595,
      "känna": 9596,
      "##odet": 9597,
      "naturligt": 9598,
      "búinn": 9599,
      "tækifæri": 9600,
      "Bay": 9601,
      "sikt": 9602,
      "biler": 9603,
      "##klag": 9604,
      "##outh": 9605,
      "Opdater": 9606,
      "gäster": 9607,
      "##ents": 9608,
      "goda": 9609,
      "nät": 9610,
      "Geir": 9611,
      "meste": 9612,
      "rask": 9613,
      "chok": 9614,
      "fleks": 9615,
      "nánar": 9616,
      "lör": 9617,
      "länder": 9618,
      "##sök": 9619,
      "##æðið": 9620,
      "##lanum": 9621,
      "mörgum": 9622,
      "##klubb": 9623,
      "##slam": 9624,
      "##cking": 9625,
      "knapp": 9626,
      "Aft": 9627,
      "##SL": 9628,
      "##istiske": 9629,
      "ansikt": 9630,
      "##ringe": 9631,
      "anvendes": 9632,
      "mikill": 9633,
      "natten": 9634,
      "##lös": 9635,
      "hjul": 9636,
      "Dårlig": 9637,
      "Hef": 9638,
      "##igevel": 9639,
      "##risk": 9640,
      "##jald": 9641,
      "gagnrý": 9642,
      "Odd": 9643,
      "gymnas": 9644,
      "staðið": 9645,
      "##lic": 9646,
      "veita": 9647,
      "MED": 9648,
      "fari": 9649,
      "kringum": 9650,
      "##gaven": 9651,
      "Helt": 9652,
      "navnet": 9653,
      "bind": 9654,
      "bloggen": 9655,
      "##Vis": 9656,
      "skipti": 9657,
      "prest": 9658,
      "##æða": 9659,
      "KL": 9660,
      "þriðja": 9661,
      "##DER": 9662,
      "##dsel": 9663,
      "your": 9664,
      "Petter": 9665,
      "organisation": 9666,
      "konsta": 9667,
      "Cre": 9668,
      "Oden": 9669,
      "flert": 9670,
      "##rosoft": 9671,
      "##retning": 9672,
      "dam": 9673,
      "antall": 9674,
      "klimat": 9675,
      "dages": 9676,
      "##ids": 9677,
      "umræðu": 9678,
      "myndir": 9679,
      "##smiljø": 9680,
      "hverandre": 9681,
      "spillet": 9682,
      "megin": 9683,
      "##skad": 9684,
      "##ungis": 9685,
      "rekommender": 9686,
      "jpg": 9687,
      "##raun": 9688,
      "##28": 9689,
      "kominn": 9690,
      "##iled": 9691,
      "Topp": 9692,
      "##ax": 9693,
      "##yttelse": 9694,
      "sykdom": 9695,
      "Gust": 9696,
      "baseret": 9697,
      "##agna": 9698,
      "sikrer": 9699,
      "Lø": 9700,
      "##flug": 9701,
      "##tation": 9702,
      "##AY": 9703,
      "Publicerad": 9704,
      "afar": 9705,
      "##blad": 9706,
      "prof": 9707,
      "Verk": 9708,
      "konsul": 9709,
      "aust": 9710,
      "historien": 9711,
      "##sala": 9712,
      "##anni": 9713,
[...]
