[PAD]
[UNK]
[CLS]
[SEP]
[MASK]
[unused0]
[unused1]
[unused2]
[unused3]
[unused4]
[unused5]
[unused6]
[unused7]
[unused8]
[unused9]
[unused10]
[unused11]
[unused12]
[unused13]
[unused14]
[unused15]
[unused16]
[unused17]
[unused18]
[unused19]
[unused20]
[unused21]
[unused22]
[unused23]
[unused24]
[unused25]
[unused26]
[unused27]
[unused28]
[unused29]
[unused30]
[unused31]
[unused32]
[unused33]
[unused34]
[unused35]
[unused36]
[unused37]
[unused38]
[unused39]
[unused40]
[unused41]
[unused42]
[unused43]
[unused44]
[unused45]
[unused46]
[unused47]
[unused48]
[unused49]
[unused50]
[unused51]
[unused52]
[unused53]
[unused54]
[unused55]
[unused56]
[unused57]
[unused58]
[unused59]
[unused60]
[unused61]
[unused62]
[unused63]
[unused64]
[unused65]
[unused66]
[unused67]
[unused68]
[unused69]
[unused70]
[unused71]
[unused72]
[unused73]
[unused74]
[unused75]
[unused76]
[unused77]
[unused78]
[unused79]
[unused80]
[unused81]
[unused82]
[unused83]
[unused84]
[unused85]
[unused86]
[unused87]
[unused88]
[unused89]
[unused90]
[unused91]
[unused92]
[unused93]
[unused94]
[unused95]
[unused96]
[unused97]
[unused98]
[unused99]
!
"
#
$
%
&
'
(
)
*
+
,
-
.
/
0
1
2
3
4
5
6
7
8
9
:
;
<
=
>
?
@
A
B
C
D
E
F
G
H
I
J
K
L
M
N
O
P
Q
R
S
T
U
V
W
X
Y
Z
[
\
]
^
_
`
a
b
c
d
e
f
g
h
i
j
k
l
m
n
o
p
q
r
s
t
u
v
w
x
y
z
{
|
}
~
¢
£
¤
¥
¦
§
¨
©
ª
«
¬
®
¯
°
±
²
³
´
µ
·
¸
¹
º
»
¼
½
¾
¿
À
Á
Â
Ä
Å
Æ
Ç
È
É
Ê
Ë
Ì
Í
Î
Ð
Ñ
Ò
Ó
Ô
Ö
×
Ø
Ú
Ü
Ý
Þ
ß
à
á
â
ã
ä
å
æ
ç
è
é
ê
ë
ì
í
î
ï
ð
ñ
ò
ó
ô
õ
ö
÷
ø
ù
ú
û
ü
ý
þ
ÿ
ā
Ă
ă
ą
Ć
ć
Č
č
Đ
đ
ē
ė
ę
ě
ğ
ī
İ
ı
Ł
ł
ń
ň
ŋ
ō
ő
Œ
œ
ř
Ś
ś
Ş
ş
Š
š
ţ
ū
ů
ų
ź
ż
Ž
ž
ſ
ƒ
ư
ǫ
ș
ț
ə
ɛ
ɪ
ʼ
ˆ
ˈ
ː
˚
̀
́
̂
̃
̄
̇
̈
̊
̌
̧
̶
Α
Β
Γ
Δ
Ε
Η
Θ
Ι
Κ
Λ
Μ
Ν
Ο
Π
Σ
Τ
Φ
Ω
ά
έ
ή
ί
α
β
γ
δ
ε
ζ
η
θ
ι
κ
λ
μ
ν
ξ
ο
π
ρ
ς
σ
τ
υ
φ
χ
ψ
ω
ό
ύ
ώ
ϕ
А
Б
В
Г
Д
Е
З
И
К
Л
М
Н
О
П
Р
С
Т
У
Ф
Х
Э
Я
а
б
в
г
д
е
ж
з
и
й
к
л
м
н
о
п
р
с
т
у
ф
х
ц
ч
ш
щ
ъ
ы
ь
э
ю
я
ё
ѕ
і
ӓ
ӧ
א
ב
ה
ו
י
ל
מ
ע
ר
ת
،
ء
أ
إ
ئ
ا
ب
ة
ت
ث
ج
ح
خ
د
ذ
ر
ز
س
ش
ص
ض
ط
ظ
ع
غ
ف
ق
ك
ل
م
ن
ه
و
ى
ي
َ
ُ
ِ
ّ
ْ
ک
ی
ก
ข
ค
ง
จ
ช
ฐ
ณ
ด
ต
ถ
ท
น
บ
ป
พ
ม
ย
ร
ล
ว
ส
ห
อ
ะ
ั
า
ำ
ิ
ี
ื
ุ
ู
เ
แ
โ
ใ
ไ
็
่
้
์
ღ
ᐈ
ế
ệ
ἐ
ὶ
ὸ
‐
‑
‒
–
—
―
‘
’
‚
‛
“
”
„
‟
†
‡
•
…
‰
′
″
‹
›
※
⁄
⁰
₂
€
℃
™
←
↑
→
↓
↩
⇒
∏
−
∗
∙
√
∞
∼
≈
≤
≥
⋅
⋆
─
│
■
□
▪
▫
▲
▶
▷
▸
►
▼
◄
◊
○
●
◦
◴
◾
☀
★
☆
☕
☺
☼
♀
♂
♕
♠
♡
♣
♥
♦
♪
♫
⚽
✅
✈
✌
✓
✔
✖
✡
✨
✿
❄
❣
❤
❥
❯
➔
➕
➜
➡
➤
⟶
⠀
⦁
⭐
、
。
【
】
〒
あ
い
う
お
か
が
き
く
け
こ
さ
し
す
そ
た
だ
ち
っ
て
で
と
な
に
の
は
ま
め
も
や
よ
ら
り
る
れ
を
ん
ア
ィ
イ
ウ
ェ
エ
オ
カ
キ
ク
グ
コ
サ
シ
ジ
ス
ズ
セ
タ
ダ
チ
ッ
ツ
テ
デ
ト
ド
ナ
ニ
ネ
バ
パ
ビ
フ
ブ
プ
ホ
マ
ム
メ
ャ
ュ
ラ
リ
ル
レ
ロ
ン
・
ー
一
上
下
不
东
个
中
为
主
之
也
了
于
交
京
人
他
以
们
会
但
位
住
体
作
你
便
入
全
公
内
净
出
分
切
利
到
前
北
区
南
去
友
可
台
号
合
和
品
喜
回
国
在
地
场
城
場
外
多
大
天
她
好
如
子
它
安
完
定
客
室
家
宿
寓
对
小
就
屋
山
市
常
干
店
建
当
很
得
心
快
情
感
我
房
所
推
提
文
斯
新
方
旅
日
时
是
時
景
最
有
服
本
机
来
東
果
次
欢
比
水
没
海
温
点
物
特
理
生
用
町
留
的
真
私
空
站
置
美
能
自
舒
良
花
行
街
西
要
語
设
谢
超
路
车
近
还
这
适
通
道
部
都
酒
里
错
間
间
需
静
非
面
食
餐
馆
高
가
거
것
게
고
과
그
기
나
내
노
는
니
다
대
도
동
들
라
로
를
리
마
만
매
모
바
방
보
분
비
사
서
소
수
스
습
시
신
실
아
안
어
었
에
여
와
요
용
우
운
위
은
을
의
이
인
일
입
있
자
장
적
전
정
제
좋
주
지
집
치
카
트
파
편
하
한
할
합
해
했
호
ﬀ
ﬁ
ﬂ
︎
️
！
（
）
，
￼
🇩
🇪
🇰
🇳
🇴
🇸
🌞
🌟
🌸
🌹
🍀
🎁
🎄
🎅
🎉
🏀
🏆
🏻
🏼
🏽
👇
👉
👊
👌
👍
👏
💕
💖
💗
💙
💚
💛
💜
💞
💥
💪
📸
🔥
🔵
🖤
😀
😁
😂
😃
😄
😅
😆
😇
😉
😊
😋
😍
😎
😔
😕
😘
😛
😜
😡
😢
😬
😭
😮
😱
😳
🙁
🙂
🙃
🙄
🙈
🙌
🙏
🤔
🤗
🤞
🤣
🤩
🤪
🥰
##j
##ä
##r
##n
##f
##o
##s
##k
##i
##g
##c
##e
##t
##a
##ð
##m
##ö
##x
##C
##z
##u
##l
##v
##d
##h
##y
##p
##b
##ø
##å
##是
##房
##东
##还
##推
##一
##个
##可
##以
##行
##的
##地
##方
##G
##O
##N
##B
##R
##Y
##E
##ó
##æ
##D
##V
##L
##K
##Ä
##P
##S
##á
##W
##A
##í
##U
##F
##ú
##1
##6
##3
##0
##8
##I
##M
##Ø
##5
##2
##J
##q
##è
##H
##4
##7
##9
##w
##す
##て
##の
##キ
##ャ
##ビ
##ン
##を
##し
##ん
##だ
##T
##Q
##ý
##Í
##Ð
##é
##非
##常
##好
##X
##þ
##Å
##´
##ü
##ā
##א
##Ó
##Ö
##δ
##ι
##κ
##λ
##ν
##γ
##ε
##̈
##È
##ί
##π
##ρ
##о
##д
##е
##р
##ж
##и
##т
##ê
##Ú
##Þ
##α
##ž
##с
##п
##л
##н
##к
##̊
##а
##ь
##г
##Æ
##Z
##ˈ
##と
##も
##き
##れ
##い
##で
##良
##部
##屋
##公
##寓
##本
##干
##净
##ч
##œ
##É
##Γ
##ы
##х
##б
##у
##ф
##й
##â
##ô
##을
##山
##区
##城
##西
##街
##용
##은
##不
##会
##́
##ī
##ē
##õ
##ß
##м
##室
##ş
##î
##û
##ا
##ل
##ر
##ق
##ص
##に
##は
##が
##安
##置
##ì
##대
##전
##시
##β
##餐
##天
##真
##和
##大
##ع
##ب
##ي
##家
##č
##超
##市
##동
##ه
##ز
##د
##خ
##ن
##م
##Â
##ё
##Á
##à
##ı
##я
##ï
##ー
##ラ
##ス
##次
##回
##来
##̧
##̃
##š
##리
##의
##아
##ç
##ο
##也
##很
##客
##를
##고
##ة
##さ
##よ
##う
##な
##ت
##ی
##้
##อ
##ง
##ก
##ว
##า
##ข
##ή
##σ
##μ
##ю
##з
##в
##φ
##ξ
##ς
##습
##니
##为
##我
##们
##提
##ř
##人
##Р
##ć
##ร
##ะ
##ย
##ั
##ล
##ณ
##ไ
##ม
##ต
##ี
##해
##요
##̄
##ъ
##タ
##ニ
##カ
##オ
##セ
##ア
##ナ
##ב
##め
##在
##た
##Č
##Ć
##喜
##欢
##内
##比
##中
##入
##る
##り
##ま
##ト
##ル
##і
##أ
##여
##주
##는
##ุ
##่
##น
##花
##馆
##ش
##ł
##シ
##ェ
##心
##生
##全
##品
##َ
##ك
##ُ
##위
##치
##도
##得
##到
##外
##レ
##あ
##景
##°
##ś
##南
##美
##食
##っ
##か
##ロ
##舒
##适
##ę
##Ý
##ﬁ
##ñ
##ッ
##グ
##や
##旅
##最
##高
##便
##利
##و
##ف
##ホ
##テ
##υ
##ω
##θ
##ã
##有
##子
##没
##町
##ح
##ѕ
##ό
##東
##ù
##物
##就
##分
##感
##当
##出
##道
##ц
##Œ
##ち
##そ
##サ
##場
##所
##ą
##ː
##ə
##س
##ّ
##海
##酒
##ク
##ウ
##時
##間
##店
##ำ
##บ
##ใ
##เ
##ื
##情
##留
##đ
##비
##에
##用
##新
##路
##ш
##フ
##ū
##ō
##了
##下
##近
##ψ
##机
##上
##로
##인
##게
##ë
##日
##하
##斯
##ğ
##ά
##ò
##ż
##τ
##ύ
##特
##国
##服
##交
##通
##谢
##这
##ŋ
##体
##理
##했
##她
##다
##间
##都
##기
##空
##ń
##建
##车
##能
##完
##对
##プ
##小
##パ
##ィ
##안
##한
##里
##こ
##ƒ
##点
##ė
##η
##果
##你
##要
##พ
##์
##ท
##ج
##自
##台
##イ
##水
##く
##가
##와
##错
##Ε
##χ
##エ
##ÿ
##リ
##ª
##็
##จ
##ป
##ſ
##ถ
##ă
##Π
##Α
##Ν
##Ι
##Σ
##щ
##住
##โ
##ห
##设
##Д
##Е
##Т
##แ
##ิ
##ค
##ส
##İ
##ǫ
##사
##µ
##ě
##ู
##מ
##ע
##ו
##י
##マ
##ズ
##ض
##ʼ
##έ
##ْ
##ِ
##ط
##デ
##ュ
##Ü
##ų
##快
##站
##主
##温
##时
##合
##作
##ת
##ר
##Š
##Ο
##ל
##ﬀ
##Τ
##Ω
##ț
##面
##多
##ک
##切
##Ì
##它
##チ
##바
##일
##카
##라
##이
##트
##ฐ
##コ
##お
##ツ
##ら
##ő
##С
##私
##지
##과
##Î
##Ç
##Ê
##静
##ώ
##ド
##定
##Ñ
##宿
##ى
##ด
##ブ
##ˆ
##ジ
##ئ
##需
##Ž
##去
##입
##Б
##У
##나
##마
##호
##스
##Г
##Ł
##场
##Ă
##Ë
##ɪ
##前
##ذ
##語
##友
##如
##신
##位
##ช
##️
##ה
##거
##北
##之
##̀
##ɛ
##방
##メ
##º
##서
##ム
##Λ
##Η
##А
##Ф
##И
##文
##ث
##보
##け
##ダ
##있
##À
##于
##우
##었
##합
##ء
##장
##Н
##غ
##Л
##만
##ὸ
##Ô
##З
##О
##어
##수
##К
##ظ
##京
##ů
##他
##Μ
##ღ
##ζ
##̶
##ネ
##ư
##Δ
##إ
##정
##ӓ
##³
##ﬂ
##ţ
##자
##̌
##제
##매
##실
##ź
##̂
##들
##ș
##ň
##Β
##号
##운
##소
##²
##但
##バ
##э
##적
##ế
##노
##В
##파
##할
##내
##ὶ
##€
##분
##Ò
##Ś
##М
##ӧ
##Θ
##Κ
##Х
##모
##П
##Φ
##것
##̇
##편
##ϕ
##집
##¤
##Đ
##✨
##®
##Ş
##그
##🇸
##×
##½
##Я
##£
##ệ
##❤
##Э
##¾
##¼
##좋
##©
##⚽
##¥
##🎉
##ἐ
##✔
##🔵
##🙂
##│
##√
##¬
##😀
##🇰
##∏
##≤
##🙌
##🏻
##⠀
##😋
##🏆
##🏀
##¹
##😁
##︎
##✌
##🇪
##👊
##💪
##👍
##¨
##₂
##🙏
##📸
##ᐈ
##♥
##💕
##🎅
##🎄
##👏
##♂
##😍
##🔥
##er
##en
##ar
##in
##an
##et
##st
##or
##il
##el
##tt
##ed
##ig
og
##ing
##om
##al
##on
##sk
##ra
##ur
##nd
##es
##ag
##eg
er
til
##ti
##em
en
##ri
##ll
##de
##kk
for
##re
st
##um
##am
på
##un
að
##ið
##ver
##ör
##na
##ir
##and
##is
sk
##ter
det
med
##te
##ol
##ch
##ning
som
##ik
in
##pp
##ta
##la
##id
##le
at
av
och
##lig
##it
##ro
##ne
##at
af
har
##inn
20
##as
var
##ør
##að
om
##se
##år
##est
den
för
##kt
de
##ær
att
##ck
##der
##li
##är
##ot
##ru
##ad
##ef
##ent
##ang
kan
sam
##ss
##ak
an
##ere
fra
##lu
sem
kom
du
##af
##ng
fr
##ens
##ist
##ess
##ann
##ve
##kke
ut
ver
201
##us
##ek
##ul
##und
är
##og
##tion
##od
så
Det
##ell
##ller
##ok
till
vi
sp
der
##yr
##isk
##ser
hv
##ill
##ene
##sl
all
##yg
ikke
##ort
##jó
##im
##ende
##itt
um
##end
##ud
##var
##ger
men
##ast
##for
et
##mer
við
##att
ef
##sp
##av
me
##enn
##het
##ld
##be
fy
##ði
##ber
##sen
eller
##ft
##are
##else
##ska
##nder
##ge
vil
##ett
må
pro
##nar
##ja
##ma
##ks
##rir
##ins
ekk
bl
með
upp
##ind
hel
##all
##ni
tr
le
##ark
##så
ett
##00
##ans
man
##ða
##ut
##ög
##ord
##os
##ug
år
ud
ekki
fl
##leg
sv
##art
##iv
##ste
##gen
##ov
St
be
dag
fyrir
kon
kr
ar
##ers
and
ny
##jon
al
það
##ví
##já
##än
væ
##igt
##ust
op
sig
##yn
##sm
##ér
kl
haf
inn
##ling
bar
over
##je
##op
se
##ull
##ske
jeg
þess
##ræ
##men
##ige
##ätt
19
skal
##eng
fram
##ic
##lag
##ier
##hed
##ður
##ost
gj
##del
re
##ede
##ade
##me
ind
##ert
##vis
##ab
##hol
##ke
Vi
##ob
##ygg
no
##äl
##rå
##he
##ande
under
##ald
jag
##inu
því
seg
opp
inte
##ler
10
##ka
hef
få
##ker
##org
##jer
tid
##ring
##tiv
or
##ina
##dag
ved
også
han
##ip
##ap
##den
##ån
##uð
of
##ant
##ikt
þe
##ine
kun
En
##ild
Sk
##andi
##eb
##sta
del
##itet
200
my
hj
ble
##bet
##æg
##ts
##ering
##num
mer
##eld
bli
##uk
he
##ík
##net
ég
##tir
##ligt
##tal
ha
##för
end
##åg
##bl
pr
##ál
##tid
god
##if
bru
bet
In
##per
For
gr
sí
##of
kv
##opp
##ie
være
##ation
##ion
##elig
##ðar
sl
sel
##ikk
##mun
##ram
efter
sm
min
reg
Den
12
ma
##arf
##yk
br
##da
##ven
før
##ningen
##jö
##lan
pri
eru
stor
hver
##ange
##ns
hann
lag
ve
##ds
##elt
##ytt
##lige
från
##ys
##sson
##ale
##tr
##äll
##au
##ner
frá
##els
##enter
##tur
##ret
##yd
##øl
##kv
##erne
##alt
##ætt
ein
##etta
11
þá
land
hvor
får
##erson
15
##det
De
##ga
##oll
##egar
##eder
##ia
##ól
hefur
##land
##ott
##ce
kommer
##get
##yst
##ket
18
##rum
fin
best
##sb
##iti
##era
her
lä
ser
##æk
vis
bil
sj
##ara
##ien
beh
vær
##ass
##áð
Sp
verið
sé
finn
##gi
##inni
##ål
An
Men
din
to
##lut
da
##jen
eftir
mot
dig
##ök
##lega
alle
##ster
meg
vid
ska
##skap
vor
##jar
vir
##va
##nu
##kom
þar
##ningar
##nings
##vik
##étt
##ingar
##elser
sér
mil
##otell
sid
##di
þeir
##änd
##anna
Jeg
selv
##pr
hafa
##bej
##ún
##ðu
ta
##fer
##æl
##asjon
mu
##unn
##ød
##lass
vel
##ingen
##jø
tv
##iske
blir
Ar
##äm
16
14
lig
sin
hand
##sins
13
##ók
##jór
person
res
00
##ari
eða
##ock
##vet
##ken
frem
##age
##fir
##æm
bå
##ång
##ite
17
nu
##sker
##ars
##pt
##ember
##ótt
##ets
##elsen
Nor
##ju
út
##rist
30
##ynd
mig
##hold
##met
##ER
når
gen
mange
tek
##lar
Re
##sa
##ide
bara
##ow
kommun
##æð
##ninger
ty
dette
##lf
tilb
andre
mik
##red
lí
##ega
lø
samt
bed
##öf
##øre
##ac
Du
denne
##ial
##atur
dem
##nt
##kon
inter
när
Það
##ings
##øy
und
##gang
veg
þetta
##ika
##ard
svo
##nir
##raf
helt
skri
##aður
##äg
Sam
någ
##skri
##amp
gru
prod
fer
mell
går
##ire
##vers
etter
má
sag
ans
nog
get
úr
##élag
##ym
##alg
##sh
##ulle
Al
##ack
##sam
##rar
##ati
här
Der
##ick
##ten
fyr
##sv
##ighet
Ch
Og
mere
hafi
per
ber
##lem
##øj
form
##beid
la
##oliti
bra
##yt
mark
både
##mar
##ank
All
##kker
bes
##ansk
##ub
gang
##tter
allt
gre
##mel
##pe
lang
##far
Ég
Hv
##før
##este
alla
eig
##ode
##hver
##ön
þegar
mod
där
ak
beg
tre
ger
pla
vin
##set
För
##slag
##br
Fr
##ór
heim
25
##øb
hå
##old
##rag
##fe
##ala
Se
över
svar
21
skulle
ár
##emp
##okk
forsk
vår
##slu
##kar
sen
##unum
Kom
##jör
##hus
##led
##ager
barn
læ
##ús
##ille
lok
tí
far
the
ned
sjá
yfir
##oc
##elle
oss
##átt
22
gå
fri
ex
##up
##ung
flere
Her
Med
ad
hos
Le
##her
alt
##åd
mat
nær
Jag
##IN
##vær
##olog
##let
##otel
##ester
##reg
##ita
nor
enn
##øg
##inger
##bb
ne
ung
nú
##aka
fle
##borg
sammen
kunne
godt
##liga
red
Han
job
par
mulig
##fl
2017
##äng
##nas
Pro
##ðum
Ísl
blev
##ike
##cer
ný
##som
##rat
leik
##olk
##rav
##nes
liv
##rø
finns
nye
by
hjá
enk
hon
bygg
Mar
På
hotell
##öm
vara
##pa
##öra
##æt
hur
Om
Er
##emm
##lad
leg
mynd
##hand
##mark
##over
##bo
##ff
##io
##eller
##las
##eter
##EN
gi
##verk
##gr
##ment
mest
vill
##oner
bör
##öl
vera
##ister
##ykk
Dan
hún
sä
sitt
nå
##tat
hans
##rig
##ont
is
Til
##ec
##sten
##man
##fi
##cket
##una
##int
sø
ald
23
Vis
anv
ra
Har
##lev
##rik
bør
Tr
im
full
24
arbet
fast
eg
##jekt
segir
##ystem
bor
sn
##gj
ek
mál
##arna
plan
##unar
100
##kur
eins
##iner
te
##tik
Jo
led
##olig
2016
##jóð
eks
kont
bare
tal
lever
ju
##sf
##tte
eng
verk
þeim
##yl
kost
##tak
Ef
##amil
føl
##stå
vikt
##ordan
stað
okk
kund
km
gam
fors
##ib
##tisk
kj
##öj
fun
##ou
2018
##berg
des
##pro
síð
##aði
hele
on
arbej
meget
forb
skol
##form
##ay
##nn
##ps
Ne
2015
##æs
sier
ord
000
com
styr
##yld
50
næ
##str
##ands
##unni
##tag
##hå
lög
då
##dd
ol
##går
##ón
##alen
##dom
utan
##agn
##min
##esta
Så
hun
Dette
##ats
starf
ná
str
##anns
hav
ret
2019
##fatt
##alla
##ook
##blem
lite
sak
ock
fort
##rið
##pet
##heten
##vent
##heter
dis
##kvæm
också
##res
##ingu
##ey
voru
verður
##kl
første
##idt
##ice
##rer
##äs
mind
##jár
##jórn
stør
##ira
##irk
##nað
##aler
##anske
##ín
##ksom
grund
vå
su
##dö
bre
bæ
set
##val
gra
mycket
hen
2014
hvis
##gram
fil
ligger
##akt
##oto
##ha
även
##jum
##med
##AN
hér
bak
2013
##uld
##our
##ors
##20
politi
mål
vä
vegna
inne
noe
##istor
milli
Ind
##ennem
siden
##innar
##iska
##heder
##styr
syn
##iður
øn
ly
##vel
Ny
##itu
##ona
2012
##veg
##ót
skip
##iss
##terna
deg
mér
##lý
Ber
natur
##ppen
##delser
områ
##vs
nem
##fa
tel
gl
tro
##OR
##by
##íð
##raft
##adde
##arl
##ian
##gan
än
##skol
##tast
##ris
##afn
Sver
mun
##tis
##læg
##endur
dri
##unkt
Man
199
henn
##jón
rek
nr
##oð
##ólk
Hotel
##oder
##kken
##ennom
##rak
fá
##menn
andra
The
##AR
##ink
##tið
ann
26
store
##ligere
mar
ingen
##nad
##iga
##ilt
27
ch
##ensk
##ställ
##par
##óð
##empel
##bar
28
tur
vet
Ing
He
##stu
noen
tim
##ST
##ana
##konom
09
##atte
hug
##öld
hadde
##anda
##pper
Kon
##mation
##føl
einn
##jöl
vär
áh
##alitet
##avn
litt
##ly
##stö
##ry
##urder
Th
bú
held
##ms
##jög
##tivitet
Be
##iller
ráð
þeirra
##bú
dk
##iser
##inum
Við
deres
##gt
##arbej
aug
bu
van
skil
##óttir
rík
th
genom
##meldelser
##bru
behand
##ond
##ultur
lá
##ægt
forts
produ
##urs
rund
08
##ileg
##iden
omdö
þessu
##iste
##gre
01
29
egen
arbeid
##egn
##ligen
ge
##ró
##ært
##rid
##edet
have
Ste
kort
##estaur
40
nok
undir
##urinn
bland
##dater
2011
hem
##yll
väl
##ís
##etag
leið
##ater
stud
##nat
Norge
ræ
Br
Gr
##edan
Sig
##skip
hvað
US
##gru
bliver
met
el
##stad
##formation
Da
##ity
Var
mor
##unnar
problem
samme
##rett
##ening
##tivt
gjennom
vad
Nord
##ET
tar
##sd
væri
tíma
hæ
anmeldelser
##bud
vores
##mi
##äst
Ut
mø
sol
priser
##lø
##pla
Krist
mång
##tek
mis
##vikling
##öp
Bl
jan
##sn
hjem
##ære
famil
##etter
##kte
##tioner
stö
jo
##ella
##rá
off
tra
##iter
rétt
Som
lu
dess
gode
står
##ign
kli
##lever
##ýr
##ustu
pros
sett
hvordan
hus
##vend
##uni
fj
##ðið
##takt
##cent
hvil
##anden
##ikker
##ons
disse
sjálf
Ro
mindre
##bil
##iet
Bar
skap
##fek
##tet
07
##gar
##smål
Læs
lið
öll
2010
fjár
þau
##skin
fö
##giv
And
31
Hann
##sjon
þann
##ræð
##bygg
htt
##elige
Fl
##rev
dire
##egg
##atter
tilf
##still
mye
þú
##äk
##heden
eitt
vært
átt
många
hög
göra
##aste
##ron
ca
Me
Sta
##stra
mjög
##skab
##vice
##óla
##fri
Joh
fæ
Per
05
hitt
stad
gör
##öng
sna
fag
Ma
Þetta
##klu
##ore
fall
sý
hald
##ct
fund
okt
06
rett
##elses
spør
hade
byg
##ww
##ren
inv
bok
##line
själ
##ænd
##leik
##vär
produk
verði
kjø
nokk
hal
Su
##utom
##äck
apr
##meld
sy
##stak
ro
folk
##ðir
##lys
gennem
##ive
##agen
sh
##xt
##emur
##tæk
resul
medlem
nett
##iri
vinn
##akk
##önd
##ägg
##ake
viktig
##fram
detta
www
spel
##veck
höf
ville
gera
03
vand
##van
igen
##ppe
El
##enger
hol
kän
pris
##urop
##oved
##entlig
ig
fólk
menne
Or
##ue
annar
##rip
mann
##ON
##gå
##lýs
##ele
##óm
IB
Under
innan
##veit
##ører
##arer
inst
kor
virk
fara
##øn
##inga
små
mus
använd
##ong
02
##æng
##ING
félag
kar
hund
##legg
Läs
bek
##efnd
04
fyl
##esten
##ptember
fe
##anter
olika
inom
hjäl
##enda
Hvis
uten
koma
dra
feb
##ubl
os
##tar
##ator
##uss
##du
nytt
##tu
bo
cm
Foto
stort
val
jobb
##æði
##anger
ísl
##tive
##spro
##ement
##stand
ur
fått
Af
##one
##dan
##holm
##ider
derfor
Sverige
##ästa
##fekt
##ráð
##håll
##atten
Ver
##utt
un
Guð
##ital
fordi
##ksjon
Ud
lå
##ress
ønsker
grunn
##øm
##ila
sedan
##AT
##ema
##æld
##ane
mellom
Ha
saman
2009
minn
##EL
lit
int
##mið
##pen
##ise
em
##syn
lov
hlu
minu
pass
kro
organ
35
##stof
noget
##band
##ED
La
Inn
trä
##okus
Når
niður
virksom
##osi
ansvar
45
##vin
høy
råd
bedre
##jek
mill
tror
brug
taka
start
sätt
##sel
þó
tag
##mal
fjöl
vurder
rätt
##ensen
##efn
##ford
histor
##IL
gjør
lik
möj
tak
Av
bas
##mann
##nivers
høj
något
omdömen
ák
två
##kket
rundt
gener
ditt
Hel
einhver
##jud
##vinn
##igh
##ksam
september
##orter
sagði
förs
##änn
komp
behö
##lug
fak
fal
##ES
gjort
pas
spec
##íl
##æti
sc
års
##arbeid
##fall
##oms
##hl
okkur
##cker
valg
dit
##ork
nya
##tionen
##gende
slik
langt
information
##områ
##under
Res
stör
tiden
Reg
##ktor
Sel
##illa
enda
mið
##taf
tekn
po
sek
Ser
kyn
##ies
##pport
Dag
##efon
enkelt
hva
stjórn
##endt
##ach
##bund
behov
rikt
kri
Ad
þr
hvort
öð
uden
##oft
Hotell
##hv
Sh
##aren
##tif
aller
##rif
Ja
sa
##handling
##jan
##heim
besk
ben
samf
bro
TV
##ringer
##dig
##ellige
##ski
Kommun
pres
sine
klar
mån
ul
ekkert
alltid
##eldig
bort
##enh
2020
dom
At
Et
##æn
havde
##jør
##roll
##ifter
þur
Reyk
pa
##røm
##su
ham
##jur
fær
60
tidligere
bid
forhold
personer
jafn
ára
juni
hl
vit
komme
hår
fre
##legt
nov
Að
kvalitet
##øk
stof
stø
behandling
kemur
Nu
há
rum
##tas
post
auk
##til
##ix
fråg
##bild
fot
fan
via
Upp
##ich
þessum
##cka
Danmark
leng
##kes
været
ener
gång
##él
sik
mid
##nun
##stru
2008
ter
hvad
##vat
##arbet
##ationer
Osl
hånd
sum
##mynd
själv
##enska
##inar
##øde
einnig
hefði
ljó
bel
þær
program
##eret
hjæl
##lutt
mikið
sagt
Land
##tab
kø
##ober
rej
någon
dine
blog
##ften
stat
##tidig
erfar
##yder
mitt
##unt
##ule
inden
##agt
system
##lat
##sted
Bil
ting
säger
mars
gar
##dann
web
borg
haft
lær
sær
klu
mellan
##vid
menn
##ingum
mm
##iz
am
36
##xx
##ära
##kost
fem
##orde
koll
Min
##má
##entr
##sport
ni
hela
##elen
lige
dr
gir
##hj
##obil
kamp
##sätt
läng
online
##lað
kontakt
##ningu
líka
hu
##egor
okkar
##lighet
æt
##gja
##fil
sö
##avík
mener
gef
##ips
##lin
Pri
##okum
fokus
##ytte
di
##nig
Denne
##unk
byr
ven
##bur
##sla
##bu
vik
id
Oslo
##úk
##ætti
##syk
##erna
##omm
heldur
##skriv
kn
ofte
fisk
Ex
kunna
maj
Op
áður
mellem
##nen
les
änd
##sat
##isert
net
Eng
##erer
blive
kap
##emi
janu
##ep
##spunkt
viser
##svar
fick
##jórnar
##sku
företag
kultur
Þá
##vej
Mer
geng
hoved
løs
##oss
EU
pre
##enge
Sv
maskin
##ilega
getur
##AL
Stock
Ved
##ran
verða
hægt
##gifter
kö
lidt
32
##vil
##tikk
##lum
maður
honum
##yp
list
feng
##bef
ríkis
mens
##öd
##orn
##les
33
mör
prø
fikk
##lit
klass
Efter
april
##ategor
nød
måste
##ferð
pl
##ras
utveck
När
Te
stand
svona
yr
Europ
kvar
just
##RI
##edag
några
eld
segja
aktivitet
ref
mikil
produkter
##OM
Vest
##drag
nogle
Íslands
##äd
kre
lav
##ades
##skar
##ener
första
denna
##sid
##ah
##po
restaur
##tere
Ander
##lla
##jän
##óp
##sti
verð
##asta
eksempel
lång
##mt
##ith
Køb
##oden
unders
betal
hold
skriver
videre
##leið
topp
þannig
##gång
##holder
null
star
Sm
##nader
##lekt
##hald
ev
##list
bag
þessa
disk
kraft
##ktur
##fr
varð
þarf
Alle
Kan
##aker
ákv
198
Vil
træ
bill
giver
krav
projekt
##revet
##fið
##lägg
soc
annet
##ood
stund
##isering
##stjó
##vir
##part
spill
faktisk
Bru
##äller
##ár
veldig
Stor
tog
##ologi
trygg
side
Reykj
##mentarer
##igtig
hvert
lík
##vert
##isjon
dog
##asse
varit
Sol
gør
##ges
##oen
##kvæmt
##plan
##cc
like
USA
sikker
árið
##sj
kroner
##ös
##pu
børn
##fter
tilbud
heil
Christ
oktober
ram
større
sinn
##klar
enkel
##orna
dagen
Ak
gjøre
##stre
##ej
Till
geta
vann
##nast
##íu
hlut
stig
sty
##dagen
##ette
Jó
åter
##ame
komið
vok
##ium
bef
ban
##valg
##ension
##gør
70
mo
##des
##anum
bilder
80
annat
leder
##bro
##mál
##öll
##hvað
undan
mennesker
aftur
##ledning
først
##efni
Ev
skatt
con
##erk
ren
fór
Ge
sínum
##igheter
##50
akt
þessi
halv
rel
##uleg
Reykjavík
34
part
##mat
##elp
##úar
##ellt
va
gert
gott
##tra
Här
kaf
##lo
Sc
##orer
##lutning
##naðar
##qu
##IT
Hol
verden
##aly
forskellige
vilket
verd
##ags
resultat
##åt
sinni
http
fantast
november
íslensk
igjen
siger
økonom
##öt
##nis
fly
heller
sama
IN
endur
organis
Mo
2007
##dóttir
##rit
august
kvinn
åt
##tist
produkt
án
AB
##emt
gó
##vit
Hj
inf
##duk
sög
året
90
mó
plass
rom
##nal
kal
##kring
Post
##yrir
alveg
ab
##lend
vän
Bo
##KK
##herra
##hug
##ebook
þátt
lagt
fyrirtæk
##essen
##stur
Fra
##änder
Sl
Sch
##iskt
park
blant
siste
effek
Sigur
tók
##äv
##ås
stær
38
dec
séu
##acebook
gjorde
##rang
hafði
annars
##gir
eitthvað
mater
gegn
nord
##niversitet
andet
##illing
39
##opul
##si
Kl
febru
event
våra
##fest
##fin
jul
alltaf
bud
##skyld
meira
##formasjon
##alm
##stæð
##sett
##beh
jord
síðan
sommer
##lek
fär
mín
ner
þing
Nr
##ppa
Visa
skyld
vegar
##endes
föl
Kr
##nef
500
slut
annað
##annsók
erb
##stil
spes
##anse
hoteller
omfatt
blevet
fé
hús
stå
slag
##indelse
##gu
##tale
##ård
##anser
hvernig
Att
auð
upplýs
morg
##aga
##inder
komm
vind
##obb
New
konkur
Fri
37
##upp
55
not
##lysninger
bild
##ograf
##skil
##lade
##ban
dy
sina
Och
blitt
området
##lands
##tiske
##ført
##ish
Les
##mund
##rek
##idler
##rån
##sak
moder
meðal
##jálf
Par
##rétt
##uden
spur
##sætt
##fess
snar
bolig
Tra
sted
dyr
idag
##vn
behöver
hins
##ph
##igare
Val
præ
funger
##SK
##ubli
##lí
svært
film
##öst
Hur
juli
##bart
omkring
orð
grein
##tions
##eins
##mans
##ighed
##rateg
##aller
sli
##står
##visor
mang
##eligt
##anska
ST
Stockholm
skj
bruk
pol
innen
ví
ute
##enser
ja
dre
norske
tillegg
tän
ley
##gift
##igin
##bol
##byr
##sikt
intr
Ty
Opp
##enta
Detta
bred
##æll
##eringen
##skóla
Pla
dansk
##stað
fel
##co
rad
teng
inklu
finde
hag
##anir
Finn
##råd
##use
kna
God
##visning
##ummer
lý
eiga
miljø
greið
kau
ten
hennar
direkt
Fil
##AM
na
##olf
allerede
ris
hopp
##yck
sá
##enner
##iver
##uðu
##endom
##ðist
hál
##atisk
dokum
Hun
nota
##hús
Vad
ob
##eren
##ät
##kvæmd
insp
peng
psyk
##ure
Fin
##gsmål
liten
##mála
anbef
test
##als
peri
klart
44
##OL
##ult
##bær
##ath
Svar
aldrig
Björ
197
sex
42
situ
##maður
vej
##vå
##Ad
data
tilk
Com
altid
##äder
sit
##ygt
##sli
41
tru
lille
Københ
##udag
##bex
Tor
Inter
Bra
gøre
##ID
##len
##ves
##lus
Eg
##rei
vide
##che
Ta
Hún
stem
Co
fik
##andar
ibex
##ena
##skapet
spil
46
48
##ham
##ledes
Alt
##nads
bästa
##lagt
##allet
verksam
Mark
Ol
prak
hø
bedste
##son
ke
##yttet
59
dessa
vinna
fordel
Ett
flera
Lu
##ilitet
anden
synes
ekstra
aðeins
app
þjóð
##AS
##dition
##port
halda
stk
fleste
##vr
bad
arbejde
Mil
##stæ
fjer
procent
##rätt
ga
##elder
ör
##fær
fø
ætt
regist
sti
fru
##aks
fire
pra
##öð
mí
engel
43
annan
##pass
utt
##esser
gratis
##örð
danske
landet
sko
##inna
funk
##ydd
49
ej
mand
forbindelse
kompet
energi
livet
##bok
300
Um
dæm
##yrk
mulighed
Jan
##jöld
sú
breyt
stór
fyrr
minst
##bla
nødvend
mobil
##IG
helst
##ustri
##reið
samma
bur
##haf
henni
stora
##øger
ungdom
Sven
##vare
minutter
sveit
betyd
virkelig
Em
##änt
##flokk
##andet
##varp
kanske
Del
##ättre
##fum
unge
##esp
##ton
##jast
januar
##ben
##esse
telefon
##þing
##pl
##älj
##eres
##gerð
Kar
männ
gäller
farið
##cel
Fram
stol
##aget
bank
Gar
posi
##gg
Car
þér
##fis
##skrift
2006
áfram
##fald
Nå
##ldigt
##lingen
AS
##manna
Tel
hana
flokk
Facebook
gær
hurt
öllum
##sfor
tæk
##out
alterna
##inst
##hop
##iði
sku
##öte
##væg
##ino
handler
Þess
ant
Trip
ställ
Publ
börn
barna
stadig
##meldelse
47
##sket
ákve
læng
sjuk
##jú
##lund
sund
Ra
##splan
##gum
prosent
tri
##dere
##ræn
gamle
##ight
##ögum
tot
##laus
##følge
##fur
lager
##ili
altså
Tid
finnst
Þar
eget
foreld
elever
tekið
kur
svenska
##vere
ei
##OK
lin
SE
Gu
Pr
Restaur
Dis
Hen
Sen
vårt
##út
##ove
##råk
false
musik
ses
kunder
sat
51
##sdag
75
##iale
##følg
##naden
##skrá
##fär
room
samtidig
Am
aldrei
bruker
største
##minist
öðrum
regler
fol
hre
##fræð
tjen
##ba
kons
##ildar
##tering
Jón
##entrum
##önnum
tap
varje
nav
Des
Kj
fler
##ppet
mon
##ræði
##erat
hor
skor
##kning
oft
muligt
Ham
##huset
region
##ley
värld
https
##ista
finner
##stid
hvilket
##kommen
grad
Ni
före
##ance
bättre
lek
Fred
lys
##naði
##kka
##ielt
##starf
##valt
væl
tidigare
informasjon
Evró
##kki
enligt
ræða
holde
bol
hjälp
##grund
kron
##eningen
Sa
##ase
luft
väldigt
ark
ferð
godk
##skud
forslag
fim
##ogen
##entet
##AG
##kor
følge
##tor
##gur
##tök
tran
Mad
##fang
##ift
finans
fest
##óf
##sók
sína
framkvæmd
Hvor
kam
góð
tips
dere
##ärn
##cis
lätt
tan
forn
design
Rom
##ato
##lighed
Sør
Ph
veit
##alet
artik
##hets
##enten
##ikation
exempel
##ivå
##chen
si
eigin
##skt
gu
##dal
beste
##vist
##tiden
bi
##ående
##OT
mag
spørgsmål
nærm
sådan
##amma
kunde
kil
År
elekt
##IS
árum
Þór
våre
fys
Gre
gerne
ide
roll
##hæ
##heng
popul
##RK
##Advisor
##inde
##satt
##tre
måtte
##idget
##stöð
54
sal
fyrsta
##ved
tilbake
##ulega
Derfor
##året
##rafik
stil
Best
##ytter
Íslandi
##ole
passer
vís
##verket
##fte
bæði
líf
##back
log
stu
##full
Með
##vand
##ellen
samarbej
väg
Tak
alls
nó
snabb
##ansen
##rund
send
ári
Då
52
måned
##ile
##ndag
Con
##pri
laga
##vä
##tiver
##úr
##pres
satt
Stef
Sand
frétt
Fer
##oven
##lex
sker
##félag
rú
##kret
##kort
lokal
##skur
orðið
Andre
flott
läm
56
##enti
samkvæmt
hjælp
invest
Þegar
kær
ulike
196
##vud
Vid
##delig
millioner
anmeldelse
hætt
##merik
veck
##mär
##ulag
##rí
Go
mæ
##vor
autom
internet
##stjórn
december
Hver
Gra
super
kann
##án
##itað
##trol
##tum
##ogle
tred
barne
##asser
##ilegt
##sol
rannsók
##iel
Karl
##byg
##þykk
kurs
forset
Dav
sérstak
køb
människ
##isen
##ekn
##rog
Sil
Ben
service
##skje
##SB
##øs
bók
bruger
##itter
skall
gæ
kunst
Hå
No
tycker
53
57
##vald
##akter
tage
komb
Sn
bí
bir
End
##asjoner
bruke
are
timer
fakt
sikre
##aster
uddann
salg
dår
tilbage
Mat
let
Hvad
vinter
København
mass
raun
fint
síðustu
Sj
##we
auðv
norsk
én
Selv
Hal
lär
frum
unn
##landi
saker
##tade
áhrif
inde
##rom
begyn
parti
typ
##amenn
58
plats
íbú
##RE
vansk
##årt
atvinn
dina
##spek
Før
Bed
Þe
dock
vist
##UN
##ikkert
Un
##hæng
enkelte
Mart
arbejd
antal
##orsdag
Erik
von
##sammans
Park
sidste
##fører
Publisert
##liv
Str
rå
skemm
meter
blandt
##føre
##bre
##bæ
##jónustu
Berg
ænd
it
##lasse
stedet
bal
einstak
kanskje
Gunnar
Lind
skick
forstå
Ve
2005
##fj
##inner
Pa
imp
##gra
hjemm
##efor
still
máli
eksp
with
##eln
##nefnd
samtal
Mon
snart
åp
##arm
Hvordan
sætt
Inst
material
tom
slu
Bir
##ama
##ash
##kten
##lið
Europa
##deling
Hans
finne
##san
##fu
desember
Etter
##trú
##ørende
eventu
jäm
februar
gagn
TripAdvisor
buti
##skatt
vilja
tatt
stjórnar
erum
tve
2000
##mu
först
gild
miljö
kalla
To
##ola
##10
komma
cyk
##abil
##inister
##iddel
##ikring
##arar
##kun
##asjonen
utr
##virk
##stöðu
##stjóri
skoð
vanlig
##sc
utbild
samning
Lund
##mæ
##sdóttir
##jus
Bu
kommune
måde
##uga
##TER
Ju
fortsatt
##samt
morgen
Tack
bruge
hátt
##tiva
San
forskning
##okra
direkte
Hand
reyn
give
99
pati
bidra
dagar
stra
lögreg
udvikling
stopp
Peter
##30
deb
##onn
##ji
##gave
##hag
tillb
##emper
fir
nemlig
##amm
Gl
##amál
##ationen
##íma
Ikke
##EG
lé
Haf
##za
##iker
origin
##own
##ivet
##äster
##ender
vak
kg
meiri
kró
publ
betyder
##urnar
Sø
##ku
skole
tón
##nuð
læg
do
##ros
##nsdag
##dt
##rem
##indi
trenger
Nej
aktu
inkluder
fékk
##jál
##nade
regn
kvöld
runt
mö
##its
##allar
häl
samþykk
##mod
privat
##ødt
Over
vest
kos
##ända
##avor
Nú
därför
##arts
risik
##abel
##ux
##rað
gått
##sför
holder
##ball
kommunen
##ral
spiller
detal
Magn
vita
lån
##bland
allir
Bør
finna
delt
aldri
sør
##amn
Jon
Ung
Alla
##inter
##tíð
skad
Ly
riktigt
##ica
##lio
##ils
##lun
App
##gaver
væk
nærheden
##edel
fyrst
##ko
##joner
##ölu
##rift
##ublicer
dags
##tera
består
as
Ár
##pporter
##ørt
geg
helse
##æring
redan
ág
##tic
gjelder
Person
fell
##ple
forskj
hitta
syk
blogg
##yri
þekk
sjó
65
sym
marked
flug
Stud
aktiviteter
##bär
stjer
flest
nema
##bi
hatt
vör
##skaper
##cept
Óla
beslut
støtte
teg
##igheten
Dess
##igtigt
##eget
##ander
##onen
rigtig
##edes
##tidigt
viðskip
slutt
fredag
My
find
hluta
Sund
senere
sjúk
ytter
194
##verð
skjer
##behandling
##atri
kul
##kast
effekt
Pol
dóm
##vok
eftersom
ph
blod
##vest
retur
mine
Hus
##smenn
ætla
##íðar
##sra
##rust
Ag
milljó
utvikling
us
##sst
drift
##endte
titt
Bro
Vel
##bor
Få
kontroll
klubb
Ingen
landi
##öngu
berätt
síðar
##levelse
verdens
##AND
##ern
##fund
samarbeid
indiv
nefnd
län
tillsammans
forret
##sg
Eller
fantastisk
gikk
hjemme
ka
henne
nyt
##anne
kenn
SK
Bla
##stånd
##ome
börja
press
##iges
##AD
##inge
##organ
arrang
##sent
samband
##run
##ction
Kommentarer
hin
eink
laget
konst
##press
##komm
ti
##häll
##malt
område
række
##rådet
ganske
virksomhed
##giver
finnes
sikkert
vurdering
proc
amerik
##iblio
##æst
##fort
Air
IT
Ek
##ida
Lok
##valget
ök
##enskap
Aust
dage
##riv
dei
##anti
Sport
Bre
social
umræ
gick
offent
fleiri
tjän
##ki
##ose
resp
this
400
##ftet
##ärna
gul
Frank
Lars
##skj
##aser
parkering
Bor
##bord
##óttur
dermed
Red
##skaber
Må
##ðan
##brig
flyg
##ligheter
co
kir
##på
Guðmund
au
nogen
ansatte
håll
trú
betur
Kli
kör
Þeir
##fra
hör
##mål
offentlig
##ini
perfekt
slík
##ttet
##völd
begge
strateg
sumar
Bandar
profess
##bel
starfs
mail
##NING
2004
##lam
##inc
sport
tab
sann
Hon
##nummer
syg
##stilling
##ögn
hotel
##iger
##UR
##holde
analy
Sw
flytt
##snitt
regel
##tes
lett
Politi
##rä
skýr
rele
Blu
##versätt
Gud
spørsmål
wh
##efter
Ísland
byrj
töl
DKK
tillbaka
yrði
Mag
##ostad
Kommune
móti
læk
##æri
##ldre
geti
##ori
Tur
##jektet
##IK
mad
##mær
ske
##istri
einu
eigi
##lingar
hens
annen
##ca
##last
hud
glad
naturlig
almenn
##oret
gange
##nation
##zz
deltag
Fors
##efna
##boð
Hva
spenn
##ouse
##rík
##arfélag
huvud
kategor
følgende
By
tit
same
##ðis
##OS
smá
natt
kart
hóp
Mus
##skabet
##sende
##eta
Mål
reynd
Soc
þús
barnet
tok
núna
##hav
##yra
þessari
##stol
bord
átti
erbjud
blå
ens
grid
##öteborg
forvent
Kn
##vrig
hjel
##esl
rik
##sæt
lö
##enna
##vör
##mäl
kroppen
läg
vald
##ørdag
Natur
Hall
##eth
Po
säker
interess
prw
##naður
gæti
##ettet
kræ
##bert
måske
konse
##ingur
##gående
FOR
skrev
##RA
hotellet
##OW
##person
tager
kunn
##samling
##løs
viss
alternativ
lokale
ba
Lar
##sne
således
navn
egne
##ower
##væ
mai
avtal
##ancer
##íf
Där
##aling
Hu
vek
##holdet
kontak
Þor
ing
billig
öðru
II
##rene
deras
95
tala
##arinnar
##ologisk
##bra
##center
City
Mange
##ðl
grav
eneste
möjligt
gjerne
##hånd
##rott
vatten
##aff
risk
pró
##lles
oplysninger
##ionen
##datert
Dansk
##þjóð
##idd
##chef
##lede
universitet
lave
vare
##yni
##ím
##ström
följ
inds
Ang
stefn
##inne
kol
##bladet
##kku
tør
##icin
mót
Far
##jekter
Gen
större
##SE
##emperatur
kröf
använda
favor
##CH
dagens
##vänd
##omas
150
##skole
stó
##cep
söm
##oo
bíl
##ningsm
Mich
ofta
##nunar
Bandarík
standard
##varer
##ött
Bok
##11
fas
##bed
administ
sitter
Jes
fla
skrif
##juder
##ION
##iliteter
##uten
åb
stuð
##ementet
tredje
bilen
frågor
##iken
finder
##eden
vol
kannski
myndi
fjölskyld
##th
##úl
##ativ
endnu
##kkje
##ada
Anna
##isa
OG
levering
nám
fengið
##atet
bygge
##ningsl
människor
Kun
skuld
##orges
Anders
64
medlemmer
vinnu
##dra
##uter
##þr
##komst
hygg
##erar
opti
erf
hvilke
special
##fors
you
ste
##følgelig
we
rapport
nivå
verkligen
läsa
sérstaklega
##asam
Stat
Göteborg
Johan
Byg
##väg
lika
opin
##anc
Fj
##illar
##ias
ford
##resse
Jóh
Ekki
láta
mott
##ckning
##marks
OK
##fyl
fuld
betyg
##ørs
Vær
Ed
mög
Är
##tater
sige
##slum
måte
sterk
##entral
##une
##brug
##ox
2003
vanskelig
steder
internation
##éf
hjemmes
ekonom
upplýsingar
##ieb
##urt
##way
svensk
##ora
##roller
##ksis
##omen
þótt
króna
if
Ba
hum
##gangspunkt
##off
lyst
ásamt
kommet
##igur
##landet
Bjar
þig
##ikken
dager
senaste
varer
##holds
rejse
##ogg
interv
##lög
195
årets
##vic
kra
tilgang
##oom
sla
Øst
##ugar
Ener
Ka
##best
##endum
##ielle
erfaring
##stri
inför
þeirri
##nå
##CE
##ärer
##ration
##cher
Gj
##stein
fået
setja
Há
##taget
rab
umhver
sæti
tråd
mina
kommentarer
utvik
morgun
skapa
Freder
97
hennes
##osa
##sminister
penge
##ya
##føring
funktion
alvor
gro
##byrg
##aráð
##området
problemer
##21
##skól
låg
þjó
##ärsk
John
sjö
motor
Bygg
##ærer
innebär
pe
ikkje
##itar
leggja
rev
##skon
##äkring
##overs
stöð
sov
##ólks
medarbej
##ultat
##bered
Spil
##øren
kring
priva
automatisk
##UT
##änk
annon
##ht
iden
stöd
nära
Pris
##aby
tæn
fó
##úst
Bes
varm
hjer
förslag
##deles
##ming
yder
frekar
Barn
##iew
Bet
hjelp
Port
helg
##oth
##usen
##stat
ster
sök
##øv
##isins
##arbete
##vart
þý
kaup
##KT
lære
findes
sammenlig
nátt
##iljø
server
forl
følger
Tysk
egentlig
þrið
krig
forbru
allra
##OG
Svo
##laget
##vi
rör
##smark
vat
Gener
gamla
reser
mist
tilkyn
##iða
Can
##talien
idé
##gte
individ
akti
fimm
hluti
Fa
integ
##tabler
kepp
nauð
forteller
byen
yng
##hör
sommar
##äns
slå
familie
##EM
særlig
varme
##gård
extra
Sal
hætti
tj
We
##jarðar
Qu
vef
##lle
raf
Ter
##parti
Ans
huset
Kultur
##yna
skre
ákvörð
fatt
fælles
kronor
saken
tæ
alder
spille
##atan
##tta
top
Fol
##bruk
vei
måneder
##olv
lyd
##LL
##US
##raff
mær
##nuði
eit
##mentar
##reds
maskinö
##lur
##atal
miklu
lif
erlend
##gäng
gav
málið
Super
##allen
##gjør
##60
Kal
pers
##eri
styrk
##bätt
##rakt
Carl
NRK
sub
krä
kval
sim
mgr
prøve
##inget
##sland
Mod
ac
##pan
nokkur
##nnur
hvorfor
##ogn
ko
fann
info
transport
##idlertid
längre
##fyll
fortsätt
##nere
##80
##anten
PR
grøn
vidare
visar
Permal
dø
neste
Eftir
Norges
næst
##orm
arbete
Allt
##förs
samfélag
selvfølgelig
já
minni
##gaard
##kepp
Hot
Mari
størr
hemma
##ligare
##mid
skrive
##kj
ljós
85
vise
Vill
alm
kve
Im
##snit
gärna
bla
##kkur
repres
Sim
##úð
forklar
årene
rep
##pool
##ondon
pot
##ppar
##ura
Syd
##ælder
stre
##yss
Produ
##föra
partner
Di
##æd
##ärt
skóla
utveckling
deild
Sveriges
sínu
##ous
Martin
ganger
Lang
tekur
Met
fullt
fac
síðasta
tvær
konsekv
Íslend
masse
fyrstu
##orden
Pe
##In
gegnum
##öv
registr
div
69
##ssystem
utford
hoppas
##lim
##skó
##kår
##jól
nødvendig
##område
hverju
##amin
##ånd
engelsk
##40
##tatt
key
områder
##unkter
torsdag
udvik
Alþing
Universitet
Mal
##ism
##endelse
##öndum
Ein
##ape
##yrirtæk
Gam
Hvað
##kan
samhäll
##nande
##bum
Reykjavíkur
##irsdag
out
##sut
##yta
kväll
up
##givning
SV
medier
##ninga
syke
Malm
##skor
##ugt
ändå
##ines
Ey
standa
regjer
time
Permalink
##skolen
personal
Bri
Rad
Kir
NT
mel
Plan
##sættelse
##gör
vant
hjälper
##EST
##behør
Region
hugmynd
SP
tor
##fäll
plads
reglu
fang
løsning
##usjon
nummer
Borg
Sve
##nasjon
##én
Ark
historie
##aland
##ross
tale
##rad
##rup
##post
hittar
##öfn
saf
meðan
Wh
höfum
digit
þró
##iber
##ente
##ited
##yrelsen
etabler
rö
burde
säga
mörk
höfuð
Int
Einn
krist
##ansvar
##enden
næstu
foran
London
ey
##forsk
##Class
##yf
##amanna
ætti
##træ
ifølge
erhver
##føres
##ssam
##sättning
##ula
foret
##assen
##rens
nation
gefa
##gjeng
Bandaríkj
ker
gjald
##sken
lenge
deler
samman
feil
##gav
øvr
ön
absol
Vir
##arnir
##ssonar
##meldt
öllu
energ
stendur
Disse
that
##ykke
fart
##lef
Mér
glæ
imidlertid
##lere
##aðir
hjál
##ringar
##ám
þúsund
##værende
stru
##IF
resten
faste
67
##25
##spill
inni
As
strøm
stef
2002
##plat
##mæl
Tre
samlet
##äss
Fort
frå
che
lej
##ournal
##oren
studer
##deild
merk
Publicer
bygger
lögum
##blik
sand
þið
hvaða
Bå
EM
##rop
lyck
##iveau
slags
uds
hverdag
kommuner
##ersom
##úss
##köp
ryg
konkret
##ader
##við
##bank
kirk
Net
försö
rekke
samtidigt
gem
Bergen
##saf
aðal
väx
presenter
##ningi
##ela
##kere
samarbejde
Christian
investering
typer
ene
##pris
##entene
##stället
##æðinu
him
600
##ovis
gerð
Track
onsdag
sín
fald
##lick
CO
boð
##terer
##jónust
särsk
2001
tung
##artner
lad
##ælde
blivit
##rý
##verandi
maí
##enhet
Kort
minuter
steg
känner
##apir
ass
##ráðherra
kjent
##ness
##stjóra
kred
##iðar
66
##hlu
længere
prote
jar
##mis
from
vilka
viktigt
hvilken
##levelser
reyna
voksne
##Pri
##hel
arbejds
efna
##mon
jaf
79
Hansen
jobbet
hækk
föränd
elev
Ann
##stående
##kr
hö
Hem
##teret
enten
praksis
kig
##ennan
##CK
þessar
meld
iP
Bjør
punkt
##ses
ath
shopp
##jern
vård
marts
plast
Mot
inng
##øver
David
samstarf
endast
##ensjon
##rige
athug
##oligt
##uney
##spel
##dukter
##plass
näst
Fast
konser
##ygge
temp
daga
grupp
##ningarna
dele
stress
Ska
Fre
lev
##PS
dó
handlar
##adem
##rim
##vokat
lo
flyt
skul
Hér
Tim
##jerg
ill
##ilbud
##fla
##öjd
##orte
##nende
##former
forbed
##ÖR
##greið
##ations
Aar
Thomas
løpet
beskri
spr
Norður
##ipp
ákvörðun
ganga
Ul
##bes
##ykt
##agnar
vari
glob
##tjek
skolen
pengar
Flere
hálf
öpp
port
klukk
betale
spesielt
##kraft
näm
Norsk
närheten
##tjekning
##mater
ákær
jú
oms
##äkt
rette
þarna
Film
kropp
type
##rekt
##taler
##øge
##ams
##AB
##leder
tyd
##ype
##derne
karakter
uans
##ites
næsta
þurfa
jafnvel
milljónir
##lene
virksomheder
dæ
##stjórnar
inspir
##skom
##grunn
##vek
pasi
##över
63
gym
61
##klart
besøg
Vår
##politi
plat
##Nr
ábyrg
##úní
bog
verksamhet
vigtigt
länge
resa
nesten
fro
##program
tema
##iks
##so
widget
77
Side
##elli
##stø
tímabil
laun
Henrik
búið
industri
##MS
dans
##øring
Þó
hvem
varier
Jensen
einstakling
##abri
svårt
forseti
##heds
mánuði
alene
eina
BO
##organis
Tyskland
##lder
ag
video
##ror
##ordning
##eland
batter
##håller
blom
text
erbjuder
##natt
svart
##ales
ellers
##mor
hljó
##uðum
##æðum
real
Gro
##punkt
spar
honom
##elsens
auðvitað
##øst
##mad
bety
Google
inget
bevis
Akur
ferie
##irka
##fag
Ga
##asm
förut
car
hé
##ölj
bom
ru
##vne
120
virker
arkite
herunder
lagi
efni
bá
##lub
stille
hla
##ðin
fyrra
hend
##úru
dersom
meddel
brukes
##redning
On
stefnd
##vík
flutt
72
eta
förstå
använder
##bundet
digital
ännu
Lever
##oriter
##æss
ól
mär
plu
##þrótt
##backs
62
bestäm
##emed
felles
##iler
##anleg
moderne
##sler
stati
dårlig
##jl
detaljer
offentlige
##park
viden
haldið
Tekn
##kerne
sur
Just
##andid
vissa
##styrelsen
##äld
fólki
##mör
smak
##ometer
Famil
##unnet
##IV
##øret
##amer
Kat
júní
##emål
gerir
riktig
forsvar
Col
Wil
løn
formål
vælge
håller
##dar
##vård
##skan
##ningum
##xxxx
##jöf
Beg
##ante
##farande
##otter
maskinovers
##ommen
##ear
rapporter
kopp
brukt
89
allar
##pum
loft
översätt
##ival
so
Skal
##egi
ýms
##Hotell
rúm
##ason
äl
krón
blot
##ägen
Ger
Matt
Þann
sve
##ndi
##ilda
lørdag
aut
##unda
kæm
##etten
gerði
ml
undervis
börjar
Trackbacks
udvalg
januari
köpa
Alex
Ven
anti
Þessi
bem
##rede
känns
##jörn
##rettet
spænd
bri
stod
##ores
søndag
betydning
upphaf
##skiner
normalt
##alega
janúar
Kont
fred
EN
oversættelse
Bus
vack
kveld
##óber
##PP
TIL
þennan
ósk
##skolan
Led
precis
1000
mamma
tillgäng
IS
##ael
##ony
Dig
Jør
max
mindst
samræ
##ás
DV
Mor
taget
nokkuð
##holdt
##angen
köp
valgt
tilgjeng
þjónustu
##till
##rin
jur
desig
74
##arn
##inda
##oga
##gär
Fyrir
midt
lærer
Fyr
minim
Harald
##ykket
gla
kjö
starfsm
Sy
firma
##komandi
##ew
##ringen
Off
Björn
vart
##boll
##hlut
opinber
##igtige
York
osv
Mik
egna
##ökk
starter
##cering
billeder
##mag
##ows
##plats
##ylland
internasjon
náð
Ac
væru
91
##nin
73
virðist
##dr
##tan
AF
sider
rent
klokk
tveim
margir
250
nóv
##män
##itz
##ativt
sidan
buss
##vant
##vægt
innov
faktiskt
tölv
AN
skabe
Leg
##dir
betyr
bostad
forud
tæt
manna
niveau
78
heilbrig
##slaget
##værk
##ete
sil
71
##ifte
##St
önnur
Stort
fyra
fremst
Veg
Bel
Bal
hring
##kel
ple
viku
avslu
heter
vilken
delar
aðst
sof
lítið
adgang
hy
##sida
##læ
Vå
alltså
##orld
vers
Hoved
beskriv
Grø
800
møte
gjen
befolk
mit
nega
##øker
##fold
##ína
almen
europ
##spoliti
skrevet
Anne
språk
##óta
skriv
Beach
Ob
##förande
##örer
kunnskap
ang
##jóða
handling
rejsende
individu
stöðu
##stæður
##orten
búin
eðl
redus
ert
frivil
reik
borger
flesta
hurtigt
##uer
##framt
legge
betaling
skó
##ukt
##ferðar
løsninger
##handler
landsins
största
Liv
gammel
høre
unnið
foreg
aðra
tidspunkt
rök
##ssp
##råg
hensyn
nýtt
##bara
Maria
arbejder
profil
##kohol
tónlist
áhuga
möjlighet
október
##ney
68
##uts
nærmere
##rike
##ía
##lik
Ap
strax
håber
ganska
besök
vecka
##værelse
erfitt
Evrópu
##AV
##aket
sömu
##24
##emme
##box
politiet
##aða
Sjálf
gat
##ssel
vent
##osp
##ningst
mund
##sko
##rets
190
tvö
##udaginn
##nett
trans
bæjar
Sid
øy
Vej
Black
##istar
næste
kampen
fx
##uddann
##terne
resultater
##70
##gs
##jef
##emark
klare
##ák
##fell
fjor
rec
##ior
tank
##ric
##pren
Nov
##ternation
##asin
##vara
Fal
struktur
nauðsyn
indk
##lementer
##arder
##stud
uppdater
PC
Mere
##vang
sunn
##wa
stj
ress
Jóhann
jobber
Din
græ
bær
Mø
mening
##kkurat
##fti
føler
##cen
defin
##lende
##ögu
Tro
ljus
76
Book
journal
síðast
tilfælde
Arbet
glas
gitt
kommentar
kald
istället
perioden
##able
såd
86
##usam
##ølv
främ
delta
193
##orð
Center
Bill
##ældende
musikk
félagsins
##staða
##leika
##lement
##uta
fod
##bare
##histor
88
budget
planlæg
kjör
lands
framför
##ence
##oler
Idag
leyti
bund
##struktur
nettet
##ningur
amb
illa
skrift
##try
framleið
Fot
fyll
Hels
Holl
##udover
##endet
Þú
anställ
sæl
webb
brand
fortfarande
Ref
##spektiv
##ese
##önnun
daglig
##istisk
skemmt
match
nästan
##élög
sette
Einar
##hæð
##ädd
##orp
##TE
FL
##isme
##iness
kommunikation
skog
private
##jun
Ford
##nivå
##jandi
##spar
grader
grå
kaffe
ring
Sem
##ii
fólks
nästa
##juk
##tiviteter
sent
##sleg
Aug
##slur
studie
slí
finansier
serien
sveitarfélag
dej
nasjon
##OD
##andra
##aden
Nyheter
Dal
team
skö
##óknar
Samtidig
##con
tack
##ruk
##partementet
##ano
##stig
Bank
Peder
sort
##æller
familien
foræld
hæst
Gratis
inga
fjöld
mør
cirka
heimil
dat
##kra
senare
øk
gånger
Forsk
ihop
##ætlun
##df
Hoteller
udford
##mitt
stri
mikilvæg
##ála
omsorg
##checkning
jätt
##danning
Tag
##fo
##lers
hålla
undersøg
oper
##allt
rim
PS
tveimur
##enärer
##ømm
Sist
søk
arbetar
##rú
ög
lägen
klima
græn
Grund
sista
profession
##ulti
artikel
##tad
passar
Internation
bruges
##ligheten
lækk
##js
chef
Pre
##tager
apríl
##ulering
##endørs
Suður
laus
ið
##skrifter
Mynd
uge
##bjud
Kost
Tom
Mel
lös
skrá
snabbt
Trum
##alys
kraf
##UM
perfek
##aken
##sal
välja
verkt
##useum
##vind
##lie
Jens
grupper
##sats
bestemt
##leve
likevel
##ðast
árinu
smart
sjálfs
##ilde
muligheder
98
landinu
SEK
tekst
tilbyder
##late
##indre
Heim
hjælpe
hurtig
sendt
bereg
##ír
##ific
##sprogram
##gruppen
nóvember
##atts
trafik
##rep
##lubb
tallet
Web
totalt
##que
Arbeid
framtid
netop
fjalla
##skeið
##vän
lavet
kontor
##ions
legger
komast
##ragt
##IR
##ces
fritid
Malmö
##iverpool
skól
miss
##cken
kaupa
Einnig
mulighet
prioriter
##slit
##mänt
##amen
pos
begynd
Hos
##22
muni
##minister
##önster
##fræði
febr
general
dial
##ination
##engt
styrke
gik
##jekk
##sef
Ke
Lag
##aðar
Dr
hefðu
ský
has
Mu
was
84
dokumenter
Trond
liðið
Start
go
##ørte
själva
elektron
Ólaf
lun
##isten
##geir
engin
87
ovan
förl
Ör
##LE
Ab
##iell
programmet
Dom
institu
seks
tiltak
værd
##duktion
##emokra
##dags
Svenska
borð
##spla
##fatter
##tekn
je
VM
komin
##tryk
løb
lage
cont
klin
##vern
drøm
##service
utrolig
praktisk
##ått
Van
sats
##livet
##TA
fråga
påvir
enginn
##fast
aften
Høy
fyrri
num
qu
arbeidet
Tot
ums
auka
Ola
##taka
fungerer
##ioner
##løb
##jöll
forel
registrer
##valu
##älla
egent
talet
periode
DN
Folk
midler
pension
kollek
##skont
centrum
árang
##asem
produs
album
gælder
##sled
##rab
Vurder
höfðu
sende
manns
##mur
täv
initi
##kommer
##DS
greiða
månader
semester
United
brans
séð
##gjör
vedr
Også
sölu
Sammen
filmen
Ring
Ný
##nytt
Jac
hugs
igennem
fremtid
##hen
erfið
ljóst
Denna
Aarhus
Cas
##laun
lykk
leita
Danmarks
##uro
temperatur
##yng
##ool
##sav
funksjon
##emang
##start
projektet
191
tradition
forskjellige
##uf
##gren
##laust
##nede
dessutom
##amb
árs
##han
undervisning
Liverpool
uke
Vär
medicin
##eger
aktiv
##jóri
Samkvæmt
personlig
augusti
Mic
##PR
##itte
##jente
muse
dest
miljoner
syd
##yre
gruppe
Þannig
Michael
Því
##ative
##urser
##gin
inspira
ofan
##ologiske
komu
ude
venner
Bol
Max
ágúst
världen
lignende
##DF
umhverfis
værelser
Bod
##talt
180
Kap
middag
ejendom
Andersen
##RG
Tw
vux
West
##ämp
##ikasjon
útg
##spyr
verkefni
83
Ole
##gun
Bas
pan
##ibliote
##aleg
februari
fjar
##oende
##otten
hóf
##ervice
##stænd
##alli
##ENT
NY
utstyr
læse
Ca
mandag
last
##90
##ident
redig
##eltet
viður
holdt
##vernd
##ho
##äpp
kjøp
##23
Skol
rød
Wind
##isin
rolig
prisen
Id
eksister
Na
##jós
bidrag
##pil
centr
##slan
bit
Även
##vís
Amer
fortæller
son
##ellem
patienter
lange
##burg
##edd
pæ
stemmer
planer
##ikum
##gn
kunskap
##andre
alkohol
##gørelse
restauranter
##IM
leig
##holms
konfer
dobb
almind
leve
Marie
Bi
Noen
##nda
##eggja
hr
febrúar
afh
staðar
utenfor
stutt
##ikter
anledning
fina
##ota
former
uk
##sjonen
##unders
##legum
tilst
bedst
Kristjá
##ongen
##nið
samb
##vriga
næsten
##slið
tex
##ærk
Kina
började
Fredrik
##ump
langs
klasse
ingår
##load
frumvarp
##forening
overra
##givet
lengi
##puter
markað
bon
Ass
gift
##yper
tanke
gull
brukar
timmar
##ary
##iens
##edia
##smynd
##versatts
81
##egående
##rende
viste
interesse
Kontakt
Både
Ell
penger
##örf
breytingar
bygget
##disjon
Hav
skoða
##skoð
##eldi
relig
book
strand
givet
Jak
##mø
stofn
namn
belig
##mens
##ækja
lug
handel
ir
scen
96
##aten
##bör
købe
Posted
jer
##sókn
respek
##struk
VI
##rej
maskinöversatts
jämför
Kristian
spis
##pon
skill
salt
kok
heima
hversu
fannst
allan
##vnt
bekym
mæl
##hor
fa
fine
studier
prosjekt
##isere
##DE
politisk
såg
náttúru
overfor
adress
##lager
Fisk
##jent
##emot
##ingin
RO
bade
##legu
##leks
##ravel
kop
##ærm
svip
markedet
Bag
inkl
Resort
ros
mob
Je
##FOR
intress
##bred
##UL
##akka
þjóðar
##slut
vigtig
Thor
##ét
startet
athyg
rut
Evróp
ep
munu
gengið
ferdig
##undet
##anlega
tas
kontroller
akkurat
tidlig
Pal
##mo
##bane
økt
kast
##lá
oven
skade
fat
spise
formaður
##lest
toppen
jf
##tok
Väl
affär
ok
tilh
þjálf
emot
enhver
Eins
ibland
lyf
##ånga
fug
Histor
telur
äm
##nesk
##indum
modell
Strand
##uler
##tav
trening
resenärer
huden
utbildning
##fritt
##bót
93
##jylland
##alk
Camp
Dersom
Design
Midt
statist
##stæðis
känd
##vig
back
##yrði
Vin
##irnir
bod
Bur
tilgjengelig
BOOK
##ops
##smál
##urer
färg
sist
##mand
politiske
hra
Köp
mikla
Spec
Restaurant
##iteten
búa
##RU
män
tölu
##oli
omdömet
långt
bræ
Mac
##skott
ábyrgð
##rade
##IC
brott
##ningene
Nielsen
ykkur
tækif
stark
ful
##88
sæ
trev
Stand
##ännande
##enting
nál
räk
hjemmeside
##irnar
##iene
Nation
Ord
94
seneste
hví
##wn
gransk
Univers
hlý
band
úti
sentrum
júlí
Síð
pengene
##deren
##mene
82
ton
##ängd
spennende
oppdatert
sýna
##ical
##verkar
spor
mánuð
##ful
AM
placer
Span
##göng
##gjort
foresl
##yde
##edagog
Service
row
örygg
vax
kvinner
fysisk
Spør
##øse
##ligheder
utanför
hinn
##tage
conta
værelse
fyrirtæki
skar
teknologi
##spr
##ården
Dagbladet
artikk
##spil
sögu
##ate
##skade
systemet
##siden
##ampen
##lej
Ifølge
skolan
##aðila
Art
dýr
stundum
død
nokkrum
läk
##kont
frv
møde
Hej
Hotellet
700
musk
##ådan
Styr
muligvis
góða
kvik
litter
gest
CD
tall
Hotels
haust
UN
##kert
##jóta
##lov
Italien
frisk
Lög
##igheder
handlers
distri
Mc
PO
áhers
inlägg
Paris
##øp
Social
Hög
nýr
##ther
##talte
##ysi
##æðis
breytt
Bild
lade
##ali
##enk
dels
Bud
##bæk
veckan
såsom
blað
delen
fjölmið
reyndar
##kkar
Anmeldt
pening
varför
Bland
hest
arbeids
fjór
Kol
VG
##ólf
##lare
Jul
mangler
kvinnor
hjelpe
Skriv
tilsvar
##verka
##ments
So
heild
1999
lista
rit
tillfäll
gildi
sjón
Pet
Vit
##firði
träff
neitt
Sti
mínú
##agram
Frem
##istan
seier
Artik
Rasm
især
häm
slike
sch
##enni
dator
populære
trots
straff
oftast
##iva
900
##SS
gaman
##komulag
förm
##ínu
Aut
##öder
Va
økonomi
Ri
början
##öku
##gangen
lenger
sbr
NE
LED
##ykker
Ur
##iff
Anmäl
markeds
ákveð
sida
formid
träd
Telefon
nærings
Mand
##annen
rest
heimild
##eyri
konfl
takk
aðrir
##bättra
##ystemet
servic
##elserne
lese
##mærksom
##yres
HD
sundhed
##ettere
varnar
velge
##ifi
indlæg
veitt
sju
##spur
sosi
nýja
närm
tirsdag
##varing
Kategor
##hi
##ekan
øje
can
##seende
##ekom
borde
##nr
bilde
gillar
##produ
##oter
køre
Bak
demokra
Danske
##bold
##hf
##kkes
##ugh
##beskriv
##sý
konur
##tiska
##aðurinn
konkurr
##óðir
##abet
ment
##ktar
sor
Information
amerikanske
verkar
produksjon
stål
##ots
##sóknar
##TT
ytterligare
##orth
stjerner
syst
check
##ný
daginn
##yer
fungerar
månad
annarra
etc
##undar
princ
##trygg
minna
intervju
Sum
##afl
kvinder
Nei
rolle
##høj
íþrótt
øv
driver
nam
Cop
##cy
mennesk
##ynt
íslenska
såk
direktør
Kor
##tiser
##otte
sól
Und
Gru
garanter
##tíðar
Halld
køber
ønske
føre
läs
Rek
Hvorfor
##99
kapital
SM
##grein
Resultat
generelt
hérna
tilbyr
arbeta
krónur
uger
##jarða
##atch
versl
serie
lande
strå
##rún
opdater
dialog
##ally
##affe
venstre
kamera
vore
stab
vanligt
##öcker
##ilar
##jóst
Bad
##ics
##ansport
Allmänt
studenter
Morg
tje
##emeld
fylg
col
varmt
Antal
##akta
åtgär
relativt
visa
söker
Nil
##óður
##ze
##stillinger
Lille
alþjóð
framkvæmdast
##essage
##havn
Do
søg
Jakob
##ømme
##grupper
##ökum
##áða
Tour
##ælland
##oppen
##sme
##ommender
cykel
aðila
##ammer
##ulegt
##elsene
opmærksom
lögreglu
betri
##unge
hot
##ordin
Mobil
spela
##itel
##trepren
art
skuli
Kro
komi
bus
stjór
##hone
vildi
arbets
regering
omgiv
Kjø
nyheter
engelska
heims
Ret
##refter
##velli
##ætis
##þjónustu
##skum
pdf
økonomiske
Hvil
málinu
Sedan
##rafikk
tydelig
framhald
öru
markmið
##ders
##hu
Store
Skrevet
resultatet
##jön
##legar
staðfest
skjø
händer
Troms
##verse
Golf
nemt
indeholder
äg
##ussen
arbejdet
Hag
lägga
##astof
selve
##andt
motiv
##Price
løbet
##gade
##AK
hit
hær
##tað
##kant
House
sinna
risiko
Omdö
##laug
##laga
kem
bäst
##ningslin
##hre
Någ
##værdig
##mester
liges
ánæg
Jacob
tíð
##åga
innlegg
##legur
vurdere
Från
Don
bæta
äldre
innehåller
økonomisk
deil
Lad
##itir
##chester
##sch
garanti
##vnte
Þau
Produkt
##geng
inviter
skriva
##ube
mikro
##ställning
húsn
Genom
slår
fördel
Høj
##ynam
snú
##asen
kilometer
##riks
Log
##skost
reklam
##jo
##ræns
baggrund
hjälpa
bidrar
Já
##tekt
##afé
tider
angre
hører
##ament
sjávar
##aner
gravid
liggur
##ause
föräld
##undur
total
roligt
mála
kjar
##sig
aðger
##konomi
nafn
##bal
##ækk
doll
dokument
Program
##iten
hlutverk
Leik
##ated
Trump
##LIN
##setning
poeng
##delingen
tilsyn
Meira
sigur
landsb
Star
Cor
reng
FN
##smed
lanser
kvenna
PRI
dæmi
født
varðandi
Tek
cook
grun
Tv
##verkan
##srael
särskilt
##yen
kommende
##OF
##talen
koster
##alisering
##pas
##ssk
##edrag
vider
##skola
##yrt
Lo
medan
##15
Vol
rull
##ege
##løse
används
##arbejde
##æra
##Ja
jarð
smer
##lfar
##aup
ejer
folke
##ritann
Miljø
positiv
##ians
##yttes
##entation
leverer
Spa
jeres
tagit
stilling
fører
þyk
karri
bera
##områder
##EC
Paul
einfald
miðað
##itta
Gå
sætte
##fisk
##VER
##stöðum
##pligt
størrelse
pul
helgen
Dire
1998
##star
landets
tviv
udstyr
Frétt
sektor
Jap
Suites
##enes
jafnframt
##cks
Fly
Arbej
IF
modeller
##ellet
Fi
##skipti
starfsemi
Link
stefnanda
##valtning
Fan
Finans
tillgång
##varande
brev
##elag
##alag
håper
flotte
Bon
Kv
##dde
anbefaler
Norr
##stedet
speci
##esen
elsker
##dens
gången
endelig
##orks
klubben
sej
hende
naturen
dvs
veckor
spændende
Vores
kla
##sagt
reis
##ny
##api
##anen
arr
radio
giv
turen
stats
etabl
boken
fotograf
undanfar
Alþingi
Ho
lilla
leverand
92
ríkisins
prøver
venn
Home
omdöme
##hov
##gården
##mm
evt
allmän
##ønn
dreg
One
vænt
fljó
Apple
fjó
Siden
starte
##fart
##mail
kob
Fag
Frederik
spyr
##14
spila
hinanden
England
##lags
tand
sep
Is
þurfi
naturligvis
##splass
ákveðið
##ftig
##ertif
Full
borgar
forven
websh
ær
sender
viðkomandi
##omer
Félag
##irt
hlið
Storb
opplev
##emati
##uren
pakk
MA
restaurant
Sof
##pg
##terier
##äker
mörg
teknik
kall
innenfor
satte
veta
svara
kræver
Of
##värd
draga
barneh
unga
målet
íslensku
lán
imod
tryggja
ehf
##hn
Charl
telja
dro
tänka
##inen
110
succ
##13
guld
mak
SH
##delen
barns
kjøpe
skift
innehåll
##betal
##itive
##ýra
samræmi
##ware
fanns
##sjoner
##play
døg
nab
veik
##Pro
##gjaf
knyttet
tradisjon
golf
gle
mbl
funnet
bestemm
##sområ
##igen
##rest
olje
milit
##läg
sten
produktion
##stjór
Slik
##rønd
##oster
foto
gruppen
##mæli
egentligen
##følgende
##itið
fi
Tal
##skal
##beg
##tit
##partiet
reise
##breytt
högre
jobbe
beint
##ementer
misst
##entre
liknande
positivt
kombin
##ript
vekt
mínum
show
##vering
##nden
##deg
butik
turn
attrak
##rika
##steder
##ält
##ave
##sek
##besk
opgaver
intro
dæmis
##elefon
prins
mikilvægt
øvrige
##skort
Bog
##hund
media
##bildning
ráðst
Dagens
##valitet
KR
##17
identif
fræð
kraftig
Syn
##smø
##nsdóttir
Larsen
gemens
Lov
lavere
##ðja
Aal
typisk
##terar
heilbrigðis
talið
Bör
Årets
##eks
##ørsel
##ibliotek
##ivelse
glem
##ætter
indtil
kandid
livs
Grøn
Dår
##AP
Rík
sikkerhet
djur
kvartal
##ml
tveggja
desuden
rammer
basert
rak
Vikt
atkv
Storbritann
##onym
##dagog
BR
Bret
Stre
selskap
##ssyni
kommen
International
hed
ráðherra
ríkisstjórn
##veckling
ástæ
Annar
##asj
hæstv
metoder
Hug
##iør
##øyd
##ré
##dur
Akureyri
tjenester
båda
liter
þrátt
nä
fót
##valda
##anner
indenfor
absolut
árat
##ikar
tilg
lar
Daniel
##staden
relevant
##ius
forest
MS
einmitt
begr
effektiv
regeringen
ákvæði
Hjem
ønsk
Jack
arbetet
greiðslu
värde
##jänst
alvar
##íða
AV
beslu
##rienter
göm
lettere
##vd
SF
##bind
liker
sikkerhed
huga
Coll
##serne
møter
personlige
hente
Elekt
bist
##bak
brugt
You
málsins
Lou
Villa
bakom
##hengig
diagn
Medlem
##smæss
##flyt
velkommen
rø
BL
##finu
redu
May
##itut
butikker
##stofu
uddannelse
##wood
fört
prim
ledelse
kjem
##enings
køkken
##eringer
Uni
##uel
moms
Skri
##ennis
synd
boka
##26
Pedersen
##ospital
nýju
##ugardag
handle
døde
uppdrag
sle
Nav
Tri
skru
##bli
ekstr
vold
##ítal
Privat
unna
skape
utom
restauranger
##yrer
Nett
DK
medarbejdere
NTB
Bolig
Top
þessara
##meter
##ssen
##16
##hal
Island
snygg
valgte
##PL
rob
skyldes
sens
##grupp
##27
##spri
fant
bif
driv
Inne
starten
ålder
konar
úrskur
##jet
ársins
Sun
##skrif
bein
klukkan
administra
sæt
Stav
málef
##ums
##middag
soci
ID
bestem
##ikon
Standard
Grand
##beret
Fe
säl
##hr
gekk
##ico
##match
##somt
Wi
##eler
##tider
Manchester
forskel
##élt
stiller
##liti
dö
##legri
hvers
litteratur
Rev
##rikt
hast
##sætning
kompetanse
veien
##íðu
##Id
analyser
klock
tids
kostar
sätta
Windows
##töku
##jeneste
mg
brot
##ningsb
lengur
kommit
Næ
##anefnd
høyere
utveckla
eksempelvis
Rog
Vet
setter
tekin
varandra
drikke
##inav
tím
följande
Fir
åpen
##hem
stóð
igenom
flot
rig
intens
Kong
utgangspunkt
åren
känna
##odet
naturligt
búinn
tækifæri
Bay
sikt
biler
##klag
##outh
Opdater
gäster
##ents
goda
nät
Geir
meste
rask
chok
fleks
nánar
lör
länder
##sök
##æðið
##lanum
mörgum
##klubb
##slam
##cking
knapp
Aft
##SL
##istiske
ansikt
##ringe
anvendes
mikill
natten
##lös
hjul
Dårlig
Hef
##igevel
##risk
##jald
gagnrý
Odd
gymnas
staðið
##lic
veita
MED
fari
kringum
##gaven
Helt
navnet
bind
bloggen
##Vis
skipti
prest
##æða
KL
þriðja
##DER
##dsel
your
Petter
organisation
konsta
Cre
Oden
flert
##rosoft
##retning
dam
antall
klimat
dages
##ids
umræðu
myndir
##smiljø
hverandre
spillet
megin
##skad
##ungis
rekommender
jpg
##raun
##28
kominn
##iled
Topp
##ax
##yttelse
sykdom
Gust
baseret
##agna
sikrer
Lø
##flug
##tation
##AY
Publicerad
afar
##blad
prof
Verk
konsul
aust
historien
##sala
##anni
##vinnu
Sådan
##buti
##ollen
Ko
Trondheim
MET
arranger
##ælg
Vik
átta
problemet
##vision
bó
besta
børne
nei
Många
##tog
eldri
Sjálfstæðis
Gennem
havet
spesial
normal
##IDE
né
Kund
FÖR
vatt
meðferð
Jónsson
Fro
##skr
kostnader
hverjum
utfor
Inte
##udd
verkefn
gave
Fler
##tert
##ðla
afgør
þróun
fed
Enligt
##ble
Halldór
##rel
kirke
Dam
iPhone
Aalborg
##etil
Mið
##bånd
##kyn
gæster
##ætte
hind
##OMM
##leitt
gefið
##29
##värr
fremtiden
þm
erfarenhet
begre
Svart
Ram
AD
hæg
kjölfar
bið
ønsket
##sidan
hagsm
forsknings
beskriver
eksemp
##emmelig
EF
camp
einhvern
dreng
förra
##ktør
evalu
Pass
##väl
exp
lim
##agement
##ktu
IP
rup
recept
hent
RE
folket
dato
Kristján
##ríkis
typen
ingenting
##elden
jobba
hugsa
forsv
skøn
situation
rus
uh
##gress
Bli
##ýð
Emil
lof
skrevs
##gerne
##slega
emb
fimmt
mætti
Exp
samþykkt
##side
##önn
Råd
##cke
aks
name
athygli
kommunens
san
imponer
Rum
möjligheter
##timent
dobbelt
viktigste
##andinav
##vo
undersøk
maks
##skydd
##ENS
BB
enor
samling
Magnús
milliarder
åka
Internet
##ræt
##just
kär
óh
aktivt
##gerðar
##pros
Museum
##uleika
rigtige
omfatter
uppgifter
rang
arm
##arsv
skär
eksper
invol
container
skab
Morten
eier
##företag
utman
Cap
Morgun
##emidler
Holm
kjenner
inklus
##öter
##ighetene
medel
dør
##ibel
##pekt
##ømte
øst
Kri
perspektiv
fjárfest
##niv
skatter
eksisterende
Väst
Takk
besö
##annes
##alender
prósent
Skj
nótt
hélt
##jörg
reak
mati
renover
ER
##bill
##slutning
##priser
IC
drama
##kjø
##OP
##följ
tå
spillere
vägen
samfund
Od
System
##vante
Føl
##læring
äta
Pé
Söder
höfuðborg
sår
lesa
DS
##kommende
väljer
##33
Út
ROOM
##arv
Energ
berättar
##maskin
raskt
uker
##urg
mismun
anlæg
yrkes
æf
##anp
##ampe
##unns
##Classes
##sreg
frukt
divClasses
flu
gram
Organ
fundet
##ivt
Energi
skr
140
##hluta
undirbú
Pl
Aud
staten
yderligere
længe
##ítið
##18
sjukdom
##legget
##hopp
hætta
##yb
##ards
starfa
karl
atri
##spros
potenti
##ners
samarbete
Kim
starfi
Spar
##19
ufor
Eli
1997
användas
Hed
klarer
Ant
Odense
ku
sótt
varðar
##ára
##ordningen
diverse
##skilde
skydd
frokost
Ban
Derudover
greinar
Austur
##avsett
mennt
World
vins
##olen
Þjóð
mio
fotball
##väm
product
forsikring
skv
efnahag
konkurran
##departementet
##äget
trå
Ragnar
Väster
sjálfur
AL
glass
PDF
spelar
papir
Eva
Trygg
udgangspunkt
uppi
boende
þyr
##jerne
##angað
##tifrån
##problem
utsatt
Fyl
læring
##lyst
eftirlit
publikum
##edal
##rykk
##stend
fo
##köping
##greiðslu
Phil
##ösa
meta
Helsing
jobben
##ningerne
klokken
ski
förutsätt
##elu
knatt
søger
familj
hjælper
##æmi
##ningin
##ådet
besøk
Si
##igg
Barcel
##viser
sociale
Hell
tilsvarende
tenke
##bog
##hild
nedan
spe
##skov
Che
skam
gangen
##jögur
mismatch
##óst
værdi
Dessutom
Rø
##lå
tilfreds
##ugg
##ual
##jas
hendes
POST
heldig
særligt
Gís
DVD
prosjektet
##bon
##ating
vilkår
Sag
fortæll
##rygg
##mere
##skudd
##gruppe
ras
##45
##amaður
Þr
##eledes
baby
Olsen
uansett
It
Auk
Ólafur
Andreas
digitale
utsikt
fragt
inc
næg
Dem
träning
##efla
Vä
skje
Press
Bj
menneske
##hvert
##jenester
billige
##bók
supp
sygdom
masser
Kur
##iljö
##dóm
Jer
utdanning
dim
130
Mitt
sommeren
Hum
tjänster
##institu
Dec
##kkende
liksom
krävs
Rock
dyb
hjó
ifrån
##ælp
óþ
uppfyll
kunden
##synet
##ates
vorum
Green
Pan
##ögur
slipper
kröfu
effektivt
barnen
##ständ
Skip
jobbar
samlede
exempelvis
demon
lyder
##ýst
sambandi
Find
fæð
Sara
Hø
##draget
tvivl
##ynlig
##shus
Mater
##amera
##skine
tvo
Kenn
hf
##läggning
Frá
Svein
##tain
##verks
Nye
##ksamhet
##erte
Pétur
snakke
org
föst
argum
sentr
##uleik
einungis
##iatri
middel
poäng
ESB
##haus
Sna
ork
tillit
reynslu
gennemsnit
graf
häst
aktuelle
##betaling
athugasem
sérst
hú
hända
ská
OM
##jaf
platt
Alf
beveg
Oppdatert
Vic
højt
ramme
ho
PÅ
##ötu
andel
##ting
lära
advokat
anpass
samarbet
erfaringer
bebo
##alte
##klare
spännande
##fon
selskapet
terror
##BS
baka
DR
knattspyr
nø
bedöm
##elsi
Mid
##arbejdet
hvar
Bjørn
##mos
mannen
redigering
sky
ýmis
frågan
fundi
Rob
##erade
breyta
##vrigt
gengur
##ission
160
Real
sprog
##nor
##vika
##kurs
svarer
##peri
week
övriga
konsekvenser
kvikmynd
uppbygg
ansök
##bergi
##lett
Blå
##ckt
margt
##gjald
neder
skapar
foreb
##manns
Sigurður
våren
planlægger
##Hotel
##ørr
Stockholms
##anpix
REG
menar
Luft
veið
##pek
Roy
Menn
sögn
kass
laugardag
Russ
##ónu
Mál
lab
cookies
Juli
August
##oritet
Business
skoraði
##nger
##bergs
##skraft
AR
Sigurð
##skriften
Ei
##ington
Europe
bygga
Fest
gennemgår
tänker
##áætlun
forum
barnið
##material
photo
benytte
##sar
pga
adresse
planera
skoðun
Stefán
bjóða
##veien
Frankrike
áf
forældre
student
Stein
programmer
##þá
lest
##legging
væg
leil
prov
kyrk
häng
##sser
pil
189
inspiration
krimin
jakt
1990
gas
framtíð
konto
Mycket
drag
##gede
##ören
##há
senda
Radio
vett
Hold
lege
##unnen
##lyser
##ighets
##esi
stolt
##CC
gangi
##ferd
Sams
slíkt
##erad
Vand
Stavanger
status
##hags
båt
##nde
##erings
##ience
úrslit
##77
gagnvart
Gör
obser
respektive
smu
strategi
GB
##000
Forbed
byrja
Pál
börnin
oversat
hinum
##ages
Jam
##essig
lögð
Inga
##ingelser
låter
##89
##fyrirtæk
##row
content
gaf
Uppdater
grill
multi
Folke
##bad
TR
Fo
ligesom
forand
yt
forklarer
##øres
frist
##sigt
lokaler
igång
Moder
##jóðs
sympt
##iere
hing
Mos
vælger
landslið
marg
regjeringen
##TS
fóru
##äcker
##ownload
##enfor
##esjon
frí
##førte
anmeldelserNr
offic
umiddel
##rapport
cas
Sjálfstæðisflokk
sing
dyre
stemme
viðurken
kontrakt
Tilbud
sóknar
Hafnar
##omme
LO
uttry
sækja
pu
##rifter
##satser
XL
Microsoft
svið
Omdömet
##foreningen
omgang
##NE
ändring
síður
följa
áratug
CV
##öldum
rannsóknar
segist
lífi
FV
Landsb
##blað
vél
vite
visst
Fran
høyt
##ØR
Fjöl
skipta
inneholder
ødel
##åp
mænd
##ættelser
létt
megi
fjögur
##delige
eventuelt
skatte
kab
byggja
Barcelona
##orf
##sper
säkert
hell
förhåll
mínu
hjert
##sum
høst
##gæ
##årds
kontra
##æv
krever
málum
##strar
Cl
behövs
minutt
new
ögon
hlaup
##entligt
##day
medlemmar
##smod
Mol
oplevelse
eignar
Arne
Uppsala
producer
##ATION
##ninni
##eldur
##ysning
utvalg
ást
Sommer
##melding
Guðmundur
líkam
##dóttur
skipulag
Bek
þangað
##hjem
##ykkel
langar
Rik
Berlin
##Le
korrekt
materiale
##naða
gæt
president
tvätt
säkerhet
upphafi
anses
fjármála
##trykk
kender
SS
forretnings
Arn
sætter
##stofnun
AP
live
lyss
muligheter
makt
alligevel
falleg
Jonas
University
sterkt
Aften
stranden
bj
fett
##rummet
sátt
##iebolig
##ættu
Overs
forståelse
favorit
##ögð
venter
slett
##usamband
Robert
dä
anser
Apr
##sin
##iseret
aðrar
stjórnvöld
sínar
händ
Pres
prop
teknisk
##endir
##Sk
##ifik
henhold
##haug
isol
Ax
##ótel
störf
ht
kjøkken
álit
Husk
simp
##atalog
##industri
Varen
Sus
##tæg
##må
Austral
hálfleik
þrjú
##eftir
årige
söng
umferð
kredit
##arta
derim
##holdsvis
plus
hið
##gjast
##esh
##jup
foregår
##vak
tilkn
Fredag
##ymp
##smet
##65
##jir
##ffet
gulv
bedrift
Ray
##rågor
USB
pól
grønne
##posten
aðstæður
foretag
##angre
bakgrunn
##utvikling
fejl
leikur
##iering
##osial
##ckte
Använd
europe
levere
Profess
unik
sånn
Maj
funktioner
##ivil
##varð
sæs
getum
hendur
##når
sover
##kenn
velger
ansvaret
svår
version
##rot
##vann
ró
##grader
##øjer
behøver
flykt
hev
symbol
##barn
Ungdom
klub
hjerte
Master
##asje
PL
GR
##uft
Out
##afe
Andersson
##mes
NOK
##skra
Institu
billede
initiativ
Magnus
forbi
farver
##udvalget
##eds
hönd
fyld
##ynder
öld
notkun
##eningens
þremur
nyhet
##delinger
NO
lífe
forsætis
kombiner
##nason
Bara
diskuter
aftale
perfekte
##lerne
##holdes
##frit
##værre
skikk
Rep
tills
Digital
##aráðherra
nøy
fundar
sendes
##gjöf
##uneyti
tjänst
milljarða
pek
vänner
##jat
stjärn
Haug
retten
Ren
##ville
tenker
tóku
møder
accep
almennt
##olu
föräldrar
faciliteter
originalen
##ledningen
##elset
tross
##oda
##efär
tilpass
verksamheten
##efnum
dubb
##ømt
acc
Jesus
áherslu
assist
od
##forhold
##AF
manni
sidder
sjóð
fulltrú
omfattende
morgon
enhet
vente
##ray
##æde
analys
margar
##irði
viktige
##tin
solid
leikinn
Projekt
ansøg
Annars
##handel
sove
##atum
##ikten
dru
##omp
vuxna
Rand
##hall
sammenhæng
aðsto
Gul
jákv
##skommun
##stav
tann
selvom
representer
próf
højere
Først
útgá
##linga
AT
slet
LOG
vejen
stefnu
##stæðum
gefur
##fjöll
stefnda
sven
##encer
##verd
engang
kortet
samkepp
snakker
##arbeidet
##oka
tillverk
##giften
##osof
##vask
##flutning
præsen
##ousel
bildet
Lands
Därför
eldre
##ðingu
Ros
##komu
##undir
seri
##ningslinjer
pal
##reik
sameigin
kostnad
##års
##ivalen
##dene
orsak
løp
Hæst
frukost
Sønder
sönd
por
ótrú
high
##valtningen
færre
##lån
bot
menningar
jorden
unng
##ities
örugg
hvid
Sätt
##efoner
##strup
##anta
Nik
uppá
sorg
idrett
##sleder
##tti
##þjónust
##strøm
##bler
íslenskra
##semi
##avns
nej
##avog
Udtjekning
algjör
##málum
entrepren
ele
bestyr
##ee
carousel
erhvervs
sang
##lýsingar
est
##ote
##ffe
kyst
##ORT
laver
einum
begynner
áhug
Group
lýs
##umin
##dus
rummet
genomför
Mont
Sort
ledige
##UD
##áttu
stars
1996
##hjul
opnå
Nytt
Indtjekning
säll
medisin
Torsdag
oversikt
##sling
more
ljud
góðu
##obby
utmär
generalfor
##mannen
grundv
gengivelse
Vís
flytte
##klass
Eks
gá
forsøg
upplýsingum
pat
##acitet
félagið
rygg
taler
Dessa
detalj
FR
##ORD
butikk
Nær
seng
Son
áhygg
motsvar
##jung
vem
indsendte
öka
##IGH
##olin
takt
fortsat
lág
##edde
##luten
##station
Kron
víða
avsl
frábær
125
behandlingen
Helse
##rans
##varme
sviði
interessant
foreldre
igår
stäm
Hor
##rere
##ooth
ende
politik
1995
Davíð
ríkiss
##fun
Háskóla
Hauk
kynna
fortsätter
intresse
nánast
lejlighed
##tali
##fyld
fornøyd
model
##speri
myndigheter
Välj
tíu
##jenesten
spelare
##näm
älskar
##icy
##ills
þurfti
hän
sosiale
tracking
##kta
##enteret
Kirk
Ele
installa
Gran
dist
skemmtileg
##veis
##ova
leiðir
Mun
Team
staf
forrige
Ej
Lil
Club
nemendur
behag
drar
skader
áæt
##åne
##kla
Stjórn
løse
##serna
medarbet
roman
skra
Restauranter
##ögðu
Børn
ældre
##stillingen
bedri
hørt
Helg
Jäm
tonn
bry
##ökning
kommunal
##formen
dug
Gi
utvikle
ferd
viðskipta
báð
brød
sammála
stim
gud
gældende
nettopp
##35
afhæng
represent
tanker
kant
orienter
færdig
##dsels
eksk
##dum
stofnun
##flu
##idgets
Företag
figur
Kaup
##ykel
þjónust
Ru
##venn
Gunn
spek
orðin
Birg
Rú
beliggen
##orgon
konkurren
fremover
krev
blomster
översättning
dens
BM
utifrån
Øn
fái
spare
hov
øver
grö
internasjonale
##ysa
retning
marknads
Dermed
##66
##virksom
studerende
##folk
Hör
Nyborg
frek
##75
lämna
fortsätta
meir
pct
##værdigheder
kjøre
##ection
overrask
pen
##bas
viðbót
vask
prwidgets
##fremt
##sdal
tegn
forstår
låne
hyggelig
##satte
##udvikling
rapporten
##ögnum
tusen
##jord
erhverv
##givare
Musik
fædd
företaget
områden
##entasjon
js
##ylt
Arnar
Aðal
##smanna
psykisk
##räck
Hund
mobilt
##trä
Ás
anerk
Travel
##fjord
Forbedr
##fet
repar
Onsdag
##emma
betala
##arétt
leyfi
sagde
getjs
nuværende
listen
deildar
maskinoversat
mesta
góður
håret
##stöður
Kurs
cor
##rings
maskinoversættelser
Vestur
##beide
måten
skot
##ima
##sbrev
##spris
ensk
sekunder
##eme
##færd
tví
##rette
engu
signal
true
debatt
mød
##fat
##våg
princip
huske
forh
##tals
konsum
##itor
säng
##emmelse
tio
##delning
Street
fix
hingað
kabel
##sem
HR
kvad
##kaup
Frið
Sten
vandamál
##nist
##jað
##sfólk
##øke
##abiliter
##ani
Simon
##aldemokra
##huse
Anton
beställ
##rebro
##aleik
##ytta
ordförande
mína
Power
##ocker
Arkiv
redovis
styre
##ommer
Li
##endo
DW
sto
##rågan
##LINE
Kunst
försälj
Psyk
kører
Íslendingar
syv
##inden
webs
##tagelse
##rud
CH
##hæf
Stra
finnas
søker
##linger
tett
oppr
intern
##umál
1991
##iserer
Test
massa
beroende
tunn
##jøring
dör
häls
þykir
##earch
Pat
sjúkra
opr
därmed
hljóð
Mars
konklu
haha
professor
##foss
##ensioner
ólík
Ill
mulige
##xy
solen
Engel
rabatt
hjálp
Bandaríkjunum
##kostninger
motiver
##eig
mv
Blogg
sammens
tveir
##lt
kontakte
##afor
Tha
##varen
##ume
OL
##IA
Ris
##onom
##platsen
bréf
bandar
tilgæng
Ry
virksomheden
trods
##ely
fyrrverandi
skoler
tis
försäkring
följer
##ague
efnis
vedrørende
relevante
sinnum
##ildi
íbúð
Dra
##ít
karla
##iserte
los
flytja
Pá
##illingen
Israel
##smaður
nätet
omfang
guide
konkrete
vegum
mæta
hefst
reserv
försöka
##egnet
anlegg
##gere
Erhver
verktyg
Data
##íska
##ago
##oten
SC
Feb
senest
hendi
##farandi
##fattning
##bevis
##EK
##ýs
##ðri
##umm
##løst
skickade
russ
retter
Event
##fylk
Serier
ökar
gutt
hälsa
Lin
##emier
Motor
Kefla
Japan
mal
Statens
smitt
repræ
skiptir
Tan
tillad
gjøres
##bek
sortiment
katt
kmHotell
svör
NEW
template
Sjá
##nam
inkludert
##EF
ligge
tilefni
Hånd
bered
diskuss
senast
air
frakt
returret
##jörðum
framtiden
##braut
hemsida
åben
##nikk
##spe
IM
kompon
datter
##erede
borgere
birt
##ulags
##dyr
Victor
jurid
##ublic
gået
nødvendige
##ostäder
Lokal
pakke
##bein
##merksom
uni
trodde
Nic
bolag
sorter
begynte
##vakt
##rustning
Fru
øke
##varps
##List
Hvem
##etr
vikur
Vælg
fjölda
utför
##troligt
##anlæg
Jour
##mot
Vide
navne
##bis
tun
Mig
##vegar
##ræðum
##tivet
líklega
pop
##etur
rem
gjeld
##ikat
##växt
vidt
##lip
positive
meng
søge
##ismen
##ogra
##cia
Välkommen
försv
##ipl
##ious
skyd
Sví
##For
forut
nóg
fjern
Cal
##OB
##reft
aðgang
urðu
##stiden
350
Hopp
Rød
##orge
látið
Juni
##rey
##add
Koll
Över
virke
##MAN
instrum
360
##tiker
##hóp
##amt
##riggja
særlige
##bør
##punkter
kona
bilden
##CS
##85
tilbehør
máls
period
Lí
ledd
starfsmenn
selja
fylgja
staden
##itch
##deligt
geri
betaler
fantastiske
price
uppli
Hins
##dó
heimili
##izza
##teres
##skaps
horfa
front
##tein
infra
dust
##æder
kommunikasjon
såväl
Hvernig
slutet
sociala
1994
fjell
##vägen
lokalt
klassisk
låt
##srätt
hæð
pappa
##værks
linje
##95
Finns
Rich
vackra
vardag
##fræðingur
##offer
notað
sanns
brann
Plus
##ned
ligeledes
illust
kryd
105
##sul
gal
Aller
ansvarlig
komfort
##ISK
##täck
opgave
##44
##ktoratet
Varför
åtgärder
interesser
SU
##unktion
##eleg
##ELSE
framan
gäll
reglur
Johansson
byens
##titet
drabb
ry
##OTO
brun
##Sc
indgå
##ningss
##parten
##alls
Twitter
våg
Hei
Ir
inklusive
samfunn
lokið
lýð
leit
nærmest
##sproc
idet
Tech
Første
Rapport
skilja
løbende
spá
liggja
Mi
utred
##unin
##ået
##breyt
bär
##ðurinn
Svend
##oer
##lege
##ability
##app
klipp
##linjer
##asjer
##fuld
anmäl
gerðar
höst
our
##DR
bens
lagði
##øen
##ime
Rej
Deb
Hús
##ioder
##oper
##system
script
pedagog
##borgar
vert
oplevelser
##emiddel
##ønt
##SP
helhet
færi
teater
félags
ekte
defini
Svensk
##vesen
gríðar
síðastlið
##útveg
##rö
Dato
##Ro
sýnt
##oni
Knut
PER
Restauranger
170
Tilbehør
forhånd
Ast
National
##ology
##ydelse
dý
Kóp
##verre
implementer
Gy
##NA
SL
frjál
lét
##rus
##elsea
##sey
hn
Samsung
##lipp
##sfri
##magn
List
Forsvar
rannsókn
þung
##mus
miður
komplet
kurser
ordet
Stk
##afélag
##slet
endringer
##kap
rust
Tlf
sofa
politiker
hálfu
Starf
##ladser
refer
uanset
betra
produktet
indhold
Jord
eleg
shopping
erst
benyttes
##áttar
##älv
jun
boðið
Fjár
##gef
sukker
Pros
Vind
Spill
begrens
irri
nýta
vegg
Bred
offer
dröm
trolig
lyk
nom
##ikkerhet
##eras
ferða
Willi
##mest
##ræk
ug
##æftig
mánaða
ljósi
passe
Bryn
oppmerksom
fukt
Komm
börnum
kvm
module
Problem
svenske
Lav
##itness
##vard
##qvist
##holt
respekt
italien
Job
##firma
##veje
transp
##ief
sje
##god
registrering
turist
trött
tiltek
##inal
ingred
##kkelig
þriggja
förklar
##produkter
Legg
##ffer
sál
185
##ones
Math
øl
stäng
oppe
persón
sne
tø
##ESS
##plikt
##pilot
þörf
tæp
modtager
##ygger
Får
##ningens
indre
##fortab
fjerne
##aa
##omb
vinner
udvikle
abonn
##iblioteket
arkitektur
##afni
falla
ungefär
Samt
##ellig
atvinnu
Bú
Københavns
##ytning
eiendom
námskeið
allvar
kläder
passa
vell
jule
betalt
lengre
##tten
kontakta
nefna
opptatt
oblig
##handa
stykke
Seg
nef
##iven
kines
einhverjum
1993
##smu
intet
##yret
publicer
##reynd
Smart
##har
talar
##vidt
599
Små
Rúss
Mell
Bened
##endingar
##ömmu
try
Mass
##alde
árin
stúl
personale
Rec
##AC
endda
jól
þurft
skýrslu
einfaldlega
Kópavog
endring
##steinn
link
##rategi
Björg
##slok
Bang
dan
rør
##uppgifter
areal
greina
relation
Ital
##VE
blu
antallet
nákvæm
##språk
planen
degi
dagskrá
analyse
Gri
jern
indsats
Ned
sommaren
fiske
##fli
hyll
Niels
Sæ
skola
dögum
##sekret
billigt
will
Þær
Chelsea
Nordic
##vals
sveitar
øvrigt
Tilb
##abeth
##bréf
lock
kök
Oper
Skog
North
orden
belast
sykehus
erne
avg
infrastruktur
samtliga
##løsning
nöd
##föring
leikmenn
##OC
forhandling
Øy
##landske
##ksus
líta
slä
##mönnum
fremgår
venj
Nør
ändra
##gatan
FC
benda
ráða
kollega
support
kompetens
##stan
sjónar
befolkningen
Hår
containerClass
moduleList
vatn
Tru
Fär
fysiske
##zer
##bý
Brand
dreif
##ánar
##iland
##aðist
møn
organisationer
Bare
Nya
##sliv
svæði
##sterne
leiknum
Stortinget
spurning
omdömenNr
##tinn
##læk
Kung
##sløs
starfsmanna
##data
League
##litter
fengu
ventil
Skulle
Ron
vanliga
##bolag
Mest
Cont
kräver
modern
Målet
avl
##nive
##þór
Angel
främst
löp
##behör
LOGIN
##rasse
computer
mærke
Icel
eigum
teknolog
##raðsd
##bjerg
##värder
tu
mán
lak
ungdoms
##ridge
##bent
Finland
ryggen
tw
mom
dollar
byrjun
##srapport
##pack
skráð
Class
gren
projekter
betydelig
##júk
höfuðborgarsv
syns
kampan
##sep
butikken
hve
einhverju
##estene
##mas
rætt
náði
facebook
böcker
atriði
kontinu
INLINE
tyckte
##agne
pólit
##barhet
fasteig
Madrid
##egru
Velkommen
##habiliter
##bolig
##sy
IRG
Tar
##ningsk
fjallað
##iffer
##auka
Afri
fornu
fing
kosti
gerist
Stefan
Desuden
##rager
##ingarinnar
patient
##FF
sørge
oppdrag
Rosen
##reng
åringen
##leje
tilbak
lokala
hjär
fortsetter
Þý
##ierne
fotboll
speciellt
##ografi
död
##IST
merke
tøj
Blue
Litt
Örn
##rutt
##AIL
##øbler
Bald
drive
trivs
vækst
Dokum
##iki
Alexander
klockan
fritt
journalist
##field
Leif
rúmlega
Fac
##information
##uminium
##sborg
##jóði
bonus
Marc
sagen
landið
boliger
##ferðir
##roid
behovet
##behov
##ture
komst
oplever
Baby
##køb
vægt
Mens
samfunnet
glade
skaber
##ving
talað
##ILL
modtaget
aktiver
minimum
Dri
faglige
filmer
Mette
##stj
##ertil
##supp
##rine
FLOW
##Ny
tend
sjálfsögðu
intresser
##64
Nogle
Ald
Evrópusamband
##lista
informer
gri
Søren
##lis
Eld
##direkt
##elin
Pu
disp
borga
beräk
##yriss
beror
##12
##komna
##esson
konstruk
Esp
##ife
neðan
##äls
trend
##raði
##delsen
##zon
##olag
Bau
sjov
##stander
Fem
tilfin
jub
##efnu
ledere
##strand
erstat
hjelper
Cast
##mæss
síst
##adress
försöker
##vail
##BA
##fjár
##kopp
##alth
##34
bré
##orkshop
##rör
papp
Soci
##ladsen
tald
##bruks
skær
Mex
##imal
kynnt
formand
##finn
banen
Bedste
##ison
viktiga
smid
kategorien
Manager
##lande
##regler
Síðan
##ect
köra
visste
seværdigheder
spark
Vinn
slutten
aðstoð
norm
##delse
Sur
Cla
##Mer
Förs
granskar
ordning
tjeneste
delvis
Ari
##taket
lauk
tilbú
Vig
ALL
alvorlig
sendi
OCH
øj
mismunandi
placering
Kansk
UT
Wester
tænke
##lor
nødt
Gull
niðurstöðu
ap
solgt
tyske
sälj
one
##cts
War
Road
blóð
##etøj
UD
Alþingis
pause
tekniske
Tab
vetur
process
##isjonen
##nefndar
skrifa
Glob
hä
##ttes
instru
henvend
framgång
Instagram
smag
##bygget
trav
Forside
søke
ersätt
asyl
enkle
High
##yrar
volds
áttu
##annar
foreldra
pædagog
hårt
forseta
spring
Sigurðar
##parat
##urð
ofb
runde
öppet
##84
##atta
##film
Tidligere
opplever
beslutt
bekk
vekst
##oppet
bryst
koncer
exper
billed
regjering
sidst
Fantast
##skift
##ree
Samfylk
AC
##gl
Guðmundsson
hverdagen
##uen
dl
Hil
Forum
Sigurðsson
bredt
##olade
##stöðvar
##cast
##terings
bos
forhandler
##øve
støtter
make
fyrirtækja
störfum
##larna
##holdning
Fix
succes
##ending
världens
##74
avtale
byggingar
tår
helstu
Lyng
Transport
oavsett
modellen
##hotell
miklum
Dahl
fí
tlf
einst
##lunda
##kontor
hom
##estad
sosial
undanför
historia
##dís
kröfur
##nær
##artan
rif
Venstre
rådgivning
føde
Boka
tilrett
##nan
hrein
endte
Dålig
hefð
konsekvens
umfjöll
ost
Roskilde
fej
##somme
lýst
spiser
##ýslu
sådant
flugv
skyn
kunstner
íslenskum
##avtal
##fol
##delt
intressant
Kanskje
framkvæmdastjóri
##SA
univers
##satsen
yfirleitt
legg
##unnit
uddannelses
##ksjoner
Set
heyra
fandt
ensam
originalet
fremme
bíla
def
##élögum
##videre
víð
gård
selvsagt
Kanske
##junni
børnene
##bygging
varen
oftest
##jørn
smukke
greit
##ovens
##elles
beslutning
Bras
Journal
liste
tysk
svare
dum
Sú
gætu
##EX
##lind
##EB
##tiet
##lær
Play
stabil
Sá
Industri
manglende
regul
uts
hreyf
ljú
læs
##otta
regionen
efterfølgende
##eservice
understø
Auð
Ríkis
##amper
Nem
look
prat
li
auðveld
reiser
Nyt
##kn
farve
Champ
mestu
anbefales
Download
##skog
##öts
##sloven
lärare
##ref
arkiv
ýmsum
##rering
##stund
þakk
Tromsø
Jørgen
##arlega
Íslendinga
avgift
bø
Gjennom
filter
bestu
##lings
antag
##ðlabank
endurskoð
artikkel
Incheckning
våld
stein
enige
karta
Trä
yngre
Utcheckning
##ced
##sert
tjá
faglig
##ffek
toll
lägger
ætlar
mínútur
utform
##skaff
forsætisráðherra
Öst
hvit
domstol
syng
##hjál
bestille
reflek
prøv
Íslensk
Like
holl
Vald
##ljó
Klass
Christensen
##ðing
presse
högt
tals
##ktet
Rund
certif
benytter
einkum
Au
##ból
Nyheder
##mist
udfordringer
##öxt
öppna
Kvinn
Øster
villkor
##vendig
##þjálf
Förbättra
lägre
##spark
##like
läge
##acka
njóta
Navn
III
Byr
Spanien
seksu
Jesper
vedlige
BOOKING
lítil
Alþ
##mik
Line
King
raunver
senn
##Flags
trener
scriptFlags
but
sjávarútveg
underhåll
##sx
tryck
Ráð
mánuðum
##ÅR
##angel
Tyrk
##iella
hall
##eninger
Valg
einstaklinga
Uans
Lær
Öster
##vitt
forbered
Invest
personen
sesong
úts
##sområdet
Jafn
leggur
balkon
fjär
Skole
otroligt
##nem
udtryk
svok
Lá
##ize
bjar
Kristin
Ísaf
maskiner
designet
kendt
felt
##aft
Folket
færa
rimelig
Eftersom
hó
central
##ísk
mönnum
ophold
##lagte
##An
manu
ventet
genomsnitt
faktorer
tillräck
daglige
SD
Beskriv
Part
sw
Mandag
Bjarni
##trent
##iesel
handels
Lis
leika
##ðingar
bedrifter
##ilder
##iluft
##ússon
minnsta
frivillige
taki
eing
bifreið
Norske
##reis
premi
##grip
##uls
##jed
##stekn
fyller
##platser
översättningen
##rasjon
##stift
återger
grundvelli
bætt
##leie
miner
##arnas
reager
skulu
erfaren
åker
101
##ðinn
vurderer
oppdag
ess
bendir
##samlingen
vettvang
##lýsing
##intendo
##arh
Sing
General
geb
Trust
geð
##oker
##splat
ender
Janu
samkomulag
million
##hjælp
farger
fjármál
feriebolig
muligheten
fremur
Mini
Saint
höga
##ägare
villa
Jem
endret
Brun
Mika
pool
fjölskyldu
klara
Lys
opslag
bytte
##ava
vitamin
##bevaring
Acc
åkte
begræns
materialer
loc
jóla
röð
##pur
erlendis
vaf
stället
mynda
install
sýnir
protein
valget
HP
##plads
Vester
byggt
Bæ
engasj
situasjonen
Páll
sveitarfélaga
Indberet
nauðsynlegt
minska
Vårt
FA
##gitt
Hvid
glæde
##abler
uppskatt
Sól
enig
##hyr
##víkur
flestir
inkluderer
INTER
åpne
Klik
Þing
skifte
##umär
slæm
##varet
tvil
hita
Arsen
##ÄR
##bærer
##fattare
Miljö
##løbet
egenskaper
antalet
uppmär
internett
slit
KOMM
svaret
##ndur
Via
maten
flag
##riske
frekari
Sek
Breið
uttal
Helga
kjente
komist
Karin
statsminister
forhand
kaff
##UND
afleið
##versättningar
nærheten
Ali
rädd
##eman
##kvöld
bevæg
hård
##lete
afdeling
##björn
##kkede
rigtigt
##xti
##ätta
sign
tími
##ain
utviklet
##tids
##edyr
##jøre
##eting
##ights
Lite
##ælles
Bästa
sørger
Ker
móður
##uset
##sættes
##brud
##67
##enny
Ther
##bøger
lid
Grind
desværre
røde
low
anställda
Syri
##niveau
##SM
liðsins
kommunale
1980
##ordet
fortalte
familjen
lokum
kref
upps
låta
##brans
##ledare
hsx
##slipp
Ønsker
Bruk
telefonen
##ðun
heg
leveres
Jú
lunch
behöva
sav
maskinöversättningar
Vík
Klicka
##espill
##test
praktik
matemati
This
##msveit
##hast
##rande
nämligen
##búnaðar
Trønd
Booking
foredrag
html
##ennes
##ikkerhed
##63
##kter
ætlað
hunden
Fire
årig
anvendelse
platser
##raut
þurfum
umiddelbart
##liggende
möguleika
färger
skönt
försök
gammal
snitt
fris
overord
##budet
gis
##ental
budsj
kvaliteten
##analy
ríkisstjórnar
##kontroll
forfatt
##ställd
use
##leif
angiv
þín
tax
Sjö
##emelding
helgina
Sec
##ligg
förbätt
Sammenlig
begynder
ken
##pec
nødvendigt
mente
öppen
rosa
Andra
hard
##sköp
erbjuda
heimas
##dam
stefnandi
##BL
tolk
tillgängliga
HV
##ampan
##ij
Leon
Politiet
næring
afla
##skrig
##aðili
Storbritannien
Tirsdag
condition
##oph
rid
##bæjar
##ktøj
##ós
seinni
psykolog
##amót
áv
marknaden
##He
visade
Xbox
góðum
heitir
uav
virksomhet
núverandi
##ELL
fleksib
ib
undgå
doc
bað
Nilsson
svarar
Rasmussen
##arter
White
##små
ordin
grän
##seng
värme
brey
bekväm
1992
bestilling
##løp
##ksjonen
Express
175
islam
sidor
##retten
ættu
Alterna
forekom
anbefal
##vog
sjál
Hele
hjør
##kväll
##ART
skila
Ág
##pol
##vender
øker
banka
hugsan
forbedre
pensjon
Barne
afgørende
##tokoll
##bø
brukte
Lik
##ci
storlek
maler
Cup
##do
partiet
##iktig
##vöru
gjennomført
berg
##únir
svæðinu
bý
síðari
höll
##ASS
socialt
stærð
IK
sjef
##hyd
Kra
líkt
træning
##stem
##urum
öryggis
##juta
##anke
kvitt
##Meta
norður
Special
fransk
fylgjast
Elis
##redit
##anlegg
love
Prø
byggð
grov
##pati
utfordringer
lék
imellem
##amála
þýðir
##EA
##ningsvis
##skrav
het
##ragende
sner
Árni
Trøndelag
##ilet
mode
##minn
Ski
nylig
oli
##aljer
ægte
##achel
atvinnul
nágr
##ilum
ander
pasienter
##holdelse
##kvalitet
Fla
##ls
flyttet
##illinger
##ception
##eliv
rekstrar
Jön
tilfeller
Klubb
nede
##ställa
udsigt
skipt
##økt
ställa
Linda
##yfir
anbefale
##ölum
mekan
SAM
disku
familier
##ward
avgifter
Udd
egg
befinner
##GE
svak
##com
eksempler
avfall
imot
Online
skikkelig
tänkte
##nám
##slunni
##kir
starta
##illes
##banen
##ription
leiki
gögn
skön
regnskab
Kristians
##amark
##ikal
##ami
##änning
derefter
##råga
toal
##rh
närings
Fragt
NM
##personer
nærmeste
##länd
##uddannelse
Wa
samle
framtíðar
##tægter
kvällen
##ikere
##vejen
##69
##ex
borða
fon
tyvärr
grunnlag
akadem
verulega
forbud
##virkning
visse
Tu
byer
identitet
språ
skillnad
Box
inntil
slys
primært
##imm
forny
persónu
kritik
Gym
sådana
orku
aktier
##iro
##færi
tilvik
förstår
magen
April
fantas
Kommer
##bout
höndum
kog
kritisk
dynam
forfatter
##orier
vises
eiginlega
##spl
uken
##skurs
innebærer
Akti
kvadrat
##undum
keypt
Två
umu
bedømm
##Rooms
tillhör
nokkrar
##vning
praktiske
deildinni
samfunns
ástand
Expedia
##PT
##legger
##cca
##bands
Mann
þrjá
##To
heimilt
Aftenposten
fylke
##lish
minne
skaper
##emor
förutsättningar
ordre
titta
desto
Vän
ákvað
Kategori
faktura
boði
##mörk
##83
reynt
##lýsingu
##trúar
Næst
lært
##orget
##asc
##utveckling
melder
##ND
aðstoðar
Höf
##mak
Úr
##endal
bíða
##élar
##atin
mjól
##amönnum
forventes
##spart
Tror
CC
forventer
##standen
eventuelle
faller
síma
valt
point
IV
Arsenal
Orig
EX
##gerðir
##ktig
Lørdag
høyre
Kors
1800
fasiliteter
lägenhet
##vas
tilla
liðinu
nokkra
kombination
sentral
##skul
klassen
##ären
##búð
nyttige
litið
Tips
samnings
overnat
##þátt
pab
hvorki
kennslu
##avgift
påpek
Jørg
leiða
priset
kontrol
lagen
Verden
James
höra
Merc
relater
byder
##ject
Örebro
##egaard
ringe
opera
fönster
##medel
fortsette
##lden
sølv
##freds
##vera
Esb
Regist
tengslum
##gers
##kvens
pap
veður
Århus
##ppi
Trans
áfeng
deretter
fastighet
skilyrði
Má
simpelt
##blå
Publicerat
FH
spår
loka
tanken
nödvänd
##ining
utviklingen
##87
##reyt
reið
prata
##elet
Grå
lod
##emedel
alldeles
##anka
flutning
##ELS
##zen
##ydes
##sering
HK
organisasjon
##deb
arbeider
aktive
Not
unngå
xxxxx
Sky
Gal
fabri
Sor
skað
##osition
tónlistar
##kræ
##HO
Sweden
leikmaður
##skuld
mæng
deltage
##litt
##ndu
kanaler
kjøpt
maðurinn
##kvæði
vilji
KON
##ads
eingöngu
##ningunni
##ungen
samhället
leva
##vende
koncent
døds
##no
kat
medarbetare
dekor
##abetes
Själv
##cere
verdi
rock
##vide
voksen
Laur
##stret
stjórnarskrá
hár
SA
Formål
lover
##Om
bekendt
##øya
##iðis
Reykjan
Administ
diam
##ýri
spri
ástæða
##ems
tus
integrer
##alder
omtrent
fung
Vinter
eftirfarandi
##round
##iera
Room
hyd
##ræður
##stendig
söka
hverken
##manum
Raf
##uneytið
sið
##lýst
Totalt
bordet
treng
læra
##omt
legges
drø
##MA
Allir
kolla
matcher
115
videregående
plant
Enn
Kop
##fug
Træ
Lau
direk
opplysninger
Brug
Reng
høsten
##elighed
önsk
##SÅ
syntes
123
##lok
lukket
nýjum
gjord
Poul
original
Meget
sr
Lod
igang
mol
lördag
Rel
##ckar
Ok
fodbold
##mars
geym
##ellit
Innehåll
Gun
##sbest
ressour
Skåne
långa
vona
##fjarðar
erbjudanden
heilsu
mester
##osta
Margr
betydelse
sesongen
erk
##oma
##Room
framleiðslu
Nils
##janna
stelp
DI
almindelige
##alaust
##pi
##hög
óg
Børne
flyp
##bit
føle
220
afhent
markedsføring
skinn
Benedikt
Vat
ennþá
artikler
##ræðis
gällande
kjemp
prom
##ensst
viktigaste
Apart
112
Eur
##itat
eðlilegt
ensku
leje
##efra
##ínum
redusere
forbe
##vurder
konflikt
Hud
tåg
##arfélög
byrjaði
Pra
nefn
ændringer
##vise
##enhagen
bevil
Mikk
påverkar
##ould
avsnitt
hodet
Spe
##húsinu
DET
Dre
netværk
##acc
prosjekter
klo
innhold
##kkert
##lejer
opplæring
##ARK
Skov
utvid
Generelt
Sida
##stændig
funn
promen
##jening
ekonomi
##väx
##Se
kallar
Los
sæson
##økonom
tilkynningu
lägg
leiðin
##ammen
##ifer
##rator
avgj
stí
vitt
tages
##ulltrú
Flor
##ningsf
Verð
Kjell
camping
##oti
kvinne
ves
##umark
##aktør
stuðning
##aktig
göng
mjöl
utnytt
##oks
sekret
allav
Royal
##odel
kallas
Love
nöjd
vísað
kjøper
Form
kontinuer
lykkes
Volv
Borgar
##uma
vänster
##dri
takmark
##edygt
rutiner
fullkom
##tastro
gerast
beløb
nedenfor
##undi
krop
veget
##lín
##stræ
fungere
master
slog
##aðst
samtali
afsl
##stillet
bøger
##nene
##ketter
deltager
evne
förvän
bibliotek
##ensa
img
svol
##spítal
Kirke
ansökan
##ðs
##atar
##etning
##RID
rekord
galt
Brasil
vedkommende
rym
Sér
TT
atmos
Fur
verks
velja
##varna
##slagen
kne
Carol
##stans
Dog
född
staðreynd
opleve
##anga
Wall
annoncen
Regjer
Regn
##eldis
enbart
##leys
##rimin
nag
testet
Árið
##skiptum
##put
fortsatte
##eser
##forbund
korte
finansiering
skogen
Afrika
Wash
##ssjef
##outube
Hé
livsstil
seinna
##teras
##ntligen
Lim
åbne
##gjandi
tip
umræð
Guðrún
glöm
Hvilke
bent
##úbb
##sprung
formul
##liste
##jene
utover
præcis
1970
MP
sitja
mobilen
radi
ed
##höfn
overfla
##fria
fry
starfsfólk
##stól
embætt
##phone
##Visa
midten
trykk
vindu
féll
##taði
##manent
Material
##fly
utanríkis
vejledning
##ímabil
ændre
tidigt
heldigvis
##sbe
glede
##bygger
##lysning
##fullt
Kvalitet
##sbygg
##akfast
##ado
##slös
billigste
##andel
Analy
trafikk
brugere
##itusjon
ont
arkitekt
jap
##gast
ell
##amet
##kerfi
message
##unst
##sdóttur
rådighed
##egnelse
##zy
##skv
Georg
Uten
fakta
smar
##umb
forst
boll
ökad
hösten
snø
September
Gala
##vention
South
engan
dyg
Big
veter
termin
effekter
##forskning
breg
säson
vernd
Bauhaus
stär
##vailability
extr
Hard
bygninger
sjónvarp
kött
lättare
bakgrund
selskabet
##ockey
Ku
##arp
myk
Agder
Fjern
##Partner
ges
##sbehandling
forelig
##oke
staðinn
omgivelser
fjórum
laganna
##irkju
Innov
sammenheng
fyrirtækisins
Blom
besked
Ellers
lax
##bygning
##öja
sønn
Hanna
fík
verktøy
debatten
##psjon
bygging
släpp
liði
##nina
##idrag
Lig
##bio
##skoler
parter
pm
Kø
buk
Fær
##orku
vísind
metode
cle
såfremt
önskar
pår
heildar
##íló
kyr
##mög
##stag
##Message
systemer
##vre
##useet
söndag
control
yngri
cirk
Blir
breyting
skjøn
soft
fiber
håndtere
Sigrí
##sperson
##ittel
sitta
litet
levende
casino
örugglega
spara
##åå
##junnar
tryk
plug
good
farge
kommande
slá
Olav
Gunnarsson
matchen
følelser
Foreld
##önt
görs
Johannes
sælger
##lunar
metod
##aut
Ekstra
##Fi
##79
bran
tilskud
Are
keyp
##grad
leverant
##istens
besøgende
##ími
##SR
lønn
##ingene
##pps
##jóra
Randers
elementer
borte
mont
rettet
##bært
##ligheden
##middagen
1500
##apeut
##agreið
prosess
fylgir
##smiljö
##amilla
skjedde
luften
##skyd
##GG
ríkið
##aven
##egetøj
##oe
Popul
##öka
þro
frig
Sogn
straf
generalforsamling
partnere
Niður
konkurranse
Media
begräns
##örk
Bøger
##hjelp
##lassen
skicka
husker
spa
hjúk
godkendt
Ext
plag
Guds
Varje
dela
NAT
##egård
känsla
börjat
##skop
##værd
hyres
Drag
datum
mæli
setti
##artik
Præ
Fle
mangel
TH
slikt
##tasje
##erende
Helgi
batteri
aðild
indkøb
tils
grí
gent
##fyn
Fakta
styret
situasjon
tænker
DM
##rich
sérfræð
Same
Stad
##eläs
##ugu
mä
tänkt
Samtidigt
nøg
politikere
Figur
ugg
##73
såvel
Flyg
##ienser
paa
ryd
Johansen
Born
understre
myndighet
áhyggjur
badrum
þor
velkom
vatns
óvart
##terade
traust
##auða
##vendt
##lemmer
religi
nógu
byta
##omet
röd
medarbejder
vedlike
Trustpilot
Other
##höf
avhengig
lærere
##junum
##iseres
##Availability
##TR
Leder
jämfört
restaurang
fyrirtækið
poly
umboð
tav
##tig
Emma
udgifter
Gla
rannsóknir
Char
processen
hvorvidt
Artikel
favoritt
##stofn
tillstånd
1900
bestyrelsen
Sørensen
##legra
uppe
##tré
missa
##feld
kynn
scenen
kak
vakt
vantar
indik
aktører
website
Eric
Sov
##elefoner
##skólans
hven
EL
fjárhæð
##ruð
litla
##celine
ynd
##sektor
##egler
iväg
##parken
##hang
mikinn
stanna
November
ekonomiska
lífið
färd
##butikk
ekstremt
segi
##enne
##iar
Kær
Lögreg
FOTO
Smá
Kos
Fólk
Jar
perioder
Kold
##yle
minister
##vott
fattig
Guld
styrkja
##ail
euro
Mats
##iday
viljum
tímabili
##spør
Laug
kend
fød
Bem
tekjur
##untry
Blog
tem
trygghet
##eringar
Norw
Universitetet
##hånden
elektronisk
matt
pack
##ETS
##verndar
naturlige
##spartner
kostnað
Våra
##tex
förr
##jobb
Ragn
104
##INS
samstarfi
revis
##ua
##dalen
Silvan
grip
Resultatet
rabatter
ånd
hjälpsam
##ope
Barna
henholdsvis
Back
þessir
tækni
potens
##ðju
##ingi
idéer
punkter
undervisningen
hjemmet
##søg
##styret
##lima
ställer
##ffar
stue
kle
##mant
hentet
Karlsson
plad
fordelt
Äl
planlagt
Virksom
arrangementer
himmel
snu
fljót
þakka
Uddann
utgång
sätter
nyde
veð
##sma
internationale
##Gra
utvecklas
##klasse
stríð
##sting
##atorer
##eled
Ze
Skatt
##iko
##egr
specielt
hehe
motion
##stone
##setningu
udgør
lögregl
marga
infek
##ampa
Kre
Godt
Fun
ked
Skag
class
aðilar
##jänster
##sby
partier
kalt
##splads
enheder
##ité
##igan
idrott
##ferie
skyldi
##sköter
miljar
heiminum
Sunn
##sor
amerikansk
engager
##arakt
gerðu
mistet
Bilder
ós
kjær
184
höger
tilby
##ypt
sæn
jæ
flex
nødvendigvis
hinna
grundlag
sár
genomföra
revider
##slivet
##lasjon
##stofnunar
leda
kontakter
Björk
Stats
##arinn
tyder
Aff
býr
##ättning
##politik
OS
skrivit
##landa
very
##skólanum
Ott
påvirker
php
Arkite
##not
##värdheter
##pression
höfuðborgarsvæðinu
Will
##ovre
nyf
ager
Begge
##havet
filosof
EC
religion
góðan
avvik
braut
HER
Søndag
OGSÅ
Nintendo
Bos
profesjon
##erv
Sony
##house
fortælle
ledelsen
Ume
Akure
tum
##nest
Lek
##effek
##ocka
retningslinjer
ytterligere
opna
##banken
selskab
getað
lette
##førsel
##uneytisins
Rikt
##mäkt
position
påg
hlutfall
Nok
blad
víst
Mikael
##board
søn
ky
trevlig
##ställningar
inntekt
testa
fare
invester
##utbildning
gí
##leikum
DU
skaf
##lutnings
kanal
prisv
beið
beri
KS
Gustav
##öre
##dre
hvet
ney
TA
lægger
Kategorier
beskyttelse
kapacitet
oppleve
þyrfti
polis
##byen
##skýr
##splanen
leverandør
datab
##ALL
##försäkring
þjóðarinnar
forebygg
Eir
spreng
Kle
konstru
ax
Jørgensen
anvende
##tryck
árás
Pi
rekstri
##brott
breytingum
suks
undanfarin
ríki
hvenær
Fyn
##lof
vanlige
tydligt
aluminium
Up
##smið
dygt
##blaðið
kilo
måndag
arrangement
Sök
Light
hugmyndir
behandlet
##biler
rektor
##sag
morgenmad
ungdomar
Gol
hepp
##cert
Lager
##planen
##stor
##jarð
Søk
##vold
##yright
Open
Nästa
guð
ent
jörð
enormt
dåligt
##rut
situationer
##cle
##legan
stjórns
##etid
##rækt
##åter
Adresse
gleder
afstöðu
##jes
##resultat
IL
gjör
Gott
##emar
Anti
##aktion
árangri
påvirke
Total
bæk
birtist
gærkvöld
dagene
Lab
strá
väntar
deltar
##ørrelse
##inke
Minn
##uch
Stark
230
450
beskrevet
högsta
dry
##iano
användning
Framsóknar
##brot
##ðferð
icke
kreft
reglugerð
garder
tävling
##skipta
##orgen
Sex
##ferðis
##eleder
Kilde
afslu
##verkefni
fjerde
nasjonal
konu
matar
avgör
árangur
utrym
politikk
tímann
mundi
##forum
åtte
##celler
þeirrar
##itus
##osen
work
##klær
hedder
##II
udbud
day
utmärkt
ball
sannsynlig
##asinet
##svið
alger
##slen
Knud
##BO
fond
teori
Forrige
miklar
artikkelen
Snæ
planter
Prak
skriftlig
##asy
tilpasset
weekend
103
smil
##issa
Ofte
##litið
måter
Rasmus
format
Behandling
kontant
##vikt
##isse
##HOL
##leysi
endre
suður
Hraf
Guðjón
##ebli
##æki
uppf
don
oppdater
##fig
klassiske
involver
skild
enheter
góðar
historisk
tryg
föresl
Def
verðlaun
##ädda
##ærker
rehabiliter
##alaus
spyrja
gag
utgör
kæmpe
dyrt
rese
Okt
Tob
förbättra
udendørs
##delningen
hátíð
ApS
Eitt
Alder
##ússins
stan
bilar
rente
loven
særdeles
Johns
lung
poll
##ckel
Eti
hótel
lyckas
forløb
Marg
global
fortelle
maskinoversættelserJa
##bbame
hræ
Sveit
Wik
Nyk
##ount
##oy
Ák
fødsels
snjó
röst
##Book
Organis
vond
hófst
Hól
framåt
Fak
Sær
##asa
Ida
stærkt
spons
element
##öllum
import
ena
derimot
ét
straks
Volvo
##pend
foreldrar
varla
##førelse
lide
##jóður
##gent
##otos
Gem
##SF
endilega
ført
Cle
mera
Copenhagen
##king
Forslag
høje
##KKE
tilraun
##beskrivning
koncept
##ætur
##delar
ih
109
mjuk
box
Saf
##veig
samgöng
##ality
vurderinger
##stöd
##umer
##haldi
Ásgeir
verðum
rosalega
sykkel
##älp
Middel
Bær
##göngu
##spira
##nets
Bjer
anderledes
kvinde
##ommend
##okken
Høyre
Landsbank
banker
dekk
bolt
fréttir
mur
##zt
oppford
##ømmer
gården
##ania
##kjøp
1989
såkald
##ylling
##ologiska
##edi
##annet
##umst
##rein
enga
Febru
uttrykk
omfattet
yrðu
Nes
minutters
fars
sterke
##kat
##spor
Kristín
emne
##sætte
rý
sekund
historier
rug
Strøm
##orts
##ventyr
Last
gläd
##oplysninger
Tex
oplev
lækker
mobile
Vestmanna
KF
hvoraf
kunderne
flytta
gluten
##espiller
stede
absolutt
avtalen
Rab
þétt
##rakter
miðvik
tryggt
lön
bilag
##emon
##skning
barnets
Noreg
tillögu
Central
streng
##klus
rekstur
ideer
##áttur
##86
beskæftig
paket
teck
##regist
##ata
afg
##fect
Tø
undersøgelse
Svan
rart
vilt
##bring
kunnat
##onsin
##äkerhet
bryll
heimilis
##eftirlit
vinnur
Autom
Fel
3000
føles
##öping
kandidat
berätta
##rt
nákvæmlega
populära
Lä
pleje
MB
##spa
##sögn
PM
ræð
vinstri
Frankrig
renn
##ilegar
göras
ytt
##39
Sý
##bolta
##ilegum
komfortab
Las
##isar
##vede
##iget
##bilder
##VS
respons
tol
##ianter
Lyd
##rent
tilrettel
nark
Trafik
Len
##Gratis
##änner
þætti
melding
Kraft
kvelden
##ykter
opford
Elektron
käll
glæder
Nordland
Statist
tingene
Gö
sands
Rannsók
vild
reyk
term
Dram
teik
ISB
pårørende
ond
##55
selger
barnehage
Norden
##spiller
kross
##cell
Hors
övrigt
medvet
helgi
tankar
##ession
hil
einf
##Grid
smerte
garð
##halds
##burði
nordmenn
##ush
pågår
Neder
##áh
##Info
Claus
750
##smedel
Møller
##ument
##ddi
Cru
ál
miljøet
Lägg
vigtigste
##elling
kvalif
Sammenlign
bildene
bete
##verkt
einhverja
anm
tilstand
eleverne
Plat
konstant
Avis
##alist
åpnet
Hoppas
##jem
hyp
365
framtida
museum
Stig
##greind
Frakk
fjarlæg
apo
köpte
##vidst
##iddi
Bedst
##fundi
##baser
fleira
fortsætter
##vejledning
líður
forster
søvn
sjálfum
krea
##song
historiske
Morgunblað
stærk
##tim
syge
human
Android
tyng
opdag
gäst
##stoffer
Vestmannaey
Ør
álag
stjórnmál
vinst
utvecklingen
##jänsten
kryss
##RUP
leikskóla
##forman
##brag
Bilag
varumär
félaginu
bogen
påverka
kendte
##judag
Elisabeth
stemning
millj
Teater
las
##sområde
##Widget
DE
##pton
overblik
##adeild
Heil
klær
##åra
Servic
##lir
gjer
cl
240
højde
kilde
leikjum
cit
senior
Åter
Ytter
Profession
##isker
bodde
Foss
stjórnmála
dagana
foreslår
Axel
GL
eventyr
##PA
ód
lønns
tillämp
##nitt
##ARE
heils
hjertet
##húsi
mínútu
ranns
##oser
utfordring
gard
EMAIL
Finnmark
stóra
vars
about
Hitta
förmåga
Airport
kjører
Rem
##spec
Larsson
ISBN
aðgerðir
Lena
##ÆR
##tun
löngu
##stoff
##ötes
vinteren
høye
##udstyr
Stol
##lades
sjæld
tókst
réttar
orðum
HT
kostnads
nat
##kass
stærri
Send
##behag
##nare
##bin
Mak
drygt
internationella
##vejs
hundre
##laði
Seðlabank
Delt
Comments
Kommunen
náms
situationen
##kommande
arbeidsplass
hættu
upplýsing
Pers
forskjell
lösningar
##hliða
Cec
Distri
effekten
Indlæg
Americ
##spolitik
Meg
hefðbund
kafla
läser
##lägget
##prisen
mini
syfte
##sider
mannesk
##yslu
##stilbud
myndu
Bent
##lä
Umeå
##rarna
förstås
##hygg
tillräckligt
kíló
##kommun
PRICE
Scanpix
##deildar
strid
logo
##vetenskap
##leng
##manni
##aminer
##onger
innovation
kvalitets
##ðarinnar
engag
svolítið
power
##ikop
þingmaður
frivillig
Ingi
beskrivelse
##NU
nyeste
tenkt
##ydende
##ssystemet
##verksamhet
Kjøp
säsong
þingmenn
##olution
Arch
samtale
kände
äter
könnun
##jenne
butiker
uppgift
Spes
Washington
ákærða
##forsikring
relationer
##ædvan
rommet
síns
Water
transporter
fjölbreytt
kjære
udviklet
##yller
genop
efterhånden
##seti
##entar
AG
ordentligt
ulov
aðall
##ading
##act
bestemte
Kas
vurderes
##Tilbud
##yning
handla
Fax
kompetencer
närmare
avgjør
stefndi
##verden
##retter
##vårds
hlýtur
arter
Grunn
landslag
stoppe
måder
skel
Gret
##skilt
Lär
Måske
opprett
mottag
deltak
##ftar
hafið
Bandaríkjanna
ursprung
risikoen
Tänk
atvik
Review
Esbjerg
##gel
Osc
##bryt
##pos
Sundhed
##yster
gengæld
##óra
marknad
mega
Management
##spriser
##igheden
XX
Landspítal
humor
Est
lämnar
##sproblem
Spel
reda
##gað
##asti
teksten
specif
baki
##mering
saknar
##ækt
borta
hovedsak
Legetøj
##brand
Aktu
regulering
opprinn
lavt
dominer
ykkar
Galaxy
úrvals
Mess
snakket
##gif
Teg
##76
##isson
##keppni
sjónarmið
brjóst
vere
samtals
ladd
Mang
FM
Yfir
oppfølg
forskere
##æiske
hardt
Rune
Høg
milljónum
##jólf
##orator
##ská
##rand
ágæt
##made
rekrutt
##göt
Kari
##skiftet
##DA
##arbetet
SHOW
gyld
sind
samarbejd
kursus
Kö
fylla
##øjet
kategori
stram
rollen
fólkið
##bytte
##BE
hyr
nest
Vejle
##idenskab
Vilka
áram
ler
nyttig
ökat
köper
knattspyrnu
Jämför
optimal
##eten
Maður
rättigheter
rester
sein
æv
##direktør
samvinnu
heimsókn
##sens
klarte
##gene
starkt
unikt
##öðum
pist
fantastiskt
ennå
Gode
rens
##ceret
vöru
Djur
Hov
läst
##sbel
stift
hækka
tempo
Frederiks
##spunkter
bio
kú
læge
Læ
Ólafsson
tilboð
##gas
##hallen
##Levering
##LING
stek
Karen
##reme
##asitet
købt
##emer
##iteen
Donald
enkla
styrker
Wood
enklere
##nesi
vitað
BMW
OF
##líf
veginn
##yke
massor
##perioden
sad
Canada
farin
station
##Top
##arbeider
kiggede
##önnunar
##ardo
##PI
##skifte
##styrelsens
kaffi
Oli
view
##slin
einni
gass
choklad
##abr
##sked
haldinn
øjebli
##laup
##hh
lífeyriss
allavega
Lib
forsker
haldin
anmeldelserVis
grunden
väder
Meðal
bæredygt
rí
##samma
##brögð
Bry
sug
arv
sikret
falder
Galler
tving
samein
orðinn
##rafikken
upplev
hvornår
náttúr
overgang
##emaskine
##kamp
Budget
banken
##lykt
borið
mátt
franske
##teck
Enkel
dejlig
utlandet
##arch
Disk
GRID
##versikt
hantera
kunskaper
holdes
spj
Videre
trygt
Þrátt
registrert
##isp
##ommene
vandet
Varenummer
zoom
##bir
hjarta
innvand
fylkes
##klub
##ople
##festa
##fru
eleven
påverk
##arsam
##arden
##ilton
vokser
##utstyr
teoret
aktuelt
kategorier
behandles
Russland
##cal
##givere
Vilken
kirken
Silke
läkare
tværs
##amið
åpner
##ision
rejser
Alm
##nandi
hjálpa
därefter
Institut
løfte
fremdeles
Blant
försäljning
Flug
udviklingen
Klima
oppgaver
Ti
##húsið
lyse
##eningar
##vården
Arbejd
##splats
##undervisning
coll
##iserede
kære
eksamen
##abo
hvern
Alls
##häl
bestående
Kvin
##VA
Harry
gjennomsnitt
##ONS
só
bøker
##ocity
bass
kvart
forslaget
umferðar
elevene
billigere
Selfoss
säsongen
eigu
##valtnings
sagðist
ít
##bí
Premi
finger
inner
##pat
##auf
##ladd
bjó
avancer
workshop
dren
sidde
Marianne
##stæðan
dårlige
berör
foss
vo
breytingu
##ökt
lifa
erindi
högst
##amann
måltid
LE
säm
tål
spurt
##status
##pul
##loven
Magnússon
##istent
Kolding
mängd
imponerende
Ep
ovenfor
Stø
fortr
##gått
Parkering
betydligt
Jóns
LES
efla
##saker
málefni
neyt
stjórnvalda
Camilla
hinu
##letter
Lid
##tivis
##Ak
##oble
##slig
Video
##usion
rið
nýjan
Skar
Viborg
##amik
tæki
##Sel
Handels
melde
nemm
##On
##æma
Senaste
Troll
skaffe
##vogn
##ølge
fjárhag
indgår
níu
lufthavn
syss
klasser
farþ
slapp
beliggende
ständ
stimul
##ögunum
##flytt
utbud
Sub
##frist
húsnæði
##jónar
tänk
egnet
ambass
pågældende
reservation
Þýskal
tomt
##abrik
##ÄN
statistik
áætlun
##Nej
##fot
##ells
læknis
##sætter
niðurstöður
Mall
Neste
faktum
Mina
träna
Swed
demokrati
##Kon
däremot
halvt
Old
etablere
SMS
nasjonale
##gangur
##rejser
##sette
Akers
automati
fedt
##leit
##lister
mánaðar
##färd
kenna
##stedt
cre
Ferie
medfører
Perfekt
terrasse
##herbergi
Lej
##lason
##forbundet
Toy
hjemmel
dauð
Good
Herr
##ættir
##versl
pott
Kart
udelu
nyhed
lowest
personligt
Jose
brist
Ken
hry
##äcka
##sky
Pala
markant
##þró
##skonar
Italia
almindelig
##burðar
karriere
serier
gøy
terra
##ekont
##bul
kalender
greitt
atvinnulíf
##ippet
forretning
##navn
slippe
##legge
##uneyt
Charlotte
Lake
##issionen
Vers
##iets
mørke
mótmæl
förlor
Typ
tilstede
Eig
Herning
210
##ilegur
insatser
##emann
##unga
##skat
Auto
##stakt
skrifar
Portug
flestum
1987
þessarar
vandt
George
kurset
##listar
ppr
farlig
##skär
##öngum
kæranda
##etooth
greinilega
##lay
munn
forholdet
ov
Seb
##inton
bærek
##sjælland
1960
SVT
Ui
sumir
Aktiviteter
##øpig
Mikil
##go
Salt
samtlige
värder
##ily
læser
einh
Dar
##forstå
HM
##unds
Bou
##programmet
##leikar
mäng
rekry
gjennomføre
##LIG
Louise
hærri
kigge
stoffer
självklart
perfekta
formen
##vol
##vei
Gir
##ovisning
##bunden
þjóðfélag
afstand
stórt
##ddu
##emø
højre
stiger
forventninger
måneden
opfatt
festival
løsningen
Brø
png
tæplega
glug
skáld
redd
öryggi
##blom
Bø
Hau
##när
obligator
##roende
styðja
bestemmelser
##ello
##elm
pod
reglum
Grav
1988
bærekraft
skjedd
Fritid
sager
maksim
promenad
##tingu
Lagt
Fantastisk
comp
Multi
feltet
vakre
##llinn
dómi
Norð
afsnit
húsnæðis
sjå
##ommy
godkjent
even
She
tilt
svær
##ulation
måler
##industrien
påsk
høg
hittade
NB
##iw
jó
negative
Let
##søk
Cecil
inled
135
##frågan
tvang
følelse
modul
##haver
Garden
Graf
##OCK
ætlaði
Går
ákvarð
Rut
tillögur
##ikre
function
##felt
##bré
disc
vinduer
Aqu
##49
##itation
utredning
horn
##avisen
##etting
##hard
xxx
aldur
Western
BY
forbundet
##ná
##mæti
bráð
hårdt
klage
##ups
##onder
kvadratmeter
##ords
##tima
væntanlega
fans
dommer
##skvöld
dæk
##önnu
##arater
polisen
oro
kjó
ång
knappen
##vitað
##ctor
Sak
hækkun
Samman
kosning
MER
##veið
##lögum
udgave
##work
bedømte
Noregi
national
þótti
Santa
vedtak
trädgård
skäl
væsent
##ERG
##projekt
##ænk
##produktion
Sant
drog
Några
anmel
##sbes
BT
UR
##ðst
studi
skit
kram
spennandi
##ommelse
kursen
øyebli
##ørene
##vari
dusch
##71
skov
Vestf
##endoms
Norway
##81
utvärder
##runar
Már
free
veiled
måle
##hildur
spørsmålet
##MetaPrice
JaNej
##alið
##36
Band
behöv
Cat
Snar
Pension
Australien
möguleik
Thailand
ull
Konfer
speg
##cas
belysning
GPS
lengri
##geren
##usi
##sset
##kod
konsert
##kking
##steins
leitt
affald
auki
##reglu
gran
ekspert
##ilj
smule
ägg
húsið
svag
##obe
dóttur
##ndal
skabt
center
pasient
ordningen
årlig
pakken
läkemedel
Margrét
SAS
CL
valda
Pas
medie
##slunnar
##emmes
##andinn
nafni
vegne
Verdens
Prisen
##ræft
oprind
##ögg
5000
avgjørende
stunda
bygges
##vad
Hægt
taldi
vitenskap
##aper
##tred
##resor
stigende
tungt
##skir
##forslag
hør
Mads
þátttak
finalen
begynne
other
innom
Day
basis
metra
Silver
##xor
krigen
kanna
##IP
Østfold
##kro
brænd
lést
##områden
Hr
##vísi
leser
##öjda
##Con
##rank
härlig
Sidst
angrep
kosningar
tilkynnt
##aki
Frp
##ografer
forvente
boligen
engar
sambær
##INN
##egian
Horsens
introdu
stöðum
Jean
hyl
##lagen
Belg
vattnet
UK
vägg
##ultater
skid
Hæstarétt
studiet
fullu
vardags
valuta
##IB
##ANG
##rater
PERFOR
fm
klager
ever
falt
coach
Station
klára
faktor
svarade
separat
Holiday
steget
generelle
##nie
löndum
metall
Uts
##onden
EES
##akon
##borð
Hyd
Utan
sést
alvorlige
##smann
styring
Trots
ersättning
##gick
Casino
##steg
fyldt
##log
sanna
Socialdemokra
vissi
avdeling
immun
##sprojekt
##istik
Ums
##armer
##ego
toalett
NOR
##pot
friske
refs
Arbeider
beitt
ambi
##enskom
Global
snúa
vissulega
vinnust
Huset
taket
##handahåll
regne
##orlunda
##room
ótrúlega
kalk
Ágúst
mister
##tselig
nån
Cour
##læti
##renn
##MANCE
Helsingborg
förändring
##dels
grundvallar
visu
foryst
ringer
Tran
##ioter
Reykjanes
PERFORMANCE
##achelor
##byder
hundar
overskud
upplýsinga
##gårds
appen
vs
objek
mul
emner
årlige
Mü
firmaer
dessverre
##illi
førte
metal
fjölmiðla
Steing
##owe
töf
aktie
kvinna
milljón
tóm
resurser
##ættelse
sket
hunde
iPad
fås
forsøk
almennings
Först
Hi
óskað
begyndte
##kna
ämnen
##tidens
forlæng
##dist
##arbeidere
leveret
fulln
bevisst
ansatt
##æðisins
Maskin
sitte
Sjælland
##gjum
Wal
endurný
##ovn
Sym
styrelsen
behå
Kann
lækre
Ster
##ædning
ástæðu
Stora
##væk
dækker
##staðan
##helg
flutti
Vem
##Or
leyfa
179
vetenskap
anlägg
känsl
mobiltelefon
its
trak
björ
Belig
brag
vinkon
##tiskt
##aton
Ansvar
växt
sentrale
Mur
Vilhjál
##cha
path
diabetes
Gäv
##íkur
glæs
Sé
##rás
Blan
##ends
lú
Änd
##viss
þyng
##visningen
kommunene
heyrt
##forni
forventet
Kul
Konst
Davidsen
nálgast
Gold
tendens
##ØS
##ugur
gjeng
olíu
##iseringen
##ssv
sälja
døgn
bolaget
Innan
##bordet
hjemmesiden
Økonomi
##miljø
viðbótar
KOMMUN
øget
Arena
sånt
skilt
innsats
André
##íg
Solberg
##ydning
gol
öl
munum
Flest
pluds
svømme
sovrum
##RICS
angående
Fokus
tilfæld
##RUPTER
INTERRUPTER
##jener
aðgerð
lämp
Öll
Klasse
skrifaði
MT
tester
##ATT
stolte
##nsaker
Låt
##kri
underlag
##takta
gögnum
udvid
Intro
##inguna
##slån
utgjør
##byggere
##have
verka
Ask
svarte
##ráðs
Göteborgs
tillväxt
Hy
##melser
erbjudande
##izz
##Hz
##enz
namnet
verdt
##aflokk
Ama
##skóli
neg
Tilbage
##øje
eksklus
luksus
Nyhet
##degis
eð
kostnaðar
ins
poj
##skólann
upprätt
ændring
keypti
dagsins
##ocket
##skader
GT
##icka
Bengt
kamer
##KS
lægge
karakt
Amerik
William
rub
grön
##idrager
##alp
opphold
fulgt
organisationen
virus
centrala
fynd
##vner
##resa
fantastiska
avis
##hverfis
##AA
Hin
##natur
##ding
##örj
##how
Plats
Polen
Long
miljarder
cup
stiga
differ
Que
Rogaland
befolkning
möjligheten
STOR
##ants
dokumentation
umfjöllun
Forskning
djup
shop
motsvarande
Pia
Tón
lóð
komplett
storm
##light
mix
optim
barnd
##iserade
Grill
ákærði
tilbyde
hvide
Lö
efnum
líkur
umhverfi
##släpp
##atriði
íbúa
tölvup
##QU
klim
##yske
varianter
Ingib
##78
METRICS
redusert
utslipp
##igar
interview
##ätter
sammenlignet
omkostninger
##ged
løbe
ráðher
##cess
ofbeldi
102
maskinöversättningarJa
Spis
Dyr
spilt
flokki
ændret
Sko
fack
væs
Slag
##boks
Personlig
parad
NAV
umfram
##gá
ólög
avseende
timers
##jarnar
Jur
skum
##ero
##eling
bussen
Steingrí
aðallega
krise
fasc
FF
hjälpsamhets
objekt
neik
imorgon
sif
akk
##jut
##bjudande
trenings
politiska
sver
Telemark
##eloven
##kok
##blog
Gang
fungera
##por
banna
kærlighed
##ür
samla
verksamheter
tilbag
suksess
##heyr
stock
statsb
##mörku
##isser
##yris
besøge
Markmið
lagerLevering
##pany
fællesskab
##stern
hlaut
##famil
Klar
någonsin
len
träffa
værk
gerðist
famili
##arkost
ljósmynd
##läng
il
Mog
minut
Eriksson
##aming
vinder
##ställningen
lader
##bå
##iplom
Tore
kraftigt
skynd
Zoom
fylgi
grønt
##omi
##wire
proces
##velop
Syg
kärlek
fíkni
sant
Lodge
milljörðum
ligga
akut
106
dessuten
Atlan
fjallar
##kategor
þrjár
växer
##djur
tilfell
##inet
etablert
##brudd
modtage
útgáfu
nerv
navig
Nasjon
Adam
café
pum
Adress
anner
kjøret
DC
Live
##enham
kjölfarið
##ye
flokksins
Mån
##estilling
Akran
hópi
træk
ledning
svefn
##arker
kjarasam
Dock
##icia
##udi
almanna
Selvom
förv
forbrug
heimi
overnatt
##varo
mild
Teknik
mår
Kristiansand
Linn
##tier
verkum
adressen
ledig
##ðinni
byggir
udn
##hengi
Reyn
Väx
index
avslut
regi
EB
tilp
line
hundra
dress
IND
uppmärksam
muskler
frihet
hina
Riks
Erfar
félaga
afgreiðslu
##user
##ækni
##ipper
##ðust
personliga
fordele
aktuella
##mæt
##aktionen
muligheden
December
margin
koordin
##mäss
2021
Rett
evaluering
##skjer
regner
##staðar
spilte
kontoret
launa
valde
##lust
##FC
##ible
brett
beskytte
lic
Ibland
##frý
plante
##Bill
SY
Pil
##kal
musikal
##bætur
Sigríður
utgangspunktet
túl
108
gerst
##leyfi
##Key
##flokksins
lede
centralt
Dim
Græ
stillinger
##läggande
leie
##óða
Hvert
auðvelt
##anlegt
rute
undersök
slíkum
Obama
utomhus
##fólk
Hitt
friluft
##tekter
omtaler
smør
##listen
##nette
Västra
Cook
##änkt
nytte
##gången
nokkurn
harmon
sannarlega
tekju
verslun
##ular
Silkeborg
##stek
uppdateras
webbplats
skilið
Gävle
##ærke
lent
áramót
pig
framh
systematisk
algjörlega
symptomer
pip
blomm
##stäm
héld
overvej
##ndum
Kam
vinnumark
Danmörku
stående
frit
single
startede
##sklass
Persson
digitalt
arbejdsp
##pleje
##IE
besluttet
þátttöku
fordon
høyde
##fessor
gitar
##mäktige
Soft
##nek
parall
RÚ
jenter
##ebra
Igår
áfang
brenn
##leiðslu
##ålen
nefndarinnar
##him
kynferðis
##sinn
Bæjar
Lise
Disney
posisjon
Frederiksberg
einstaklingar
RC
##ský
døren
##orienter
print
sendte
Søg
synlig
beita
Kvar
KA
dagarna
bréfi
##OV
riks
##ppel
argumenter
fræðslu
overraskende
Lud
##istari
vanda
##YR
##HD
digitala
##íkja
##vatn
kniv
Referat
negativ
Ósk
behandler
##brød
Norwegian
Pati
Albert
erstatning
Mr
köpt
##lame
lot
##økte
Teknisk
sjald
##läm
##uri
virðast
Sjálfstæðisflokksins
##vax
bisk
1200
indkvar
katastro
britiske
Ske
public
Doc
haming
handa
FVOF
staða
Första
Besk
Tags
framkvæm
Hør
hul
andelen
##stolen
þre
##regn
Spørgsmål
Gylf
Nærm
Hæ
##veld
demonstr
Haha
##hó
##areal
vacker
DEN
##ries
seint
hållbar
had
förbered
virkilega
##asafn
##ofnun
húð
##ulegum
##ofte
##egang
Rod
skamm
drept
indsam
miste
##kläder
prova
##ario
##bag
tjä
##junar
Cro
##ælt
##smæssige
Hald
##fre
##kasse
budsjett
bankans
försvar
såklart
skulder
uppbyggingu
spen
##dy
##ilinn
##tiken
kyl
TILL
Familie
bull
##illkor
##pakke
##onsult
##juna
kravet
ingredienser
herefter
bestiller
Sat
##vilkår
hvite
rac
risken
##eigandi
klarar
skólans
##icap
femte
Tommy
vinne
vänta
dir
149
þaðan
Egen
háskóla
fullyr
fjöldi
sýningar
Beslut
##melige
Ön
lösa
öm
hemmelig
##raðsdó
samkeppnis
##formance
kollektiv
snemma
húsinu
Rúnar
Oscar
1986
tilstræ
##kultur
grá
##tikken
Svíþjóð
##tom
betong
lösning
væsentlig
Helle
annerledes
föreningen
##dato
forklare
pc
##esund
kong
Dagen
Erhvervs
##sr
##tagen
##leva
billiga
rådgiver
##svær
Indhold
äntligen
beregnet
underst
##ulat
Romsdal
Opdaterer
##delses
meið
rän
Drift
##prom
avh
leiðinni
##sbyr
111
##horn
nefnilega
Nánar
tekist
##ensstemmelse
Gard
startar
##organisation
Dei
##loud
nevnt
slo
ISO
samsvar
past
##hotel
representanter
anna
soldater
prøvet
kristne
OBS
KB
Ide
mannrétt
Postat
##leis
##forløb
kru
Kalmar
setur
##strå
##ifikationer
Fys
mønster
fur
##kum
gist
legiti
nettverk
##terte
størst
bestemmer
bostäder
mætt
ons
##foto
litlu
gevin
ordren
Lill
exakt
##lid
##datter
lopp
guid
räcker
WINS
järn
valet
RÚV
##vares
Møre
sms
##vinnslu
##rikes
beina
##asson
stykker
ökade
tide
trevligt
Arm
Rac
##untain
##flydelse
bånd
saga
##vätt
rabat
##onsul
fullorð
ressurser
Ox
Inger
##fta
samtaler
##høy
kamper
materialet
overnatning
##resten
kjempe
lyset
1950
enklare
gengi
ør
beliggenhet
##sluna
##læggende
##ERS
##leggende
stopper
##utr
##esa
selskaber
##iment
Premier
deltagere
arbejdsmark
well
upptäck
selskaper
Victoria
oppnå
Jónsdóttir
META
höjd
##cean
psykiatri
Sett
elegant
##fit
Värm
Got
mess
nemenda
overvå
kæmi
##vatten
verðból
forpligt
controls
golv
utdan
Kram
göt
##møde
sova
##egra
129
nätverk
##antering
##slapp
##viken
128
presset
åtta
spurði
business
##nsins
##ári
##ebet
kreative
usikker
begrav
##lader
luk
upphæð
##verdi
##fisins
hefja
hittat
vannet
##ålet
pratar
einhvers
réttindi
spelet
gøres
foreligger
þinn
placeret
virksomhedens
register
tenkte
Vall
gríðarlega
mennta
##cera
Word
Ró
definitivt
leverandører
Ingrid
##historie
Smith
##certif
beskjed
marka
##pasning
##lagd
##arbeide
##unefnd
athugasemdir
Holland
##speg
##jøen
##merk
þekkingu
Rätt
skrifað
förutom
endvidere
Cit
knap
##tionerna
Bab
skipa
besökare
förh
##nämnden
Birk
permanent
SR
möjliga
enorm
##ives
Hö
tilstre
Elev
leitað
kostur
Hill
njuta
down
##68
opplevelse
Noe
framhalds
Tott
allmänna
minnst
sammenlign
##hovedet
parlam
Vinst
##legir
Bio
investeringer
Jun
##bakken
##informasjon
##ønne
heimasíðu
fylkeskommun
nýjar
##júp
trúar
Hanne
Fælles
blød
Nokk
Copyright
EUR
Rub
Batter
##fallet
Produkter
##ters
Times
rettigheter
milljarðar
1985
behandle
##hamn
Skú
##gelse
uaf
bære
föður
##cht
kortere
##lejning
Classic
spelade
Skatte
Cam
Rose
ledare
##aktor
##varm
##kraf
lækka
frið
Great
Udvikling
Richard
snakk
##elever
væn
##istara
Hefur
administrer
##profil
##ffen
Sigmund
##boken
rene
hljómsveit
kapitel
##yth
atvinnule
##ingunni
##olja
visas
repræsen
##asing
Klin
##iskip
kendskab
##itan
##37
bedt
Roll
levert
effektive
##usk
Sí
træner
stik
stel
Fair
##kör
##marna
##þingi
trapp
Mis
##kjör
annonser
mínút
##opgaver
fork
banan
Ib
black
##61
##järn
Life
##31
valdið
antingen
leigu
århund
redde
Akershus
bestemme
kjøtt
betingelser
samler
overgre
NATO
prosessen
##betingelser
BBC
Camping
##ERING
båten
##asp
sýn
hyg
långsikt
Bostad
meistar
følte
Music
trekke
svokalla
förändringar
##arbejder
brem
##dera
hull
distrikt
keppni
eventuell
Afg
gilda
María
brugte
##luta
foretaget
Stil
utført
lei
##onto
Advokat
Skil
##turer
any
nemmere
##mænd
##MI
Snor
Stru
LA
fen
dregið
##vekst
Centre
Server
KN
##itum
##prøve
Next
befint
greidd
Lång
ugen
FE
##ML
##ssa
Jobb
begrenset
##setter
Brønd
##stab
ansiktet
skarp
gamall
##orea
kolleger
rot
syr
barátt
CAR
##ifikke
cd
bænum
119
Jet
##eldigvis
PH
etablering
util
fisker
##helm
Rim
Priceline
CVR
dålig
hænder
Skribent
árunum
##fulla
Iceland
##butik
##skede
innflyt
stay
diskussion
dotter
åring
tydeligt
jafnt
Anonym
Olof
gemensamma
##hátíð
øverste
tolv
Inden
blind
säljer
Café
upph
##rekk
##penge
Nike
arti
eftermiddag
báðum
##skær
##ssenter
PA
##róp
iværks
epis
reglulega
##ofa
lurer
src
likt
Lit
diesel
lyx
betalar
priv
bespar
##ansvarlig
rekommenderar
Nap
Rus
grundig
slott
notuð
dame
##HL
##smøte
Louis
frykt
##ipro
Palm
sjukhus
Ól
gjarn
móts
##yo
fjör
dá
Petersen
settes
distribu
##ORG
anvender
Vissa
##oxid
mänsk
##ilm
städ
støv
gleym
flick
amen
ungling
chans
omdömenVisa
Mør
##rast
nyere
snö
oppfølging
kommersi
erfarenheter
dejligt
brukere
##elskap
##svæði
Vatten
hypp
atkvæði
sevärdheter
Steen
##gengi
fortalt
flytter
afd
nokkru
Friðrik
vonandi
##rétti
Hit
cancer
##jor
möte
##ios
##erto
##åsen
##bruket
koste
Lige
gjester
##arskap
vinnslu
kilder
Spania
stått
slökk
##essige
##glas
þriðjudag
##och
Rétt
##ðra
##skåp
Regjeringen
Lisa
ihåg
fremtidige
seld
##BC
deildarinnar
##gjennom
##aps
##ommet
priserna
bane
##bri
föstudag
støtt
stétt
##32
Holly
Akureyrar
SN
samskipti
variant
tilknytning
fengsel
##janda
hjärt
økologisk
View
talt
nýrri
##oken
kosta
Inc
##ty
##ötsligt
fjórða
##imer
##vagn
høring
##leiki
kallade
regnet
Tema
Viking
tillæg
heyr
##äckning
##scription
undanförnum
Von
vision
Levering
Lux
Bygma
sjø
gjarnan
Stur
##olo
lugn
formi
interessert
inkomst
ákveðin
talin
negativt
Patri
kni
##aritet
114
##æðagreið
landbúnaðar
stam
hinsvegar
##stofa
sjúkdóm
##usten
era
##skrivning
BEST
galler
møbler
##lana
simpelthen
##brev
##apen
kompens
reglerne
Arc
olie
ønskede
##ráði
vop
##ULT
##yc
##ways
býður
##GA
kandidater
Problemet
Sæt
##øbet
##idi
##skillige
veier
Hrafn
OR
influ
##skeri
Katr
forur
070
##nak
vefs
eleverna
Græn
arbetsmark
óbreytt
Illust
hlutaf
utföra
ansat
##kkel
myndum
omfattande
Kanada
##ämt
Grindavík
Tråd
laveste
Ulf
##sekretær
Nick
##grím
##Com
lagring
Alp
hånden
prem
165
##gert
leysa
längs
bror
eignast
News
selge
##rol
billetter
behagelig
##pressen
overensstemmelse
Deres
inviterer
##komma
Travelocity
KV
flertal
kerfi
##legast
Försäkring
##öldu
felst
Enk
Gunnlaug
##akers
bringe
sliter
upplevelse
tímar
Parad
tittade
##Ex
trist
##sprogrammet
##ANS
viðtal
laugardaginn
Ah
efnahags
fulltrúa
Olsson
Him
Fragtfrit
Konkur
overf
kända
Run
instruk
##ultet
kritiser
Keflavík
timme
sports
Väg
sjekke
Vestfold
hægri
Euro
fangelsi
reception
Hl
papper
##ernes
kmHoteller
magt
åld
##file
Anbef
flótt
lífs
underl
sparer
begynn
nút
aksep
##varende
rétta
austur
tekniska
kode
Umhverfis
##tökum
##heimild
sveitarfélög
himla
MAT
##röster
BA
lyssna
noko
fundið
Johnson
kors
order
bestyrelses
127
Supp
betales
##undersøg
merket
##lægning
lengra
nuvarande
trinn
##hluti
konver
display
maskinen
##cyk
treyst
##give
linjer
scanpix
Get
##olie
##inationer
Office
Fu
dømt
Horn
Vent
slutter
Tall
råder
Vor
datt
##bitz
musikken
hrun
lengst
##kjent
søknad
psykiske
##mærk
umsókn
hänsyn
Endelig
åbner
henblik
Kontakta
Fråga
##skot
##date
afgifter
##botten
Formålet
##kvar
##rinum
Gennemse
##jið
Bí
Bók
LC
dét
stórum
fuldt
##aria
sunnudag
processer
kold
kvalific
vigtige
tydlig
komnir
levet
##arium
Cel
##byggnad
##berts
##endingu
bevæ
##uneytinu
Likevel
faktur
##färg
##spillet
Svara
##örfum
##ebolag
##bran
Kast
föreläs
##ested
Mö
stöðug
Telen
trivsel
liðin
##ekon
Slut
##teknik
bjuder
ET
##CO
see
mørk
hratt
nýlega
stilles
Bemærk
brygg
Arrang
vilje
mic
##teckning
yoga
skref
marki
einkenn
fyrirhug
gulvet
add
##indra
##ineret
##endi
instrument
##ource
elektrisk
deltog
pir
afl
##SD
##dele
Action
knappt
opptil
##værelser
vende
##kald
kjøpte
##HET
IKKE
hlusta
ägare
virka
tjänsten
##holmen
miða
Auðvitað
institution
svarede
nordiske
ordentlig
veitir
våpen
áb
##krav
femin
kriterier
øvrig
uen
##iana
forhandlere
spred
sammanhang
##yggen
##kul
hafnar
fång
bakterier
opplyser
##inuðu
Prøv
Bedre
##áðu
##sprodukter
Tok
fersk
individuelle
ström
nåd
##ingast
tråk
##bilar
##ägenhet
Steph
##tern
kravene
Irak
Ky
bron
feed
danskere
tug
Fylkes
##linum
##ölv
graviditet
gærkvöldi
##stopp
Miss
vd
##ssitu
##END
##ræts
##klæring
asp
naturligtvis
##kos
forber
Jónas
udarbejdet
pend
Herra
CE
lurt
Ítal
undrar
sinnar
námi
##aldo
mats
globale
ræðu
##jande
##jak
##bana
Tóm
East
Års
##erare
##present
##spurn
stytt
##pension
##maskiner
##spunktet
alvöru
öflug
vacc
skýrt
vejr
##rätten
Nina
utdann
Þarna
sus
tengjast
dræ
Rid
hemm
Östers
grunnskóla
##YP
revisor
nomin
Iran
minskar
intresserad
head
boendet
##pad
##ardi
##ðuleg
##materiale
Madsen
##asv
montering
##eplejer
##gås
haldi
##estin
yog
Rosa
Godk
Sjekk
Jóhannes
samhengi
ansigt
##gifterna
Os
##agraf
underholdning
gett
##okolade
Förutom
##ovic
##ITE
þitt
sec
kändes
Elin
Indien
skipul
##sbruk
##LC
##ppy
##emus
skala
##Dis
husk
##ility
Mamma
Læk
Regeringen
fjármag
hyra
administration
##etti
smör
gled
##onting
##attet
##ögon
forgang
##arth
stikk
Margir
##ensor
Fund
##smessig
myndinni
mangfold
##Bidrager
##OLL
##skl
which
ítrek
##top
amenities
Type
þrír
##avir
muskel
lýsa
enskilda
##assa
póst
útlend
margra
geograf
användare
##heimil
##efri
Dags
iðnaðar
framboð
velta
progn
UV
aðildar
gn
balans
kjenn
lyft
lam
dal
lyn
värd
bakken
##deler
nærri
AU
Model
##82
145
1984
hyggelige
##ebr
tiltag
hæng
##æf
annarri
moderna
gjalde
skep
studien
fórum
Kommunal
muslim
Næste
##hof
1940
##riktning
foreldrene
spørge
ställe
vörur
vott
Óskar
dju
seminar
lovgivning
Henning
##alog
##slå
ligg
stigum
tjener
##efnið
Hof
odd
kry
tilfred
inngang
##teknikk
ÅR
Bjarnason
##garanti
Linköping
non
augum
##lets
undvika
forklaring
heng
Kína
Add
subscription
brota
Europas
sigt
mikilli
Bull
##igheds
##sned
##givningen
forstjóri
moral
påstå
##tiviteten
##leken
Exc
trekker
arbeidsgiver
Fug
samhälle
##ræna
samtök
udført
gives
SW
snabba
lägenheter
##fulde
##ERN
ulykk
##terede
anbefalinger
roller
institutioner
aðferð
posten
Gustaf
##öjligheter
##fære
besöka
##ninguna
höj
møtte
admin
##aciliteter
indflydelse
utg
æg
webshops
jazz
Festival
date
##dagar
Techn
unntak
##félagið
Lesa
Sports
Stift
leilighet
##agere
Oct
##hammer
eksperter
Vård
landa
angst
##vall
stæ
grunnleggende
##steinsson
nationella
hjälpsamhetsröster
herr
úrvalsdeild
Ull
Jacobsen
##ute
##luð
##tron
gennemført
were
their
Ton
udenfor
annorlunda
##centrum
Certif
##job
pengarna
##karna
Félags
##eför
bomull
visat
##íði
##bjørn
##mord
##All
##frie
##konfer
stærsta
hushåll
Ålder
Food
mitten
American
sjovt
##turen
standi
##burð
gäng
bjud
spillerne
##räk
##ísku
lána
own
##ogne
framlag
VAR
mät
Datum
##lanna
netinu
Rig
ansi
varav
##rita
Rh
Marit
piger
##skyldu
Terje
vikum
Pak
biblioteket
BI
leverans
bistand
##neig
##aksjon
fæddist
stefnum
Svensson
Mine
opinbera
bebygg
##svirk
Håll
##ungar
fulgte
##dets
minste
Göran
sun
turister
feir
##koma
##bod
fleire
xx
hek
hevder
smal
##Comp
bærer
fallet
##vekt
förhållande
ræk
finan
pizza
##värt
##ärta
Breakfast
##ough
ávallt
hrað
förstär
##sås
##ummi
fornuft
funkar
Inom
tilhørende
First
EØS
hjálpar
Jafnframt
##þro
förk
resor
Margar
løber
blá
unnt
sluta
Følg
økning
landene
##gjafar
deilig
Kit
kaller
##bjudanden
Head
##emaskin
viðhor
##tel
Ekkert
OP
##gångar
107
Have
observ
##yren
klog
##íður
##relater
Marcus
jafna
##spress
SEL
nálægt
##arens
##weet
styrket
##aðu
säg
kone
##ablet
sed
Pen
forholde
norðan
fjögurra
Audi
forskrift
Cross
hälso
##stande
##ticle
Katrín
plutselig
KrF
operation
redeg
year
##ilegu
indust
lætur
##ynn
klukkust
arbejdsmiljø
Bot
låna
Län
stefna
henter
##udvalg
##bestilling
##sha
minus
patienten
ligner
nytta
beslutninger
Rå
Nam
ráðstaf
borginni
fjármagn
appar
##oci
play
##Mere
tilknyttet
beðið
verja
##stjeneste
debat
uavhengig
Temp
motstånd
##aboð
##hverfi
flygt
arab
##gripande
kæ
##rogen
vestur
ýmsu
damer
blanding
samverkan
slått
Lev
undervisnings
versjon
Fod
##pakt
MC
skylt
valdi
present
derved
ótt
##sø
skoðanir
##butikker
Brann
kigger
Intel
VR
fellur
VA
##sjuk
uka
eyð
##illings
##stands
ökum
##EY
lögreglum
##abréf
virtu
vekja
produkten
takast
##svär
Il
VD
Rør
Viktor
##ubb
harð
ankomst
refor
##varor
##Wh
##rådgiver
ljúka
Wars
sentralt
Forsikring
brow
Arab
##væla
##mande
Kannski
þekkt
ákvarðanir
##svall
gel
##dæm
sällan
liber
fjernet
Malin
mærker
##book
smerter
##anefndar
åpent
håp
pludselig
116
Våre
spesielle
Host
Christina
Morgunblaðið
Suðurnes
förvär
verslunar
kundene
##utbild
nyte
##idence
salgs
##teknologi
wp
##skoðun
debut
hópur
sold
røyk
bryllup
Extra
öðruvísi
sjónvarps
foder
##lanir
leiðbein
økte
takket
##spartnere
framangre
Luk
there
##Ar
bekrä
niðurstaða
ferieboliger
foreningen
Has
##rænd
HF
huse
Egil
áhersla
##jörð
Nar
inlägget
bakter
shirt
ambul
Bert
##arfræð
aukist
##mers
trække
##Sp
billedet
tunge
äger
##klin
klokka
brý
Nort
installation
konf
##bry
stillet
konsulent
##undersøk
##öllop
uppdaterad
##aliteten
forretninger
forening
þæg
##förbundet
##ninge
##hól
magn
menntun
ox
##avef
BIL
fæðingar
numera
Projektet
Afton
kapp
Color
stjórnsýslu
DNA
##sevne
kennara
##ekk
silver
##auty
firmaet
##opplysninger
draum
##ðarson
Body
Fréttab
##komsten
bætir
búnir
##markedet
svind
Sea
skemmtilegt
##dahl
gæta
Livet
Yo
Skandinav
Billige
nogens
##vita
bandet
óska
datorn
socker
##utdanning
##ÅN
##produksjon
hi
framkvæmdir
Krav
organisasjoner
getið
##rollen
tränar
##yja
gildir
Tve
privata
tilladt
Jess
opfyl
lita
NTNU
viðtali
stóru
##uge
fljótt
##ellan
passende
##styrr
320
Sla
Comp
Gest
andres
stillingen
satser
##oman
hjón
symptom
##óðum
aflever
teste
batterier
sorte
##alegt
utrustning
vísa
##erande
förd
##holdsfort
skada
##björg
stoff
Beh
##38
krem
bön
förening
skoðunar
greinir
Häl
##rert
nøj
CR
##runa
spej
Moss
overhovedet
##billetter
tittar
muna
##dæmi
dets
erlendum
##veksling
Drammen
Kommentar
størrelser
síðu
filer
Tottenham
##æledyr
Västerås
svarta
ledende
sån
Angeles
jevn
##afólk
Kjartan
Fjell
trø
forår
##hai
tast
DF
informationer
skræ
Eiendom
sennilega
##bba
Följ
Salg
lagar
spilað
##obling
Sameinuðu
##jöldi
anvend
##avél
##skipulag
Vann
tjejer
någonting
must
publisert
elast
##værker
##ibar
##petanse
varsel
##prise
lykil
fyrirtækjum
Elever
##order
score
vender
##SV
bostadsrätt
þurr
##vænt
##nif
Sofie
##bled
##entlige
rä
##riminering
ansøgning
##TV
plassert
##erten
##olet
##taten
Forfatter
hänt
Bam
##sfélag
videnskab
Tand
fira
tilfelle
civil
##idas
Uden
gy
bröst
Nordisk
##rapporter
Dóm
Oktober
##aftale
Hafnarfirði
leikið
rehabilitering
Senter
##jä
##holti
139
vikunni
##kampen
jätte
viðhald
##áði
##imar
huvudsak
kallað
bab
skólanum
##kin
##chi
Dow
höfð
##apter
varða
ledet
Bodø
lider
fáum
##offe
EG
Æt
##kall
kalles
reka
##såg
virkning
##voll
militær
##rumvarp
Pors
cons
##mum
tapet
Time
veil
áhorf
hækkað
Tilf
##inho
##lon
Sin
menneskerett
##ANT
cur
Helena
brjó
##sprocessen
tjenest
bidrage
##kortet
##ardal
##styring
SJ
way
Mör
Senior
vekk
Ryd
webshop
##vísind
Ellen
email
##62
fjall
Oversigt
kreditt
virkar
landbrug
præc
internasjonalt
##ito
If
##terat
europeiske
##funn
påbör
Hilton
##sbil
##astian
Kamp
##blick
##meddel
kostnaður
Ting
Mind
##osh
##valla
tó
##tips
##limer
ansvarar
Vinstri
dop
##þings
rækt
töluvert
starka
##urch
minnk
dukker
härligt
Apply
##logg
gamm
doktor
##klara
beredskap
##ædagog
demonstra
action
##verði
konum
stycken
##lynd
##ókn
Comm
Student
ettersom
Hadde
Pic
Hamar
##Med
kalde
MD
AFP
##stens
##rankade
Div
gömlu
skjerm
Bluetooth
bevidst
einhverjar
politikerne
##følger
Sval
Nära
##arfulltrú
Undir
Care
Ball
##rera
##ized
##okka
medføre
metoden
rekja
return
tillgänglighet
sendir
komponenter
skatta
##72
##text
##real
utseende
##öfnun
opplevd
##været
pí
Pool
hospital
avisen
##sterdam
Fréttir
spre
hugsanlega
kaldt
opdateret
##amálum
Hela
##færslu
förbi
resan
Mindre
##tages
Costa
##ugan
Akadem
tjene
färdig
##vnes
##blogg
##värme
staðan
feri
##elsess
bygning
##verkets
##staf
##issen
blanda
jack
##butikken
scor
##Stock
gebyr
##driv
hotellets
##adóttir
tillige
aktuell
fyrsti
##metra
##condition
værktøj
hönnun
bregðast
##oget
##óti
kapasitet
Ten
uly
Susanne
verdier
Drott
eksterne
ertu
MM
badeværelse
Dessuten
Tyvärr
innheim
Ler
##spekt
nýj
kjósa
installer
intellig
hliðar
##splaner
##hjemme
##änderna
umulig
hust
Engelsk
##maðurinn
gróður
Övriga
##car
kasse
pin
##stefn
##äljare
1920
Topprankade
span
School
Lasse
konfir
stú
álykt
frugt
merki
Sav
##sty
verkefna
möten
holdning
mærket
tegne
Palace
##asjons
kalder
##jetter
Aur
artiklar
Afghan
##löndum
ímynd
##los
ákveða
reist
báðir
##antene
##rúm
Cur
deltagelse
turer
Loft
found
##bjóð
##ningstider
113
Mercedes
vörum
MIN
##amens
bokstav
udstyret
fremstår
bedömning
##sæ
brutt
sýnd
tyst
##dire
##takanna
språket
sumarið
River
##ilegri
##planer
benyttet
##jarna
Aftonbladet
foreløpig
Shopp
tob
##skel
förläng
Hong
eyða
kjærlighet
gif
klicka
Kjær
fremragende
magnet
Sofia
##GridWidget
døgnet
tilvikum
hreins
##sýn
Cali
þekkja
hämta
##holdsfortegnelse
ombord
Hord
ikon
##makt
##hört
##hm
##úmer
##ahús
##esign
drevet
they
155
##problemer
##esenter
amerikanska
nogensinde
personuppgifter
location
Pern
##Svar
Levert
Flera
##ødte
##skema
##räd
review
sämre
##ashion
##litteratur
Ig
Einarsson
Dä
European
Bord
vettvangi
old
vexti
Deretter
Wii
forbind
strák
Kostnads
möta
vink
skud
Molde
medlems
entry
Siste
trene
lugnt
TD
ríkisstjórnarinnar
##FT
##kej
what
slíka
##ints
sammenligne
signaler
##Header
lytte
fots
##ifest
MAX
spørre
trives
Text
danska
##gørelsen
hæf
##ubr
Ingvar
fortsætte
safn
pens
##tral
550
Squ
öppnar
Hví
fulltrúar
drømme
Glas
Cykel
välkommen
##jendur
regeringens
##ked
undersøge
##pning
##Click
Argent
##ient
1600
Steinar
How
såkalte
##eli
utmaningar
##vegi
Dy
trekk
##cykel
##givende
kod
##skostnader
##ríki
haven
##stider
##þjó
sagtens
uppfylla
Blönd
skiv
##amål
flys
##weiz
ressourcer
Prev
##ory
##ury
ettermiddag
##äkter
eksport
leiðrétt
##motor
Soll
snýst
##agerð
utstyrt
##utveck
Spring
kveðið
##sefni
køle
home
Hollywood
Mul
Original
verkefnum
##unktur
##sjef
##sberg
##advokat
utbildnings
USD
beläget
pkt
Gymnas
designer
nævnt
Musikk
Aron
langan
Mellem
grundläggande
toner
tapp
Udgivet
møtet
tímabilinu
##oland
650
grundlæggende
##senter
also
huvudet
##hafa
omd
internasjonal
repræsent
oppmerksomhet
##istrikt
Ström
Rang
nyligen
viðmið
Sigurðardóttir
þjálfari
Roger
mask
samtykke
Rö
bekymret
ré
Az
frost
kæra
fjölmiðlum
##verðlaun
##behand
##smuligheder
##heimili
##levet
##ängen
möter
hverdage
##licer
umsæk
framförallt
olyck
berjast
Bade
stoppa
Kla
##ysten
Ivar
##ungur
Bib
Lenn
##anken
##svägen
skridt
##ssätt
Stri
tímum
falli
place
telefonnummer
##igu
##agra
eli
eventuella
##gild
rettigheder
Lokale
Shop
##illerød
Hjál
laborator
udp
pá
##félags
##lát
vinde
booking
##platt
omfattar
undant
##bundið
fasteign
Informasjon
##krig
##egning
##stalt
vackert
hode
konflikter
chansen
Þýskalandi
embætti
vanligvis
Mail
verken
mönster
vedtatt
ladda
bryter
mjölk
korta
værdier
##röf
föt
stuðla
1979
publik
udlandet
Portugal
peninga
##sur
##ætning
Håper
individer
Bretlandi
syssels
Science
##Popul
##ttar
síðastliðinn
##ilsynet
##uble
coron
##stillende
skipulags
pige
röda
interessante
##flix
##roner
meldt
##veri
##ebygg
RA
##ansvarig
antibio
Thom
##bj
tilstrekkelig
##inas
ákvæðum
anonym
##dage
markaði
flat
Gísli
dögunum
Tusen
##ckor
##arken
motstand
##taks
helming
givetvis
CP
Ákær
generation
ballen
slíkar
VVS
vilde
neyslu
tallene
konkurrence
anges
náttúrulega
korn
##följning
völdum
tørre
sveitarstjórnar
Hammer
skolens
Læg
##klubben
skolor
##emedlem
bekre
##ordninger
begiven
##smålet
smuk
##revis
klubbens
##tics
tekster
beholde
##KL
##retnings
franska
meina
flokka
grep
gley
grunde
nivåer
##hyrning
kollektivt
##xa
Keflavíkur
##Che
Hade
great
Country
##BV
##redovisning
Åh
Ever
##etisk
minner
NR
Eriksen
samarbeidet
Amsterdam
youtube
parf
##rejse
Kna
upload
such
hreinlega
anbud
ledam
Research
kemst
##RoomGridWidget
##PartnerRoomGridWidget
garn
alderen
Kópavogi
recensioner
Ljó
Prins
vísu
##ninn
vitum
varor
##kanten
suppler
Leið
HA
##SH
FRA
##sform
##ares
##URE
##ather
lát
fjármun
skilað
bílnum
##can
Bost
Etiketter
arena
##ungu
Snart
þekki
##landsk
##urek
##fyrirtæki
udlever
Ejendom
DAN
Chris
trin
##zo
kull
Pack
##atil
Imp
Roman
forvaltning
Enda
cla
klinisk
Sande
medi
##arealer
Lið
snabbare
##avið
Chi
##använd
Øk
anskaff
##essa
Helge
arbetat
Mobile
More
##stæða
##hú
299
Tap
høytt
øvelser
##teringen
Sæl
##48
Studio
unød
kärn
##adresse
##ITY
##öðvar
##gøre
##jakk
unika
hamnar
fekk
nánari
##kjør
Jule
slappe
regioner
Health
kva
Bell
overordnede
afmæl
mødes
nabo
danne
##arson
lítill
##gange
##view
ild
Leil
##boende
##smæssigt
Fyll
CM
balkong
##shand
samþykki
etn
trukket
##inarie
##virke
##kapital
overrasket
1982
Yr
##beroende
gömul
##äckt
komment
dagsorden
handlinger
##kli
númer
##mede
oplys
block
##forbrug
##sels
semja
sannol
förf
fokusere
##jal
1981
##endar
##Nyheder
styrelse
##boði
Gert
hinder
Storbritannia
##fá
samfélaginu
uppnå
ON
##stype
Vegna
225
##43
##uba
ýmsar
##äkare
##etnam
Øv
värt
botten
Jóna
jämföra
renovering
##menna
##bai
undersøkelse
Telenor
áhrifum
puss
Lam
##launa
klag
tisdag
Rolf
Nærings
##haven
Gent
##reise
passager
ætli
arbeidstak
Cafe
##Er
yderst
massage
brú
Halv
Spá
adskillige
skønne
EK
Cra
deltagare
øge
Athug
plötsligt
fræg
upphandling
Velg
norr
##skvalitet
Gør
fundament
Fredericia
volum
Kristinn
Kommunikation
sigri
Make
Ork
##beskrivelse
##ferien
##vinning
##enga
1983
##xtir
Rör
stads
##ötur
drep
##bus
skiftet
Styrelsen
russiske
##degi
Chic
##búnað
mistök
Reser
##række
dos
felur
leverings
åbent
arbeide
interne
sommerhus
driva
gate
dj
##heit
hensigt
Dor
tölvu
##ouch
##luf
evner
talent
Mit
##atser
##ställda
##ðaust
berre
sving
AK
lyckades
forsøger
svåra
handtek
Flex
##Model
lönd
BE
159
##ifrån
##öker
##eper
velt
host
eignir
engagemang
tildelt
leiksins
Plast
##UB
##ottag
hlutverki
mått
##nb
beton
Svendborg
##ävling
Garða
Jern
Premium
##olly
dyp
avser
märk
stofnunar
ständigt
tecken
Motel
4000
ED
##klaring
opps
Diam
Ukra
krafist
##sman
internt
befinder
##tilbud
##riker
Indholdsfortegnelse
Pop
umrædd
Priser
sýndi
bilderna
##dium
Erhverv
169
klubber
##egner
DJ
julen
hk
##spot
lyser
vaks
Bruger
jákvæð
LAR
Spur
kød
Guide
ideal
hals
##arsdóttir
##sætninger
kritikk
hovedet
Johanna
##minstone
##pecial
kampe
##itteratur
Nob
fæst
sau
gól
urval
tengd
afsp
fräs
kynsl
##prins
##atiske
hvatt
henger
##olje
##jour
diskutere
Þótt
##xi
ledande
Hjör
spurningar
ýmislegt
mein
krefst
lyfta
Jenny
positiva
##drift
##sperioden
asf
##träd
Hvers
##kirk
startade
##äcken
##stod
grønn
ítar
##serv
varierer
Sted
Þorsteinn
heilt
Frågor
##øt
##gjorde
##ökkum
Jones
säkra
##svir
svipað
##flutnings
##statist
letar
##ræða
avstånd
tilliti
stav
halvår
##efin
rooms
##egu
##isjoner
dagligt
bik
##alög
##lýsa
følg
morgonen
Erling
##Tablet
tillfälle
halsen
##mæla
anvendt
##well
skickas
SB
tilslu
samninga
köket
##annon
alternativt
Heldigvis
sögðu
Lule
nek
##edire
målrettet
Sundheds
tillgänglig
Semester
viðskiptavin
Guest
fljótlega
blank
Beliggen
stjerne
understreker
##risen
þings
anslutning
##gebyr
Virk
Hua
Read
##bass
betrakt
begrænset
anda
mörkum
engelske
bann
##áss
reklame
lykke
been
##ynet
Bush
meðferðar
vesentlig
flink
fallið
vatni
##ænding
Jönköping
minningar
##cd
Køge
##raget
tvöf
betrag
##uell
##värm
Beskrivelse
##settes
Aven
Reuter
##cing
##låt
poster
temperaturen
##rød
##stille
centrale
##arfer
Eid
lausn
dyrere
undersökning
strategisk
haus
##Hoteller
##andidat
danner
kasser
Nátt
##ingarnar
oftar
arbejdsplads
Lilla
prøvd
##ulegu
##útvarp
AUT
##ótum
##plassen
##skolor
klár
sykeple
fundinum
tillfällen
emp
life
##HA
listan
##ledende
Uansett
##sej
##asjonene
##köst
##lage
løst
þarft
##design
Enter
Skot
hraða
boks
final
Sle
Afghanistan
##ERT
hotellen
oer
Hvilken
dál
DA
framgår
populært
##stads
sjældent
autor
##gjöld
stærstu
Ug
ým
##bour
##bá
##vél
##41
diskusjon
Sjuk
Visst
Brøndby
opfyld
sökum
##vju
DT
omkost
personalet
##helse
krabbame
øre
þínum
##ude
##áæt
kven
lånet
Gucca
umfang
lögin
bls
Midtjylland
Francis
##öpp
þjóðanna
erbjuds
##ykdom
forandring
stillede
sjálfst
1978
viðbrögð
udover
##arkiv
##amo
ferðamanna
##aben
##spekter
Californi
Hul
##ancen
Forseti
inntrykk
fyrirmynd
áðan
grann
myr
avstand
grä
Ped
Sne
museet
skærm
kompis
årligt
venlig
cell
hæl
efterspør
Work
hjól
snill
lur
##sex
stop
##afræði
Sab
samkeppni
saknas
Halm
##lav
isra
##luft
einka
9788
##Nivå
greint
snarare
viti
##akes
udl
##verdig
drap
##spol
##uktion
unnu
Något
angår
##færa
soff
##ønner
##alýð
vokse
øjeblikket
##ævnte
integration
##uli
trygge
Rio
innholdet
Hordaland
1975
göngu
Webb
ABC
tilhører
revision
Exempel
indtryk
investere
nåt
##berätt
##elde
låga
##smidler
Ås
problemstillinger
surf
ubehag
##óg
##etts
yfirlýsingu
##smönnum
access
##hagen
Britt
journalister
##ebo
bringer
författ
inneb
skora
borist
flý
SÅ
Key
hval
gefin
kokos
regionale
Kommen
nice
oppgave
beting
##rækker
##eplan
virði
260
##lyse
tykk
duft
virkeligheden
kylling
##produs
##astarf
##ENC
IBEX
komprom
stilla
myn
ank
##støtte
##inkel
##okaler
LÄ
Ólafs
fjárhags
##partement
understreg
Dit
bredde
tyg
Fotograf
Pier
inten
Indledning
hindre
Bilde
##asis
##merket
Uppdaterad
viljað
hjernen
ejendommen
shops
kvaðst
Ryss
ljóð
Hjal
Fordi
##amentet
Medel
skat
know
forskare
Eksempel
staðnum
Billig
software
Snæfell
nefndar
förhopp
raskere
Valur
begynnelsen
Ocean
förtroende
produktionen
Lene
Johann
Matth
tech
farinn
baserat
##æren
##aset
trag
marken
stoð
Gear
mykje
verksamhets
inspirasjon
fugt
tsk
sæk
Mary
##berget
bedriften
sjelden
pågående
Ble
lagde
samskiptum
Human
##smøde
aktörer
tang
kende
##unde
kundeservice
städer
Plaza
innspill
købet
Ljus
vá
##eff
faren
##skjema
sælge
innlegget
højeste
beiðni
krevende
köll
sertif
##revne
##eslag
##dræ
##olusjon
riv
dubbel
##FS
##ysta
Borås
##hlutverk
stabilitet
heraf
tilpasse
stöðv
##félagsins
minnka
VE
Kval
Evert
PRO
##ländska
reducer
##kerfið
ævint
Ög
##agan
beliggenhed
##lines
tiltræ
vedlikehold
vuxen
döm
Bornholm
frábært
baráttu
vildt
##jakt
##brigðis
##naðist
framhjá
##ims
Entrepren
kjós
samstarfs
mæla
##fullmäktige
##ETT
derimod
##daga
innrøm
kyrkan
Morgen
fron
##centre
pyn
liðs
populær
hryðju
##uery
tennis
Pål
Leonardo
##buk
##rør
tunnel
kolon
Kristjánsson
nets
Vo
##juka
eftirlits
GU
cap
Orbitz
udelukkende
##ition
jente
fyrrum
##sve
revideret
Vilket
Jazz
State
Norde
##administ
##wei
Allerede
international
platsen
##ordane
QU
lyckats
mødet
håndtering
##odd
Unge
kaste
tengist
udvikler
økonomien
##cted
offentliga
##idan
##betalt
skred
##fø
sän
##vider
stammer
valið
sul
##ällen
föstudaginn
##forsvar
##ías
Inge
Netflix
##unty
##institut
##änare
Sir
##fred
##JE
lýsir
gemensamt
##koll
udfordring
enhed
overbe
Norrköping
Lax
dron
prófa
118
Däremot
##46
1700
overveje
öv
##skólum
bøl
drifts
##stin
följd
Integ
indh
matematik
Tidigare
##fiber
hat
svamp
Røde
udarbej
##uddannelsen
jævn
sättet
toilet
##aðilar
Golden
Beck
offis
##smäss
Scott
##strä
Sä
hjärn
##peng
highest
##skrevet
Avs
Þórar
##marka
COP
1974
bibliote
##shóp
##ship
##eda
helset
liða
sjóðsins
##Complete
Eða
Erna
Uanset
child
fet
##ierna
Ingibjörg
rengøring
ringa
tredj
Liber
##völl
udsalg
læst
##ledninger
##olige
##sforhold
##änna
ferðast
hurtigere
Stu
##reen
borgarinnar
urin
MEN
Posten
dokt
líða
gymnasie
mötet
sundheds
Stør
undert
tillbehör
Eru
virðis
##þróun
fyrirkomulag
GM
såkaldte
MAR
fundur
varet
bygd
kreativ
familjer
förvänt
operat
halvparten
forhå
ställen
##ulegar
Leng
dårligere
endelige
##övning
Ath
##afer
hurtige
##næring
Tomas
##stal
løft
hle
##verjar
oför
##itur
kontrollere
förebygg
trygging
kó
skýring
Fastighet
skammt
Prosjekt
uafhæng
móðir
vildu
komandi
keyra
krónum
verki
##rettede
framtíðinni
TX
tagi
Rena
##emo
talsvert
förändra
Áður
sýk
norska
Bob
plattform
##karen
arbetsgi
Sjø
næstum
tillat
##cu
avkast
udbred
månaden
personalen
##öna
Politik
##skottet
opið
foretage
##ölur
##̈r
##pal
##overing
tilsynel
##jett
##sfull
morgenen
mi
##SN
##leikur
##vises
blei
Kjar
Mir
reyndi
sup
##vag
Hagen
##føringen
##egen
allerg
ágrein
kön
Asia
##centr
aukið
snið
kröfum
##forma
Game
áhætt
øjne
mottatt
##itid
Disc
hrá
gröna
##hjel
institusjon
##stöðv
avgörande
##IES
vog
gleyma
##andør
##tekst
atom
ætlum
##kontakt
122
mäss
gagna
Gren
##ævnet
Por
kjenne
uttryck
BN
uppt
växa
##ods
##UK
etasje
##lose
utn
frie
bækur
##utíma
##væð
##hurt
langvar
##ysk
sväng
mismatchMessage
leyf
samningi
doft
Uppdatera
Tes
lind
söder
udgivet
sjølv
målt
kombinasjon
##ovo
##ANDE
nemur
hugsað
dagsl
aðstöðu
öf
forårs
##iat
##to
lykkedes
konkluder
##onny
muslimer
##ælge
tengsl
##ærtilbud
Någon
sólarh
##kkun
##spir
##skende
##HED
Næstved
aftaler
stærke
jobbat
tutt
uppfatt
##Re
skiller
##istiska
##tidige
ast
søde
Fá
Fø
##stilles
virðingu
##jonen
##kunn
høres
vindkraft
medborg
##ödra
##læge
vísar
Astrid
1930
lækkert
gemensam
nøye
Free
Mye
upplever
situr
selvstænd
eigið
hjerne
WiFi
omtale
underbar
optimalt
abonnement
snur
nydelig
särskilda
##duc
pluss
kór
Árnason
Hotellets
##unktioner
hittills
##imenter
##ulerer
##marki
Computer
Hotwire
Jæ
DAG
Artikk
drenge
##öðu
starfað
sjálft
##visa
Sommar
inred
opstår
fuldstændig
##psi
övert
##ilen
Ish
bott
härliga
utrust
glädje
jafnaði
##col
##Selection
MR
Stefánsson
ferien
fötter
springa
umsók
Fjármála
Hannes
##ynene
Stefnandi
nærmer
Huvud
##bruget
Meistar
fase
Kh
##lingu
Brown
stofnað
ríkisstj
myst
betygMer
kapit
##økene
hagsmuna
alders
inträ
fæng
Eskil
operer
krisen
##ædd
##nevnte
tilbydes
##þjónusta
##værket
sættes
hverjir
människa
##rister
##ansert
Hild
##öxtum
HB
##mg
##centret
Udover
hört
##pladser
##verr
##messig
##IO
Lufthavn
framkvæmda
vaske
israel
menings
stro
##ugga
Show
þingi
sambo
mögulega
Mob
##nikker
aldar
##øye
reagerer
tólf
miljön
humør
FB
Mai
hang
lín
löpande
##jäm
diagnost
Gamle
skrí
gjaf
##saken
universitetet
wifi
afgørelse
hage
##sbæ
Junior
##lunum
##arina
notið
nettsider
solgte
høyeste
##stefnu
##róf
##berett
##áhrif
Inspira
stuðnings
##klædning
Centrum
barnehagen
##ANN
forbehold
##ivirk
##arke
smitte
##formand
dusj
elbil
##oon
adfærd
##uds
Gh
##rannsók
offens
viðskipti
herre
Hinn
##pladsen
Hammar
Fjordane
Mexico
skador
##UP
##bindelse
SO
##iserad
minuters
efstu
þrí
##plasser
landskap
hjóna
fitness
junior
lífinu
minoritet
professionelle
framgångs
Nice
Havn
Espen
##fellt
konkurs
minnir
tradisjonelle
Roma
feg
förmån
bekymring
merker
config
athuga
champ
##stue
skuff
félög
Rak
fjárlag
færd
varerne
hørte
##grens
##önsku
only
polling
foresp
søster
mátti
skemmtil
##kode
Luleå
##ESK
##här
Gabri
varken
eyk
Princ
skyl
ving
kaka
kutt
fremtidens
##måga
Borger
regnes
##astofnun
holdninger
##årig
Card
körde
##ámskeið
örug
bikar
##sident
gagnrýni
##liði
##emat
dik
normale
##aktorer
##teren
vag
sleg
##visvar
##dm
run
diplom
preget
áfrý
tjej
##ETE
förmod
blóm
meirihluta
##bot
aspekter
##møte
##opro
mängder
##Trip
skur
##ständigt
munt
studentene
Þessar
##Aktiviteter
Caroline
##heiði
auðlind
vega
##smö
##yndar
kulturelle
##istene
fremmed
##zi
1973
läns
riktlinjer
Aks
Kó
greinargerð
##sservice
lyden
Kabel
skeið
fordeler
besvär
beboere
wind
##42
juridisk
ekonomisk
produkterne
støj
tölur
lowestPrice
landam
smaker
roomSelection
##RoomsTo
lokað
Området
fela
kategorin
Gast
some
Þorvald
##aktiviteter
siffr
##berry
##skick
mødt
Info
Professor
##yring
angri
ME
##hugs
Leveret
áttum
Lun
Tun
varst
kommunerne
##indust
##visninger
280
sjukvård
##ksamheten
innovasjon
##óll
Varenr
beskytter
tillå
##fört
##aen
dobbel
121
sjálfu
alternative
skille
Altså
hjúkrun
Evrópusambandsins
krydd
ódýr
Cent
##ältet
beskytt
dekker
skjønner
verkefnið
Lyngby
artist
uddannelser
##arate
##Sat
Syl
havne
enorme
ríkisstjórnin
##terad
Week
##sikter
hotels
mej
køret
117
##taki
foråret
Mannen
Trine
Strateg
here
270
##artikler
Ljung
TIM
##ulv
hærra
rost
##ipe
ferli
øverst
tuff
229
##ITH
entré
fremgang
bedö
##vinna
##terende
félagar
##Restaur
Gyld
utal
foretages
##vnet
herlig
##undan
igjennom
##NyhederTilbud
##dl
nack
beholder
##elly
##lagi
##älje
Bah
##oleiðis
överra
bestillingen
erg
serveres
##fundur
##bolaget
digitalisering
umræða
Cyk
sumum
Framkvæmd
etterpå
Varme
anklag
##visors
besti
##opper
kjønn
nafnið
veru
strategier
Vok
##yrirtæki
##emb
##organisationer
overalt
Atl
formann
verðtrygg
einhverjir
1976
helikop
ledelses
dekke
möjlig
tjenesten
Syftet
##ængde
europæiske
##smøtet
Jane
Sebastian
spítal
##eing
salat
resepsjon
##Dan
Dans
##jerner
##beskyttelse
bestämt
##ktøjer
häv
##finans
horft
##fen
stuttu
##byt
roliga
lagið
visning
offentligt
veiledning
chance
indsigt
vagn
følges
opplys
Medicin
##näs
sammenligning
tökum
borgerne
##okker
händelser
vaxandi
##chefen
Apo
Allar
##stebro
##conom
jarðar
stoppet
Fall
fasteigna
brudd
Dol
slutade
skifter
Lof
##alda
##bassen
fullstendig
sjálfan
Växjö
Gau
amma
Arbejds
Ala
hverja
registreret
highestMetaPrice
help
Hospital
pak
##rome
##shop
Felles
totala
first
##stjórinn
##En
vanligaste
##vennlig
Håkan
omöj
nýsköp
afgre
skickar
Gamla
overenskom
##tika
Kristoffer
Økonom
kanten
opbe
feber
##farið
Sar
1972
Pí
tillägg
NU
söt
##vens
fengum
ráðið
branding
Yoga
Jóhanna
Anvend
##ænger
liggende
##præ
samið
Put
##réttis
gaver
##smetoder
##aco
##TON
loss
FI
afholdt
##velopment
##Park
Klikk
spra
utbildningen
##ækkun
##stationer
Kontor
eflaust
drykk
##ólfur
Fjord
##dals
teamet
Annað
##ws
bevare
hræð
Filmen
Lor
úrskurðar
erind
titel
##ipedia
studere
länk
Toyota
ryk
salget
Fis
glim
betalings
videref
brotið
Flem
hvorefter
anläggning
##Pool
stole
Undervisning
##GS
##feldt
Ess
Energy
budskap
##ferðum
Fredrikstad
skott
købes
##marked
##eft
##egard
stakk
##yns
Amerika
##sliga
nið
EP
blommor
##ÅL
hlutir
lenti
gammelt
sta
samfundet
gler
Eyjaf
inkluderet
##sbeg
efteråret
##nades
Grønland
ded
Kapitel
midlertidig
##assan
##ennelse
spesiell
styrer
dró
safna
##urdering
##namn
bless
##andic
hytte
##guide
professionel
##web
hvít
skjul
sérstakt
tilgangi
horf
##bs
##Bar
stasjon
tillid
Stjórnar
##urgi
##oppa
##rerad
##ditioner
raka
rauð
Gift
Mas
##nsam
Rud
skin
manager
gjeldende
Ditt
Nefnd
økende
panel
utrymme
fradrag
samarbejdet
##osten
stipend
Tillsammans
lýsti
paragraf
balance
##äla
åtminstone
page
##éer
hälften
base
Serie
Ash
##emod
knu
##EE
##Fri
##hør
varmen
##stick
Effek
snygga
robust
Nilsen
##snittet
intressanta
##JA
nokkrir
heimav
sannfær
standarder
Hjør
##komp
CN
Veldig
##nni
barst
knattspyrn
Komp
##resund
Aktivitet
##LED
farligt
klikke
##dóma
nefnt
effektivis
##andair
##rull
känslor
tida
ÍBV
Comfort
laser
##systemet
##utvik
ext
##smöte
##rations
##ärare
medarbejderne
Aktiv
räkna
ömmu
opgaven
applik
skapt
bætti
liggi
report
##röst
nyheder
rörelse
##TripAdvisor
##kona
dokumentasjon
##fond
vurdert
tvisvar
Boken
klassiska
bun
TU
##sna
deles
festivalen
##lyste
##húsn
##elsis
Coc
##ökur
food
størrelsen
bestå
lagstift
tjón
byrjar
Hvaða
##AME
Hedmark
##ENDE
áfengis
##47
byrå
1945
líkams
##aborg
##pes
skömmu
bakk
lesið
after
##eløs
Reuters
skull
FS
OUT
ankom
##hs
Forsknings
McC
##smak
Hom
skete
Lík
holdet
bensin
fóstur
##áli
Mort
Fab
Helsingør
temaer
Nikola
leks
Priva
Islam
útiv
##ygter
tilfellum
Løs
##vins
##byte
uppen
smarte
Wild
glemt
##win
producenter
koncern
##bakk
##røn
OB
berättade
vitni
teknologien
myndighetene
bransch
bráða
Internett
søgning
Syria
##nås
##Satellit
grænmet
services
hastighet
svaraði
##øte
landsting
Rou
pasienten
skilyr
world
virksomheten
Rest
kris
fysioter
##skrona
Henter
Vas
annoncer
soverom
when
Nærmeste
Hólm
##arkite
##sá
opmærksomhed
allri
infl
tidligt
##rap
Amazon
fyrirvara
eigna
##wards
læder
amp
##moder
##mir
Läns
Rust
íbúðar
##kunst
satse
Ove
##aya
##skólinn
mæld
skilaboð
toget
##värde
BUT
tý
##naderna
offentliggjort
##etilbud
deleg
skuldbind
Sog
Menne
##LA
##ERE
stóðu
##änkande
##assistent
kví
tråden
ikväll
##ides
Forbru
Kenneth
Baldur
skydds
torr
gæld
möbler
##YS
arbetsmiljö
vestlige
allur
forebygge
ferðinni
kørsel
Precis
##aukaskatt
##register
##aux
ták
##ymer
leir
Hafi
flók
skaðab
telji
gli
HJ
##odi
##jernen
utvalget
##skultur
verste
bring
##betalning
leikt
afsted
##Te
munnen
forsik
##emynd
##tökin
bygnings
Nordjylland
svoleiðis
ramt
finansielle
líklegt
Canon
sval
##shistor
begynt
afholdes
cool
veldur
##burður
##ombud
##irts
utgifter
##festival
artister
ydelser
##alle
##skogen
áhættu
##atikk
lediga
##tälje
driften
##lock
forholdene
møtt
sérstaka
lýkur
fulla
##ände
måltider
Fyrsta
helbred
Vidare
Egypt
underbara
definer
inriktning
effektivitet
klik
wi
##lösning
Guðlaug
Bow
tynd
anmod
glada
Ísafirði
##ungs
henvendelse
utvikler
bestämmelser
##OTE
árlega
opdaterede
Mikkel
veje
skadet
Kirsten
AIR
ämnet
HEL
##svik
fasta
##yting
fenomen
mnd
noggr
svæðið
datoer
kreativitet
næstkomandi
embættis
##liggande
##jk
konkurrenter
endaði
##udagur
Hä
##örygg
inform
dengang
forplikt
konan
direktiv
lämnas
hål
pant
Advent
##kamera
kontinuerlig
##kval
##ttis
##irs
færð
1977
bunden
uppleva
inomhus
sterkere
bílinn
##inson
ressurs
##UST
närvarande
VER
triv
##tjänst
danse
##elskaber
##öring
snyggt
umsögn
Pizza
##ningsför
##icate
sjálfir
företags
búast
Rigtig
konge
##ebu
Samlet
Icelandair
##funktion
tørr
Check
ye
##attle
geis
funnits
aktiva
Pin
sköp
##skinn
##lendis
påske
úthlut
hemmet
Win
diskriminering
sýslum
forholdsvis
##ECT
teljast
##lekar
bestilt
deltok
##aku
mætir
##alj
##emmer
samord
Yng
samles
##avet
Sep
myndband
Siri
##aman
nö
indkvarterings
ferðaþjónustu
Sjúk
gjöf
sejr
ánægður
Skor
krydder
##head
fattigdom
Monica
##ARD
globalt
Irland
skydda
sød
kontrast
forbedring
Hú
##ænder
2030
##löst
indire
släkt
hinir
##sgatan
##shavn
##världen
##være
drømmer
##ugs
##talet
undervejs
mótinu
ryt
planering
##akene
oplevet
pär
redaktør
frø
##éttar
oerhört
vetrar
anmälan
Nat
touch
tilbys
hämtas
útil
##direktoratet
##byrå
trykke
Stær
overd
126
##endel
heiður
##IND
##anes
flaske
##skonfer
talaði
Had
##prov
Kyn
flö
##ues
fleksibilitet
##dende
##lubben
##ktige
risikerer
dårligt
konstigt
undersøgelser
##ånare
Bom
Bygge
##kontoret
##oil
##trer
Börja
lögreglan
Björnsson
bransjen
##skrár
afs
ordinære
velk
Mathias
kastet
foreninger
##verja
##øyet
##danmark
##sher
aksjon
underveis
##ilding
konferens
slekt
pur
##skerud
BK
svarað
bop
redo
1968
##smag
TO
vakna
##svalg
begär
kysten
##adag
slepp
##märk
##vandring
##sveit
vestan
Værelser
##Go
tidningen
##íku
##acon
robot
Enginn
Stads
forinden
##usa
##Type
##stasjon
##skydds
##vesenet
interiør
lunsj
derudover
##ämpa
sjálfsagt
Färg
##øpet
Ki
##hyll
##éttur
terr
Fotball
Stór
##keyp
kollegor
þína
lægri
##höll
##esteder
With
atvinnurek
##mennt
spilaði
Grupp
Valley
##stock
Herre
Fransk
pilot
brede
starfaði
tónleik
##sbru
indt
330
opplevelser
than
##arrang
skuespiller
Lå
Sigf
##arkivet
sunnan
Allmän
spilles
##onna
Denmark
teknar
##jót
Ville
estim
##slä
enlighet
Karta
elektroniske
sím
alvarlega
##laðið
Gruppen
mælt
##stilsynet
ferier
Saga
Faktisk
##forsker
##dragelse
Skär
need
ansvarig
##isken
rita
Bern
forberedt
times
næringslivet
##central
likhet
minns
##ariat
indeb
Rapporten
ort
nætur
fullnæg
forstöðum
Marina
IKT
behör
Ani
komplek
kjøle
úrskurð
fylder
handlet
Hovedstaden
kjørte
Málið
rannsókna
##By
terreng
stigning
veitingast
klikk
Java
Kristine
Desig
##funnet
##alere
Print
æð
Fuld
ekstrem
vanskelige
##hlaup
LG
Kommunes
##illen
##cost
124
levande
Krog
##ønster
##splikt
landsbyg
hundruð
forkert
vintern
##øe
##skriver
produsert
þol
glemme
lärande
Hallgrím
slutar
sleppa
skrifstofu
Well
föra
Samfylkingarinnar
forskningen
vö
Utbild
##rough
hentar
Därefter
##tify
Kaffe
Bestyrelsen
Turk
##óðar
mage
##entals
##bokning
gos
träffar
##ilte
dóms
Town
påvirket
##bom
hafnað
dæmdur
tort
inredning
bekræ
hej
gavn
ABS
##ÄL
##ritet
Ví
veis
Tekst
kroppens
##MENT
##íki
Jenn
nái
Oil
alternativer
##reyf
udsat
sikkerhets
hvergi
beskrive
hundrað
Palest
##ningsan
##heiður
tegund
Nä
Ísafjarðar
aðgerða
känt
augl
körf
cover
WW
Yder
ekstraordin
Varm
##arg
style
falið
otte
skyldu
Glass
drev
##neser
katol
##båt
Intr
varmepum
##ublicering
biðja
leiðandi
##jt
virðisaukaskatt
vitaminer
döds
Academ
uro
diameter
trækker
grym
pt
Siv
##vægi
bevar
##sförmed
Holstebro
##rea
nöjda
##stjenester
how
##aktivitet
underbart
sérstök
arrangementet
##nattleik
Svona
Grön
##ingarna
presenta
forhindre
Bilen
##dret
mótt
Metal
vondt
foreløb
##espel
mömmu
should
##örn
##shaf
prófessor
##gata
##igent
##itusjoner
temaet
æld
stefndu
##orteføl
Veit
##oor
kørt
##kkef
article
rangt
Technology
karaktär
Robin
interesseret
kontakten
temmelig
oppstår
Kommende
lögreglunnar
bev
vini
Programmet
sokk
249
forvejen
heimildir
##Ena
##årn
aðstæðum
åk
YouT
officielle
Holbæk
BAR
senge
##vrige
##egnede
engasjement
##jul
støy
##sjö
kit
Previous
meðaltali
kørte
##ystemer
flyplass
##kvæma
riksdag
bröd
fødsel
extremt
drekka
##fatning
people
välkomna
##høg
##espillere
image
##lö
Dun
##viv
organisasjonen
texta
glans
msk
laks
Dere
óe
##athan
##ativer
##uelle
134
##banka
priserne
Merk
##atment
Tobias
County
eðli
Asker
fjárfestingar
Julie
erl
Lån
##fel
##köpings
sanng
hrædd
vandring
cent
Access
krafa
Ner
nödvändigt
March
1946
sólarhring
##regel
kontrollera
##dio
Hæstaréttar
ögonen
##PRESS
húsi
Tina
Philips
dygnet
Stan
nio
milliard
aggress
##jist
sade
##gal
nyckel
Mia
##lösa
kryp
använt
Dek
vinden
påpeker
##uc
Våler
uploads
eigendur
funksjoner
Syke
forbruk
Sprog
UM
##næm
stjernede
láns
Kå
Kab
Cath
slutte
gerður
##eminister
Götal
##59
##kest
##varsel
##studier
Föregående
bedømmelse
##stær
##skapen
##aften
emnet
uddannelsen
vända
plock
input
Núna
originale
deila
Sigurjón
räknas
who
Sama
##rifrån
anim
France
Riktlinjer
##zin
regional
Dynam
innihald
sjukt
##ENCY
moment
spid
reglene
##bt
kallad
Reply
Way
##isi
forystu
##seffek
Sha
fagna
##gym
##ppni
stjórnarand
närmaste
##íðum
loks
##yllands
anstr
Sind
##ui
fótbolta
Södra
deltagerne
##anch
byggðar
Ange
##ATUR
dikt
lju
##Af
Garn
lækna
fixa
vinnubr
myndighed
Steg
mikilvægi
Alþjóð
##seri
##kvörð
Falster
Íslenska
Fyrst
aga
##egården
neden
Pul
##hantering
##arfar
##ace
fjellet
##reret
forhind
lyfj
Apartments
operasjon
skrå
elska
##ingurinn
dómar
ákæru
laves
parken
hjärta
Björgvin
brå
##pre
överens
faðir
radik
##panel
førende
kunnet
kræft
utforske
##energi
grunner
Farm
besøke
Billiga
##ískum
lamp
Herefter
##abol
jafnte
önskemål
overgrep
opptak
##hring
##tgär
satsa
Texas
teor
loftslag
attraktiv
fokuserer
treff
Bruker
afbestilling
stefnt
andstæð
celler
reelt
hobby
##råden
áher
opstå
small
fastsl
stärka
oppdaget
Antall
##illat
exklus
##ække
mindste
fäng
##ando
Boll
Kil
##but
site
pota
pus
aðilum
Nyg
fremad
kompl
##opol
sång
##venlig
informationen
intensiv
Cr
förståelse
neinu
útboð
##æla
sekú
aldre
ót
##udgifter
brud
BRAND
förbund
Heidi
##hönd
Version
nært
sept
##fé
udvalget
Nas
mog
sprid
smukt
Scandinav
Everton
##emin
heste
##mæssige
Snabb
case
Cy
##OWN
##ducation
koselig
proff
notar
støttet
##afræð
##mælum
##slev
Racing
##beveg
konsept
alþing
999
stengt
meninger
##isol
ambassad
Lyn
##lönd
##öfnum
umr
Blandt
beställa
Rot
Natt
##wich
Peng
legen
oppgrader
fremmest
Gjer
områdene
förskola
Even
##bror
hefjast
gennemføre
##hlíð
särskild
brotaþ
búset
##time
Endur
Personal
Innovation
suite
elektriske
Wer
Benj
Trev
grænse
Fundar
ända
studio
SI
##forsyning
fortjener
##flokki
##pulver
umræður
##Sta
konserva
##isera
##partment
Lör
##ærey
Metro
##identen
pasta
Tómas
Foreningen
liður
lítur
stuen
Hennes
##Ch
behandlas
Hest
stick
Rap
##FA
naturliga
vila
Krig
##INE
eign
##gangi
Night
landsbygg
##sband
óven
DEL
byrjað
belastning
internettet
##idel
laste
drejer
veterin
tøff
Katt
undantag
##orca
gutter
Chicago
Village
##vidde
Mattias
HS
##fabri
##sturinn
längst
hjärtat
udføres
minder
dæma
##univers
Sigrún
BH
##strategi
Soph
Vegas
beslutet
Grím
##birg
unike
Front
##elding
Conne
Dron
MOB
Trav
##pose
##enc
##lås
##ademi
##uster
##ttag
Foreldrar
##byggð
Mün
Minister
Hart
##ginn
Katrine
##brett
##splatser
##kö
produktene
##iebil
WITH
Tilføj
faldt
förekommer
##nät
altfor
LP
røg
Dela
rand
##penger
##ikte
héldu
besvar
##din
rakt
##keypis
tåler
öðlast
Ross
sjáum
skål
koncert
##Dates
EV
FT
övertyg
leger
sprang
Dej
##Ud
##væn
##givelse
fotografer
##holdende
velferðar
##strid
sjúkling
frammi
familje
##vendige
orientering
automatiskt
bygningen
arbetsgivare
breyst
fremfor
Kven
utgår
neinn
skák
##usch
Åb
Reis
fylgt
epost
gule
flertall
kjørt
##wh
lägenheten
chokolade
representant
tilbudet
##osisjon
opfattelse
##levelsen
oppstart
myndigheder
##ðulegi
viðskiptav
situasjoner
svig
Bef
hjart
unikke
##lesund
Sva
Sekret
##lunni
Wo
behövde
dil
may
##innen
Bjarne
FU
##lak
##myndir
stemm
representerer
läget
##ellence
##ðinga
##búa
befintliga
city
framöver
inns
ventilation
Hring
tvenn
Vita
##struktion
Storm
##gard
inngår
mínar
spørger
protokoll
sans
PASS
mús
##ættere
##ommende
Kompet
Sandnes
Kristensen
##sområder
##skontroll
afhænger
device
Språk
##hab
Schweiz
YouTube
Tele
##vakning
Introduktion
forank
bröllop
södra
skiljer
1971
skrivet
Lee
##aðan
góðri
##0000
##skapene
##seth
Sjó
Breiðab
endurskoðun
##stilt
##elsescertif
##istof
bryr
málskost
##illet
##lýsinga
##jenning
Price
##tique
##eles
säkerställa
tjó
skólann
##dá
yndis
##tida
grípa
##sop
Mosfell
##gerður
bruks
milljóna
passasjer
##ðandi
##midler
lämnade
Sandra
bast
berømte
Øl
inkluderar
##uðust
Clar
ræðir
neyðar
Litteratur
LÆ
Tj
tvers
Charles
Micro
kæreste
##ording
##eshop
##akim
mineral
pic
stýri
foreldrum
fulde
Cer
senter
##Out
malt
pabbi
Løn
##bandi
hygge
Føde
##gengt
Kristina
naz
greiðslur
aftan
##ladet
FORM
omegn
Coop
slutningen
dejlige
annast
##værelset
house
##iellt
1969
Jetcost
gumm
##tales
##ótið
kritiske
##rening
tränings
markaðs
Pap
URG
Bjarna
omtalt
innbyggere
##bransjen
protest
gjennomføres
Plu
hró
skjønn
##alin
##förbund
Forest
##index
Opr
Games
trafikken
Dobb
arbejdsgiver
Loll
Josef
Buskerud
oplyser
unnin
strø
ræður
##vegis
reikning
Ultra
##IÐ
##alterna
Skive
prevent
MSN
dyra
##isc
##midt
kynningar
fryst
starfar
förmed
##vida
##mærkelsescertif
Kunn
Bladet
avsluttet
marknadsföring
##lita
rod
TYP
Veður
##komster
Vog
Kevin
##uper
hænger
pall
##hydrater
##auk
beklager
Ansøg
##intr
static
uppstår
tillsyn
tone
##heil
##ilegra
reyndist
faget
fastigheten
Ejer
stämmer
blokk
Gíslason
Olymp
organisering
##sektoren
tilgængelige
settur
foreslå
##svirksom
apotek
URGENCY
dval
spir
aðgeng
##pel
##ttende
##åren
##shem
olí
háð
mia
##liggjandi
Gas
##vilið
##ttekt
Grim
slíku
einbe
Margret
##effekt
rekommend
udvalgte
medarbeidere
kvalitetss
årgang
byggingu
##Log
korrig
##björ
forkant
##basert
##tene
villig
header
Värld
Kyst
betalas
Afrík
aðili
##örerna
almennum
Retningslinjer
##afrika
skandinav
tækn
funktionsned
##aldri
herbergi
Sound
##bäck
##venskan
oversigt
Stål
högg
settar
##raksis
##quist
livsmedel
náðu
##øyde
Lögreglan
Evrópum
prisvärt
utelu
advent
Shopping
##yfi
##egenska
hússins
udføre
Johnsen
sigraði
hästar
Lilja
##teket
Garðar
Ple
##lunde
132
##fært
College
Pleje
##unget
tænkt
fært
##analyse
lærings
##angur
følelsen
miljon
heita
sögur
sirk
Rein
##bygd
##kkene
suver
##ssal
spender
##edom
##ykning
rate
brauð
fól
Champions
optaget
stere
##ugæ
##edig
##yse
Brom
DB
##ulegur
forg
144
längd
Kolla
##wer
##Enabled
##tech
äventyr
bemærk
kjed
regelverk
##ansatte
document
Daily
passet
##stemning
fu
##abar
Ytterligare
##ssons
##emmende
skilningi
##råde
Dort
##alæk
##verslun
Dokument
##rann
ábyrgðar
dóttir
Bour
traditionelle
499
##table
##Hv
Tis
Föreningen
kaldes
bekrefter
licens
kreve
Easy
##ssjuk
Börn
Januar
avst
Provin
Allian
KEY
damp
framfæri
open
hagsmun
Collection
##ein
##rix
##bygge
Deltag
##psyk
kriminalitet
plassen
nederst
bauð
fleksibel
##plant
1967
föred
##koppling
##okke
##ännen
##atene
fjärde
##turinn
färre
##sidig
afhængig
tré
Ferð
svære
katter
pok
ES
óvis
ríkissjóðs
rødt
Selfossi
rytt
forsendum
kläd
barndom
Sammanfattning
derfra
##medlem
##matt
Mountain
undanförnu
kunstnere
Spo
Senast
##ierade
##mare
mord
leksikon
##fremur
URL
##esis
##raðsdóm
reglugerðar
##iplin
##koder
Sumir
Sundsvall
fatlað
pakker
##STE
##baner
statens
dér
##hålla
släng
##ev
Selve
gymnasiet
roms
##etiske
##nettet
##kål
primære
Mix
##td
##skild
registrere
bárust
biograf
pick
vanil
sífellt
##ékk
kontrollen
##uture
formiddag
##ästare
favoriter
ferðir
English
Guardi
##nny
##less
sekt
did
farten
informasjonen
Little
bæj
inre
Status
Inlägg
##korn
eigandi
##pleie
gleði
Författare
India
kinesiske
skju
##æmp
dregur
olja
víta
##betjent
##ærket
austan
förhand
félagsleg
ryger
Unn
Mellan
sängen
Morgunblaðinu
##smálum
##beth
sælges
Florida
konstruktion
taf
Sølv
##nst
Chef
bruken
##ocus
peker
Mär
##usal
Brian
AND
hp
Fick
fréttum
Ryssland
utbildningar
##poeng
##Advisors
tram
lås
utav
vakti
glatt
Bond
foten
bredbånd
semin
Kvik
inköp
fanget
hänger
mötes
Maðurinn
gæð
##enär
kopi
##sministeren
ivaret
eftermiddagen
vistelse
Brig
sjálfa
##dda
##ygdom
##byl
##årets
TripAdvisors
##ningstid
gyn
neita
barnehag
##ryg
forsøge
Sikker
Jos
##hjäl
bókmenn
Tør
stabilt
##vene
Halmstad
##ols
Hval
træt
gmail
Isl
Direkt
##vh
förpack
Kroati
June
##keren
iaf
importer
##annan
##märkt
eðlis
tät
##Til
Telia
umtals
överensk
munur
skuldir
##dest
##Service
ADHD
##esultat
FO
##Inter
þinginu
##ladt
##ökan
aftenen
Aker
kunni
Ålesund
stöðugt
ferðamenn
jeans
Bjark
##félagi
##sklasse
Stadium
Jim
hvetja
herberg
hreint
##spert
##hjæl
##ICE
arbetsupp
##okrat
skjá
virksomheter
##uella
omedel
Akranesi
premier
##økonomi
##UC
aft
renna
redskaber
levetid
virtist
mjólkur
vänder
lederen
seger
##olas
formålet
vélar
resultatene
mærk
Tryk
kontin
##ifikation
känslan
##bun
óháð
HE
##isted
##ures
servering
strik
Slagelse
##Det
loksins
Landsvirk
399
útr
##afram
viðskiptum
Vegager
Hob
##elighet
kundens
Dark
livsl
kostnaði
##ækning
verðmæti
Lett
##sbu
body
Company
##tap
Studie
rammet
mennesket
innlend
##XX
ordfører
jök
formidling
##lægges
introduktion
spilar
##bringe
þvott
frumvarpinu
vice
Plant
skrä
##legen
uend
lant
ákveðnum
##BY
Amager
##via
##stykke
møtes
Vejledning
nein
hlutum
##minal
færri
Löf
##paket
grunnen
telt
sjøl
##örd
Urban
Wolf
Helene
Henry
##líka
Flott
##kalla
##åring
##cup
138
vården
Gram
Eirik
pi
Lak
videoen
isen
Nyhed
##IAL
##oween
diskutera
postadress
anord
fasciner
stofnanir
enska
blodet
Träd
elektro
skaffa
rétti
##heldur
##itten
kreves
tilladelse
noga
raunar
lækkun
EAN
sonur
kveð
url
meningen
##erty
hálft
##sturs
svarende
HIGH
styres
##íminn
måling
indholdet
##dukt
leiðtog
Allan
mobb
fange
Hjer
afmæli
##IGHT
varma
okej
Ítalíu
kommunala
ultima
sänd
##sättningen
galla
##mót
##tice
##visen
Åsa
Kaupmanna
kaos
turnering
forbruger
leiks
langa
kræfter
almenna
fengi
Hillerød
persónulega
kräv
Sista
##óma
fad
praktiser
planerar
kortare
Valen
205
##asert
Erlend
##basseng
Samhäll
säkerhets
lukke
styrka
##utvalget
mjólk
pent
maling
spurningum
Singap
TIME
skjermen
benti
butiken
##býli
##fjorden
Eyjólf
Motion
leitar
neinum
ulem
prisene
##ikalier
hátíðar
avs
Sønderborg
Ísrael
tele
Parf
bivirk
Fakt
Dubai
appels
Arbeiderpartiet
##emeldinger
ære
italienske
##Brow
formidle
##200
tabellen
tilnær
##ensid
##TH
hunnit
##faglig
Hurtig
Hop
verkið
CA
Tiden
bloggar
sanger
välkom
##cture
vinkel
fimmtudag
lægges
##FO
Frakklandi
rist
þjóðin
odds
Skicka
Elektronik
##arten
grense
FNs
fjernes
förny
semif
skrifstof
Anette
Lom
berett
Tryg
einstaka
spurte
legetøj
Jylland
avslapp
##zar
size
yta
##datum
algerlega
##analys
Rau
Beliggenhed
Marin
JA
Expl
nationale
##ivid
jagt
Mode
Enkelt
rätta
##ignar
vikna
hinner
nere
úrvalsdeildinni
##war
##ugen
##dráttar
Oavsett
##firmaet
his
framover
##rommet
##kak
##proc
personopplysninger
punk
individuell
Karlstad
understøtter
Carsten
Lykke
Bach
Sau
##igi
##edie
dokumentere
##resta
kompakt
##þætt
þágu
norra
tilskudd
hamingju
jólin
tö
##GER
reaktion
##eline
brjóta
##föreningen
mysigt
hjørne
##moen
uheld
latter
##röm
##änningar
tillaga
Bogen
##olaget
##ME
##udsj
Stefndi
##umen
##samlega
favoritter
scene
restaurangen
Regler
Hotellpriser
hverri
##aráðs
Iver
tarm
SOM
leyst
overflade
Häls
hoppa
##OMPL
flexib
##planlegging
##konsul
veiða
##sraels
##buss
##øjelse
Skipulags
##ublik
##allag
bange
Secur
utöver
dekket
Sör
Herman
##hälsa
úrslitum
Vísind
Guðmundsdóttir
miðjum
medium
##ILE
##domar
##búnaði
##mrh
##ingja
##rass
Oh
##hneig
administrerende
##stöðinni
Institutt
##esam
##prosjekt
tittat
Young
frys
Loc
##feltet
Ná
Casa
##ján
##allerup
##agner
sjukdomar
nb
hegðun
##skirkju
Uds
antar
festen
hallen
ungt
long
Sala
spont
##adgang
Spørg
skib
enst
elsk
eventuellt
slim
karriär
áskor
heile
traktor
förmodligen
ítrekað
##ograph
kompetence
Annon
grenser
hensikt
##greina
øjeblik
##sparti
##shospital
Expressen
RS
springer
rekruttering
hliðs
##armerende
etableret
GD
##jakke
tilgjengelige
##önnunum
##isens
##skaf
arð
Excellence
##prø
##ðari
##otið
Kent
kryds
pressemelding
yde
##ae
sædvan
orkar
##ithöf
fugle
Kurt
Page
Engin
##ston
skand
myndast
##ferdsel
##linjen
øynene
kvartalet
##efnis
##husene
Asien
matte
Dnr
sjokolade
select
bidrager
ástæðum
føres
Andri
##frihet
##BER
telefoner
Aftur
##oppgaver
fremstillet
Andel
kameraet
##kunar
voldsomt
Public
Lut
jula
##emedels
fróð
Glit
Cir
Pink
einkenni
##lia
136
Tvätt
ástæður
inclu
##ímann
Dame
Önnur
##lægge
vikið
bóta
##ampoo
##rata
Ástr
Skift
Otto
Knudsen
##sättningar
riskerar
vägar
##flö
plasser
Tanken
Installa
Kasper
stans
lenda
Grip
Frode
yfirvöld
##virksomhed
fria
fjármálaráðherra
##skill
##GEN
##belast
##bete
##Display
Isak
##fråg
##veru
aviser
företagen
bestyrelse
Kommentera
fravær
julkla
GK
##asjen
##sministeriet
hållbarhet
nedsatt
motivation
löne
leveringstid
bunn
ledarskap
##aldur
KM
karlar
##trykket
##serien
ingrediens
##artill
trúa
jafntefli
efn
tenn
##Special
##stationen
ønskes
marketing
##anmeldelser
##plade
Lillehammer
##uleiðis
Jackson
artikeln
Gil
Lyst
##amat
variere
133
lämnat
beslag
##Browser
##villig
##ýni
vejret
gerðir
Williams
##oa
ráðstöf
nefndin
##øder
Stað
cru
þingsins
lýðræðis
värden
viðhorf
Kru
påverkas
##astjóri
frest
Hjá
##Show
mánudag
drabbas
Moham
Johnny
##gor
fakultet
hagen
sällskap
Law
Andrea
Gotland
ulik
ókeypis
##sbreyt
avlopp
energim
##ingets
samfélagi
##Up
økologiske
##artet
lägsta
þáttur
Guðs
Poly
fylle
tekstil
##böcker
##gæslu
væsentligt
rou
##eform
##speriode
USAs
##skun
nævnte
##ference
gast
minsta
sýnist
tegnet
stofnunarinnar
##asemdir
research
godkendelse
komust
dækket
Vestmannaeyjum
bära
##viste
rets
fit
##ogas
inline
Konser
Senere
Júlí
utstr
##serie
Árna
take
##verið
##castle
Undersøg
mögulegt
850
ansett
##gerðum
tekinn
Commun
fyrirtækinu
koord
garderob
boltann
131
##olkning
LEG
##Parkering
Billeder
##bilen
But
##avtale
##appar
##cs
##iverse
Australia
plac
##amme
formlega
forf
erlendra
partik
Íslandsme
jafnan
adop
Tip
Milan
Jóhannesson
##anning
##hip
Sveinn
##próf
minnast
stjórnarskrár
fjóra
##rätter
##borgs
juster
bekost
melk
##info
þjálfun
tverr
enheten
opnar
forsøker
##slo
kogni
forstand
PAY
åtgärd
them
konkurransen
makeup
demens
##avik
##astrup
##drett
kynnast
##personell
CTA
##SIDE
##rafiken
Mosk
##aktioner
##emen
most
hjulpet
administrative
##Ph
forsendur
ræddi
afleiðingar
bydel
ordinarie
præsident
Pau
Asp
påvirk
##Count
pump
forlag
##xus
ulovlig
hovedstaden
Tours
Ene
##eyer
avsluta
##veð
nære
Garder
kvalita
##jurs
feedback
fødselsdag
angreb
birta
fattige
asfalt
eruð
Helgason
hlutabréf
hrif
staðsett
Kän
netto
skoðað
##óa
rulle
Equ
hópnum
sammant
Uge
dricka
Fas
##VAL
##invest
##ærende
hovedstad
Inledning
##ryck
##smæssig
##opher
tat
##cancer
Poulsen
FK
försökte
bankanna
##løn
##Qu
##akar
gjestene
##skabs
AIK
##wi
varslet
venjulega
Swedish
##alá
IKEA
##Al
väst
kvind
haustið
utanríkisráðherra
##vernet
påbeg
minimal
starfsmönnum
##elej
klst
Prag
torg
erfarne
##ämnden
dimension
##jare
telst
texten
attack
##ligste
polyester
kjöt
Place
sher
Viðskip
##eyma
samþykkti
##runn
lounge
þjónusta
sock
inná
Lego
dott
##äkra
gradvis
##rerer
foreningens
pub
sjuksköter
góðir
##bilde
##emarked
begrund
##sprø
137
##enskri
##orama
setið
pladser
präg
beskrives
##tagere
verksmið
Postet
anbefaling
##vestur
þróunar
upplevelser
##abré
félagi
Orange
suð
Oppland
dýra
handicap
##kerfinu
Hermann
PROM
215
rapportering
##mö
varnaraðila
Aktiebolag
overst
sikkerheds
Mikið
##nadóttir
vín
480
6000
förum
##ämna
Ákærði
elva
seil
forandringer
forskjellig
Praktisk
missti
Frida
CS
börnunum
SKAT
Adri
såkalt
strålende
anhör
individuelt
##instituttet
##kende
Dine
lyfja
##önstret
grænser
Mom
Njarð
##götu
##ledere
ødelagt
Evalu
##äljning
alarm
stjórna
dygtige
ovnen
##underlag
utvecklar
##ahá
##ögðum
rummer
Blev
management
rafmag
byggnad
Passer
skýra
Gel
Taggar
##produk
Skolen
##öljer
Opti
##GR
vunnet
##pson
Kurset
deiliskip
Nicola
spørgsmålet
nemendum
Support
gear
rauninni
##vanlig
miðjan
##linje
##ndagen
Åp
bætur
depression
##ministeren
Håkon
##snivå
sauð
satsning
íbúðir
##råder
##årige
##ýring
##any
vísan
##skáld
föreningar
Prote
Normal
meters
Selskapet
begyndt
uppman
##delelse
Ingólf
Partner
##jernet
##stuð
hæfile
hefir
##ologien
##rie
##øvere
hormon
spelat
AA
##menni
hyb
generalforsamlingen
normer
bug
begynde
##arma
sóknaraðila
##stres
##bat
annons
lofti
dreier
Miami
kjole
Offentlig
##Kontakt
##isma
##sförs
utføre
Point
ingeniør
insats
energik
##fulle
##oria
Boston
##inux
forskerne
Hvar
##ífi
stolta
fréttastof
vinur
atmosfære
betragt
fotos
Speed
plöt
##ábyrg
reynir
bin
##siktig
korre
omhandler
sluts
keppnis
##eträd
##agar
##onia
##ikatet
verre
undirbúa
kunnugt
röster
Mill
##tekjur
sviðum
anslag
Heller
nýrra
##ih
ráðast
##øbing
##onde
Idrett
ledningen
viðeigandi
##jóna
begyndelsen
Arbeids
Held
áform
Samfund
spesif
995
##ppu
Pálsson
centi
vegi
##skontoret
##óna
heila
íslenskt
mynt
would
##tråd
sönder
bevægelse
skóg
##efors
##jarnan
##SEC
hop
katalog
Affär
Cream
tyrk
##amín
##autif
jobbigt
##oul
##periode
satellit
oppover
NV
orða
##ierad
medlemskap
Vision
Lie
##odden
larm
kraftige
##villa
hemsidan
kompleks
##bostäder
##berandi
ekstern
##stall
útlit
hant
1965
##ínar
Cos
tvungen
Stjörn
##itere
halvdelen
værelses
PAYMENT
stang
regnskap
##GEST
##abygg
##herja
Slu
##træk
Tveir
lejligheder
ágætlega
##sburg
frihed
##yrirtækið
föreslår
##gunars
tillhandahåll
heltid
verdenskrig
markið
Grey
##store
##ilegan
verne
afsök
Hótel
Halvor
##prøver
Tog
kærandi
##kommit
What
kup
Emne
akvar
helga
rekstr
##lusive
Produk
myndin
juridiske
fjölmör
finish
indgået
Magne
rädda
Bund
##egel
Saker
ICA
##aksjonen
kalorier
##ukommelse
invand
##omsorg
##Hvordan
Rådet
##artíma
Lærer
citron
FRI
greind
##fræðingar
på
##vey
##starfi
knapt
Flu
##íkt
imøde
fundinn
##strakt
útaf
##meddelande
ærlig
behålla
sökning
frænd
købte
frekvens
Annika
##disk
Ringsted
##svil
##arning
einang
Bærum
##banan
kassen
Kaf
rat
##reser
##veitu
##ystal
##ammation
bærekraftig
forfatteren
jød
##slita
watch
meddelande
clear
##rænt
såpass
##entrepren
invånare
##gus
##asý
naut
##ferds
jentene
takke
koron
beskrivning
fika
##isti
anledningen
right
EQU
Rick
Sku
Main
företagets
##saktiviteter
afa
group
aud
ondt
arealer
Flokk
kommunest
röra
##gener
lukkede
Pix
henvendelser
years
##mont
##vokater
##shlut
##Populære
Sauð
Utbildning
författare
Stundum
løper
Elec
##trar
Brynjar
óþæg
ställning
cop
tomat
##styrrelser
grens
starfsmaður
ot
Syds
browser
Nø
skapat
vegetar
casin
Norra
Mour
ri
förklarar
Myr
sønnen
Kath
mængde
##íum
barer
föremål
##estående
pru
ríkja
generell
sponsor
deltakere
Afdeling
##xit
Columb
light
religiøse
EXIT
treysta
frjáls
NH
##sikring
##sammen
terapi
afgift
Bis
Upptäck
##styrke
Skjer
Vask
Tøns
##øyer
hände
renter
Egils
##elds
atvinnulífsins
fimmtudaginn
fördelar
udenlandske
COPY
fastsat
tilhe
tungumál
##udlejning
##utte
nys
Oliver
##umála
opret
Rundt
sunnudaginn
mandat
##adal
Alta
tidig
reserver
Shang
sensor
##änsla
evróp
Julia
jämställd
ofur
mínútum
isolering
mættu
certific
##egin
klat
hilsen
Cott
Vietnam
EUs
##besök
Tidende
hross
morsomt
##ssyn
verst
geyma
samkomulagi
Hvit
klassiker
drøft
lågt
pressen
Historien
arbeidslivet
##stiller
Ställ
Heilbrigðis
##bildet
##CES
palestin
pláss
viðurkenn
##oblet
##amynd
##risten
selt
undanfarið
totale
nul
fremhæ
##cdn
Kall
beund
fornuftig
Torben
soffan
##beskytt
innehållet
flyet
blok
viðfang
specialist
dann
identific
##enhavn
svoköll
Toll
QUOTE
##smat
big
##yckling
cy
2500
Mjög
Jimm
aftalen
stofna
Mallorca
algeng
Effekt
badet
golvet
Huawei
##fyrir
sådanne
Jär
mineraler
VIS
livets
attraktive
kirkju
fysiska
##ovid
kollegaer
##väst
samråd
Handel
Kyrk
Stefá
##fan
besöker
##leidd
søm
Bul
##illinn
mengder
erstatte
smidig
##øyt
Slott
kanon
Hamburg
einstaklega
sams
##shuset
misskil
##bó
##direk
lífeyrissjóð
hryðjuverk
##sney
Kaj
fugl
ovenstående
GOD
utgångspunkt
Steve
áframhald
trådløs
sykehuset
DAT
Íbú
greindi
sveitarfélagsins
##komne
Prop
avde
Foll
beregning
Jök
##mån
##Booking
Utöver
##soller
Muse
mundir
Quality
##fs
gjennomføring
##GL
planet
Listan
sandsynlig
mänskliga
involvert
win
Sher
##linu
UPP
opgør
völl
Fitness
##hverju
dav
andels
##ågan
##ione
útvarp
sme
##NS
Inget
vät
##format
Skap
politid
Marius
svårare
omstænd
årsag
tænd
Ori
vedligeholdelse
flyttar
##spyrnu
Øyvind
Hlut
uggs
gjest
##istikk
Christer
innleið
kombinere
reynst
##vensjon
nedre
##vörður
summer
kvarter
sjeld
Bente
##forn
Sål
vinir
##bords
Fotboll
##tri
ÍR
dybt
Restaurang
##ferdig
myndina
París
hender
operativ
##beck
RF
bókinni
##undersökning
barninu
Stof
Turist
##jev
##ämta
Lennart
åsikter
Firma
intresserade
BLOCK
nokkurra
sikring
bestämmer
argument
tilgængelig
veist
##sommar
auto
Note
##trolig
intervjuer
Orku
akutt
sannsynligvis
bandaríska
praktiska
comment
##änsle
nk
152
dynamisk
sext
sandsyn
grat
forvir
IFK
Folkeparti
publicering
##derna
närmast
Tagged
dramatisk
ämne
##ningsloven
innebära
passion
##raðsdóms
kasta
##búnaður
##aleið
flybilletter
##emid
Beställ
##forslaget
##obi
utök
##ologiskt
Snow
Jóhannsson
##angt
Náttúru
##dokum
##cho
Bangkok
framleng
dispens
Inf
forsink
breska
Nordea
##nota
Samme
kommentere
##RING
tænder
Nordsjælland
Hilmar
helgar
RB
mormor
Recept
Bayern
udk
Skin
vardagen
vul
garage
##ruppen
langsomt
kendet
Newcastle
used
Es
tredjedel
##huvud
##bard
forbedret
Buk
##redet
##fylt
main
Íslandsb
##ée
vidste
##PRESSION
##Press
Puerto
æfa
##norsk
##insdóttir
selges
##anerne
##ämpar
##hæft
stjerners
HMS
eksemplar
smartphone
troll
Delta
##varnar
ekonomiskt
Francisco
engum
##gri
##nick
Certificate
RES
hinni
##elti
angivet
utomlands
minnes
Anita
militære
##läkare
##anderborg
##alaga
##politikk
mottar
SITE
lækkað
blandet
gig
brygger
##jenda
þver
sjön
viðkvæm
gjaldþro
arrangerer
tvunget
dagligen
PU
margví
Tvær
branschen
##ITIES
##ustom
næringsliv
socialdemokra
förvalt
maxim
motsvarar
Ow
almenning
##papir
arrangeres
gjorts
STAY
havn
jár
Nag
##spsyk
Dur
ps
##STER
Gjør
Redan
savner
fylt
151
främsta
evenemang
Tony
MAN
skjema
leverantörer
oprindelige
##verktyg
vakker
förvaltning
övers
##ramme
##ändring
Gennemsnit
kammer
hytt
avbokning
beskyttet
italiensk
dörren
rätten
essenti
##vurdering
Ices
Sarah
tyska
##geð
##ropp
konstnär
##derslev
nøyaktig
##flyg
Berling
Vestfjörðum
avslutter
augu
æfing
Nokia
Vef
våk
oplæg
saa
kvöldið
##ärd
##osc
bestämma
framkvæmdastjóra
##mit
Hvidovre
bestod
TID
straum
gildandi
åldrar
väggar
retningslin
Kopp
Standardværelse
koppla
tilfældet
Alan
forberede
lifandi
riksdagen
Aas
##máli
mulighederne
hytta
noll
verket
##ults
##sområden
Pub
aksjer
Ini
producent
fastighets
##ordinator
KUN
Bakgrund
Amal
omvendt
##värden
skoleb
##ställer
##karakter
øjnene
scoret
markmiði
MSNBC
##point
##flykt
##empler
leka
NAS
gólf
leiligheten
presenteras
tapaði
etterhvert
protester
##meldte
fordeling
##bekk
Namn
Cand
kallt
Spara
##sløsning
Bæði
varafor
##verum
köks
##bæra
Guðni
samþykkja
Bandaríkin
neppe
##infek
institutt
##cier
tjock
##akerfi
Klub
finansiella
mast
##sordning
Freyr
##emu
bana
akust
Rit
skulp
Pok
Veter
fínt
990
hyggeligt
herfra
Kostnadsfri
lagom
stadens
Niklas
##tímabil
Eggert
breið
##íðan
personlighet
ligeg
måneders
##inte
October
##egång
hérlendis
åra
##gets
Frågan
uppmun
1964
kommunic
yrke
lykt
##listan
##elund
Tesla
sies
ansl
##mögnun
##emester
Grein
kulturen
Clinton
hagsmuni
##engd
##urn
Union
##stemperatur
leker
samarbejder
contentId
løfter
##ískt
##elskab
##ologer
starfandi
##lopp
##ished
preg
##sle
##industrin
bekreftet
riktiga
eyr
CCN
##lier
skett
förb
hasDates
##inationen
byggnader
attraktivt
##holts
##ellu
##ymi
Org
Forsvaret
##ubú
foregå
tilfredsstillende
pøl
Gylfi
inder
FEATUR
nyfiken
sjun
##Scroll
##jall
AMEN
Jör
Öpp
tilbúin
Kring
Rent
rannsóknum
##smedels
Istan
tilkynn
Segir
sjøen
traditionella
skuffet
##idrett
forretningsm
systur
nordisk
förrän
##ahl
google
##årene
##alderen
verkalýð
##tasjon
Christine
Stå
##von
indrettet
kronisk
aka
inse
##jöt
fundist
forsiktig
fjölmar
AUTOC
##stuna
dómstól
spillede
##reiser
utallige
##éla
hringja
Klassisk
inslag
hac
förhållanden
indebærer
##minner
##elovens
Joakim
Fond
hjalp
##emmelser
ändamål
Opera
forhandlinger
implementering
plikt
hjúkrunar
vakið
ovanligt
clean
##ryl
##opti
syster
Bridge
Haugesund
##OMPLETE
lavede
motsatt
##räde
Your
##rán
smidigt
##komme
tränare
utsträckning
##félaga
marin
avtaler
##atret
ansætt
sparar
##jaren
##veita
sess
gjaldeyri
FD
##bestyrelsen
BRANDING
dur
Riv
medför
Företaget
Bit
tju
##etty
akstur
Folketinget
pabba
ályktun
dómsmál
München
vekur
walk
##installa
##rare
Resten
##mæssigt
bjarga
BUTTON
sosialt
##sfram
##transport
beräknas
##sto
daglega
tydliga
tors
##vild
løpe
kind
logistik
Nasjonal
white
##derende
þrýst
orange
billigare
Birgitta
##emaskiner
innsikt
##følgning
##svis
förslaget
EQUITY
behandlinger
modstand
rena
samningum
##rinu
utenlandske
kick
##skjær
FEATURES
161
rekommendera
Laugardal
Pot
##ósti
slid
belopp
eldste
##úrslit
290
OEC
gälla
##FORM
plagg
##häng
##færdig
jubile
##ksw
Frederikshavn
recension
referen
morsom
##FL
##ræsent
avdel
##nns
vri
##acT
Rebe
##bie
Forlag
##holdnings
kristen
bæjarins
tuttugu
OUTSIDE
fjórar
##steknologi
##reiðslu
svari
##tapet
##legges
HIDE
##GI
Quick
Anmeldelser
##bóta
aðstand
riktige
##Mapp
tónleika
##öflum
##ôr
ifra
##scenter
does
etableres
CARDS
##kene
skjorte
Materiale
##sögu
##iddu
læknir
stórkost
faldet
foster
##IGT
godis
alp
hlotið
unglinga
##autiful
síld
##allerken
##itölu
##ssur
gilla
Tam
##étar
Fager
hänga
##merter
##onsulent
djú
ændres
ideelle
##ställande
aðdá
ákveðinn
##ycken
Líf
fisken
Frisk
##instrum
##anny
##arfi
##Img
leikurinn
PRICES
minnis
hjemmesider
nægilega
keppa
uddannet
ICONS
trúnaðar
##ulen
mångfald
Kristiansen
alternativet
rådet
ríf
##lampe
IMPRESSION
##nic
jafnréttis
súkku
kerne
Slet
##faciliteter
##fjell
förklara
##SECURE
##imi
skåd
AMENITIES
behandla
STORED
fulltrúi
##branschen
livskvalitet
dagur
Henriksen
LARGEST
##bell
stóran
##änker
botn
Christians
tölvupóst
anlegget
skilning
checkIn
Skóla
øjen
medicinsk
skilgrein
OtherOS
bankk
overnatting
checkOut
##Mappings
indblik
INSECURE
##jorden
##HacT
isTablet
pollingEnabled
tacdn
maxRoomsTo
numHacT
bookOn
metaAvailability
ibAvailability
ibHeader
OtherBrowser
roomSelectionModel
deviceInfo
preventScroll
contentIdMappings
CCNAME
AUTOCOMPLETE
hacComplete
maxRoomsToShow
numHacTries
bookOnTripAdvisor
ibHeaderImg
tegundir
vörn
problemati
málin
sjekk
Køkken
Spotify
rov
Atli
rúss
tilsku
hustru
Arild
##PLAN
##face
##ræning
##WORD
Kve
Hvort
Grek
##estart
gæslu
planlegging
##joi
værktøjer
##rinn
1966
##jöd
armen
##yge
optimale
proced
syftar
##sfest
Þrið
lukker
døden
mamm
folks
fjárfesta
sykur
vellykket
Kunne
Personer
leiddi
420
nar
##aktiv
arbejdes
klúbb
##BR
afgang
Kok
##boka
Kære
bragt
overvåg
slæmt
dansker
Fit
rank
öppettider
forumet
##enez
##ikevel
KK
regl
kleift
##lander
grensen
##ureau
##bbe
##idens
Joe
##aðri
Dennis
innflutning
ís
##havs
svenskt
hlaupa
samráð
##orlof
Betal
specifikt
rejält
lust
ift
symtom
##PER
helsta
##bach
##gate
drives
fjerner
Þórðarson
##íel
PASSWORD
opskrifter
1963
heilbrigð
##kø
kung
trengs
Singapore
udfor
##otika
snak
Dyre
DIN
##Kommende
naf
lokk
Korea
analysere
egenskaber
Mov
##lagg
flyplassen
manninn
##tabelt
drikker
Refer
yngste
##seud
knall
##mil
församling
##ännisk
verkligheten
Philip
sjálfstæðis
lokalsam
380
Lätt
optimer
undersøkelser
##ulære
Buss
##aðs
helm
OECD
##olis
Einhver
##Token
Þið
dram
outlet
integritet
administrasjon
einstaklingum
forbudt
sygeplejer
HAR
Gutt
rennur
Mike
Tycker
farlige
##eftirlitið
##eborg
##Query
##rukne
udnytt
koble
klient
1400
gennemføres
skyldig
bedømmelser
Mick
sykk
Gunnarsdóttir
samningur
PROMPT
##aris
##ejl
aðgerðum
koden
KNOWN
läste
##ador
loð
Flemming
##inans
förskolan
Nánari
innovative
##ici
Dels
vonast
##óru
kvinnen
Orienter
varði
##sgr
óeðl
Kines
Middelfart
Bibliotek
födels
##vitenskap
skiptið
Maja
##plast
Greg
Therese
áberandi
brands
stadion
aðgengi
##elf
Icesave
besøger
##förening
##emæss
Found
gerum
indek
##områdene
##virkende
##dent
indkomst
Ekonom
Vint
##ställt
ráðgjöf
Innlegg
##virksomhet
Ale
stilte
sper
FVO
Greve
borgara
##Mad
Mikro
skaff
heiminn
Rejse
##SEN
Skanderborg
Halldórsson
tålmod
LÄS
mannvirk
Residence
##front
##húss
vogn
läggs
##institutioner
##raa
hendelser
Svavar
##ligh
internationell
LU
offerClick
offerClickToken
##sförteckning
##félög
##regning
arbetsplats
gennemsnitlige
någonstans
Maks
försvinner
##ariatet
gall
##sfag
omstilling
Jordan
##hengige
Bergens
besvær
regelverket
##emater
datama
##And
bredband
kompati
##ntgen
märkt
two
Bloom
rutin
Square
##lif
Mennta
svenskar
svin
##värk
oppfordrer
gilt
##splatsen
dommen
Statoil
frelsi
Steingrímur
forretningen
##ækket
Fiske
UC
félögum
Monte
departementet
##Cont
frumvarpið
vågar
overh
Størrelse
årsaken
útreik
##apeuter
gevinst
Niss
stjärnor
##ímar
##ÄTT
Ritz
##slov
kontinuerligt
mys
eini
veggen
reikna
samarbejdspartner
##idtil
motta
Frit
Services
óttast
aner
heldige
vandræðum
141
skorað
sjove
salu
förhandling
andlit
##rænu
Afríku
Viv
maksimalt
##lík
intill
entreprenør
spjald
##andes
Haderslev
Væk
Trening
Mæ
nedover
Centr
MY
hugsun
Tang
forsy
Måste
hybrid
hópa
##faring
brister
instal
##legrar
##ween
Institute
hvile
##sender
##onomi
flagg
selskabets
hjúkrunarfræð
rop
ägar
##spligt
Antonio
##sbok
Nivå
levererar
fella
Ænd
medisinsk
fætur
produksjonen
lektor
##anpass
TM
bat
skritt
sýni
Small
Röd
ekspon
Kampen
dB
ansvarlige
Middag
LIV
kus
##sbek
##rationen
kerfið
##setningar
##nsyn
Beauty
reform
delte
Sverig
CT
Konsoller
##omo
karlmenn
Blek
strä
major
frumsý
SOS
overordnet
inspirere
frygt
##emand
TYPES
Ulla
##ENING
påstand
nöfn
undantek
148
uppdraget
överallt
Enkelte
föräl
øyne
langaði
fallega
##visningar
##yssel
##rediter
##skomm
##setninger
væske
Skrivet
skort
##bönd
brugerne
framhaldi
310
inbygg
obligatorisk
##larnir
##endring
beklag
aktiviteten
Kjer
Pur
##bevæg
##ements
skratt
micro
TS
bjór
veder
ATT
##sbild
gerðum
##shore
##húsnæði
rithöf
Höfundur
##VIS
mdr
skjól
tillatelse
flokkur
menneskene
samþykkir
TE
##gjord
nasjonalt
afrik
Englandi
menntamál
däck
##notkun
dertil
halve
Sönd
##framleið
Sli
egner
HU
##ändringar
Living
kaster
afspej
Crist
rekur
testen
##organisationen
Båt
mva
stigi
##þekk
##anmäl
Stikk
löng
läsare
væld
statistikk
Kristus
Cho
heið
målene
##løser
##inspek
##tagning
privatpersoner
kallast
##STA
Breiv
##skaplega
##jörnu
Solid
Sidste
tillåt
##smála
frammist
1962
lott
##inket
##attes
##flokkurinn
eksisterer
Alice
smooth
skriftligt
##festivalen
##nastik
Danish
fundera
Klaus
Historie
falde
funktionen
Lunds
internationellt
opprettet
peger
tekjum
##ritun
IR
kran
forbli
legið
jQuery
vagt
forventede
formentlig
##efl
ruter
endanum
udskift
##øster
tímanum
fleir
##New
athugasemdum
Elín
Hilde
returner
sundur
Marte
KAN
kampene
Tank
opbevaring
kælder
##stransport
utenom
requ
##kkeligt
##Element
##gh
utsläpp
##terande
pulver
##iety
LCD
##DEL
sjanse
veiði
Dream
forebyggende
Nederland
lidelser
rike
143
ViaBill
avd
nevne
Alternativt
beställning
Komfort
forældrene
##54
Grande
kaldet
planlægning
##utrustning
Såfremt
desse
##æb
Bort
utendørs
entre
Íþrótt
tilskip
##ellefte
samvitt
nått
bachelor
##hra
January
sakna
Varde
Cool
Kampan
Sens
##App
allergi
dygtig
Market
Playa
bráðabirg
Porto
147
lat
smärta
##kender
tydligen
##rason
opplevde
Cha
##reglur
##oration
frumvarpsins
Birgir
##rence
Kör
ellef
hress
medm
##takið
##oleum
spæn
hót
leta
##prøv
##manden
Skån
##kjøring
gjenopp
betrak
Arbets
pred
Spare
vissu
##utleie
undersøkelsen
Wien
Byen
##vegen
##NG
vindmø
##ánæg
endt
##alds
råvarer
##kea
borgmester
videoer
nåede
syndrom
340
##ADE
samfélagið
oppfatt
Marine
lögunum
##ðina
##frågor
värsta
gun
skärm
sparis
Reykjavíkurborgar
filosofi
##VC
afmælis
##nanna
##virker
Hens
siffror
hringir
investeringar
Tiger
##líkt
##etra
SFO
Volksw
Dani
temperaturer
áframhaldandi
##ques
skapi
pænt
dåliga
ákaf
##IER
##immer
##anskt
##átta
byde
skynsam
##Pla
##vatt
krakk
Ríkisútvarp
filtr
Blá
skráningu
Drive
##emå
erklær
anläggningar
udv
EFTA
##jyske
##ældre
##oline
1944
1961
mulighetene
##51
##HF
Bat
Filipp
maden
leverantör
Edition
PP
samhliða
##kassen
Kristianstad
Staff
##uki
Hál
markeder
vädret
ethvert
sért
forudsætning
kb
ökut
inspirerende
Us
webshoppen
##fonden
ástandið
##äda
##ingent
strek
##DEN
##ockta
stíl
Placering
##és
pratade
mörgu
tengja
meldte
þreytt
Öppet
##árás
##ication
##storp
kynlíf
selvmord
pladsen
Spáni
Grikk
Än
##sparken
##ibility
liðum
áratugi
topic
she
konflikten
ánægð
Bakk
##affel
VW
íslenskri
Virksomhed
ideen
arbeidsplasser
nettstedet
##ægler
142
sygdomme
##ITT
##läggare
finnur
Pernille
spin
abort
##ickets
æfingar
älskade
VED
Tyr
väs
BS
fín
punda
virket
vinnumarkaði
Besök
avtalet
##sbed
dybde
##verður
##huga
hagkvæm
upplif
##merne
cand
konsent
dek
##ycke
centimeter
##leden
laug
gennemgå
stige
sivil
##stinget
slået
Diverse
kopier
Hoff
frustr
Luksus
catalog
Vari
Joseph
##furt
##atkv
##réttar
##helgis
oppvar
1100
einfalt
fækk
skír
Drama
afi
auknum
Artikeln
oberoende
Landsbankans
twitter
##bespar
gátu
Nak
##fas
Individ
##ours
vapen
Spesielt
Oft
trakasser
##spension
read
gæði
basseng
Bättre
Peters
addition
##alerna
Værelse
uppföljning
réttur
Haukur
##emens
engasjer
##elskapet
ytre
batteriet
samningsins
##ctions
Fris
Veck
Morgunblaðsins
bokat
Iden
title
##hatt
fester
þingið
tråkigt
nost
spist
oppstå
From
Lucas
arbetslös
pålit
ból
samlat
Þeim
##luðu
##ENTER
Myndin
Arendal
Fon
spiste
Hugo
hertil
samningar
passform
Mah
Daglig
ríkinu
Artikelnummer
lærte
char
alltför
##olkningen
fráköst
##fyr
plejer
Åk
Bestil
##verðar
Storlek
boða
krefjast
äkta
avkastning
bopæl
##lapp
##endør
##sbr
Rosenborg
Markus
Kunden
önd
tunga
pakket
förvaring
byggist
hey
produceret
Engelska
Kjetil
##städ
samtalen
vass
tjald
##imod
Hjørring
##lending
vidunder
föregående
grus
##asvið
släppa
Bolaget
Women
aukast
Gård
Youtube
henvisning
##sbar
danskerne
Fox
Digit
nedgang
##ponering
##gio
séum
Patrick
praktiken
byttet
enestående
Fikk
Eskilstuna
Cu
##ventet
owners
tycka
##skipt
flyttade
grunnlaget
framundan
reservere
ummæli
beboerne
##øvelse
##amerika
räknar
Døg
nyan
##aring
##Google
SEO
##iche
##smand
innrétt
##LP
##mary
indretning
kjeller
styra
##ínver
Berit
##pedagog
Samuel
##vísun
##laðinu
fulle
Försvar
##gavene
eksist
tilnef
Dina
##alje
ultra
Stolten
##arier
Syrien
Helen
##SEK
##atic
##húsum
Närings
146
komplekse
##falli
fyllt
opinberra
spanske
lovet
umræðunni
##kurinn
Benjamin
Niðurstöður
##GT
##vexti
burs
Elite
tilfelli
010
##ostrup
Dead
barnehager
##ikapp
Province
billett
frumvarpi
viðurkenna
##gengni
nýtingu
burt
svæðum
Kirken
athyglis
rannsaka
##spolitikk
grim
Fed
dauða
enskild
##völ
hljóta
##vans
KOM
Benediktsson
mos
Neden
samráði
Vålerenga
Matemati
herved
þroska
behandlar
##ningurinn
overbevis
stater
mikils
forenk
##odor
##uger
energieffek
##later
##ntil
Sout
month
handlingar
Besøg
##svæ
Wol
##dog
spektak
storby
einkar
nyttår
ränta
##verktøy
Norðurland
Mona
Särsk
signif
mannsins
##wall
##ledelse
deltid
sägs
Äng
Christiansen
##alar
##staten
frykter
noter
afdelinger
Ort
sank
lögðu
Stöð
länkar
PT
broder
truffet
##läggningar
søges
utgave
##veiði
sömn
varierar
begej
fótbol
fasteignas
kundetil
##kurran
anpassa
##úkling
##hjó
realistisk
##stest
lärt
utslag
##ömm
##kron
efri
katten
##vop
utfordrende
öflu
reiste
fören
återv
Generel
Kongs
NS
##jort
burtu
##strateg
Endret
moro
fryser
Lolland
SOL
ivar
bjarts
timen
fabrik
menneskelige
konsumenter
##Check
pund
Samma
almennra
dú
##HT
opkræ
Pant
sjansen
##ktoren
gummi
tull
tilfinning
##tikker
bestämde
##øget
efa
##illo
pigg
##barna
heilsugæ
glæp
##äten
bede
forbedringer
Hz
##havare
##agný
##nit
##museum
allmänt
utes
tycks
##fattar
sofaen
kyrka
##sledare
##aves
ændrer
##RAM
prioritere
sjokk
##utral
Endvidere
äld
##egruppe
kostnaden
undanþá
##rock
attra
##unta
samarbeide
Geng
Sveinsson
föll
GP
tilpas
Fish
variert
Idrott
gró
skylda
saft
æsk
##ktiga
##pró
##string
blöð
tapt
Statistik
Abra
sverige
stiv
beteende
verklighet
Modell
Pad
Cecilie
bjug
faktiske
udsatte
vasker
eksplos
Uddannelses
hérað
fjöll
optræ
tävlingen
Utvikling
undersøgelsen
##apest
úttekt
Ral
Eco
##smanns
Ts
##vidste
teoretisk
Core
Amanda
tilkynna
kommunerna
expl
cal
##ulär
Jen
##edda
fjärr
Patrik
HÍ
íbúar
bidratt
fórnar
Maur
utmerket
Tove
##öva
psykologi
retro
##smodell
Zo
##allafall
##varða
spurningu
##journal
reducere
##verne
Nul
Resultater
Flestir
frågar
úrslita
stökk
##ortet
línu
##hreyf
heimsme
##spartiet
Upplagd
fallegt
stjórnendur
utgå
Planen
Sif
likvid
eksperimenter
Olje
usædvan
Sýr
Bestyr
##stiltak
##äckar
##anere
skulda
##enhamn
varið
HDMI
##ingo
events
Udforsk
tabletter
sjúklinga
Nova
stoffet
Meld
gods
Holding
levde
funderar
Tann
plocka
##celle
nytår
stofnana
misten
inspirert
spilleren
snýr
virksomhederne
sop
##bøker
una
##skólan
Færey
##agre
indeholde
fatta
##dis
hjálpað
Tyrkia
##Serv
Verður
##ilæ
Rusland
##IGE
upplifun
Viðar
balanser
##slyck
artiklen
ráðstefn
persónuupp
starkare
kåret
##ature
tilfredshed
Prosjektet
politiken
pizz
delas
##uxe
spansk
innført
lister
innkjøp
ture
Audio
avslutning
##stitu
bytt
þrá
raforku
framangreind
kurv
smarta
ósam
voks
##resp
##Bil
shoppen
kjøpes
adresser
tilfredse
##typer
tapte
underviser
##foreninger
cigar
geim
arbejdspladser
156
tidspunktet
Ice
kjøkkenet
impon
into
keeper
Tokyo
##briller
Cecilia
etik
næppe
Moskva
leverera
Eleven
##rapporten
medfølger
Dalarna
now
##riere
redovisas
Synes
##kong
Virðulegi
fólksins
Corp
##ninnar
produsere
tork
##napp
links
rjó
konserter
##spektiver
ferdigheter
##hou
þátttakendur
trädgården
##undersøgelse
ekið
anställd
##eliste
##ryss
##EW
steng
950
gris
##amaðurinn
kassa
anmeldt
grø
Days
Elsku
##plader
påverkan
##itiv
linser
##fredshed
industrien
Vera
Talið
vas
takmörk
##eti
grønts
##ilis
oprette
##ivind
##virði
kæru
See
Stine
FIN
Sarp
völd
##avy
Tone
##uu
##jär
julet
Sydafrika
Solna
Corn
##ØB
serv
Kär
mængder
satsar
prøvde
##miljö
##elson
leds
distans
fagfolk
reyni
Agnes
forløbet
horm
##ellom
Num
##ötum
Cab
##ything
##msson
glemmer
##skoll
uppgick
tilføjet
##íni
##ssystemer
þvert
hantering
Generalfor
försökt
MI
##viron
Syddanmark
kontrakten
##regnes
##istarar
Okkur
##tabel
indsat
Formand
##az
Tryck
Udendørs
tilkynnti
komplex
Skellefte
##sformer
Leks
##varnir
##restaur
##arfélögum
progress
##ydde
##Hot
##arbejd
højst
förändras
##skuddet
báðar
leikmanna
kapittel
Ledelse
##blet
ish
aftalt
opskrift
##ITET
##ebyr
##astofnunar
sär
stortings
##innlegg
##nete
tillög
meint
##53
enden
##brun
##latt
1958
initiativer
medlemmene
trevliga
skemmtilega
ettersp
Húsavík
pakkeshop
Debatt
organisator
ärenden
helhed
Jessica
Åke
kosthold
garanterer
##beretning
produktions
lyg
##hjälp
mánudaginn
utmaning
forsvinner
syngja
hjemmefra
pynt
tilbúinn
Match
##værdi
##töl
##world
belg
Översikt
hvitt
pågre
omständ
care
havner
##hø
geom
Prov
rummen
##filter
bredvid
deiliskipulag
mans
##øbel
charm
Sälj
##lent
##sprosessen
##itas
gjordes
affärer
syre
rafmagn
through
nedbør
spesialist
underlätta
##asaf
træder
utforska
udnytte
jour
Derefter
Ómar
##foret
##endtgørelse
fastigheter
Faste
Förslag
dannet
Kali
køn
gengis
Blad
##rul
meny
talte
##udget
Navig
##Be
hliðsjón
selvstændig
dumt
cer
verðið
tillfället
TF
kirkjunnar
##ivile
Turen
ársf
greininni
##VM
oppgitt
Skagaf
rating
fore
##ätet
stilt
piller
tillför
drivs
##vef
frågade
Spr
kreditkort
opført
oppgjør
exemp
##ria
##amas
forstyr
ifald
Trin
##ulere
mottak
Exper
##akkert
opprinnelig
division
##cription
ligeså
Tennis
Stokk
BU
die
europeiska
synpunkter
sveif
Ec
upplýst
ligget
forbund
leikir
landsby
öron
kjörtímabil
MOBILE
Dro
teorier
krom
HOT
##hals
Konse
Kamera
ógeð
fokusera
##oday
Ballerup
kennt
##fuldt
värdet
##PPORT
ränt
Övrigt
168
Istanbul
áre
prent
umfjöllunar
billederne
ändras
miðvikudaginn
sykehjem
mentor
##Dire
alfarið
orolig
samtakanna
Blod
Mala
##bott
Hentet
##ieren
fylgdi
##sjá
mätt
kosið
##atering
Econom
præm
Samtliga
fellesskap
##gik
commun
##ÆRK
vedtaget
Kári
árabil
##önnuð
dække
Sævar
oplyst
Vísir
pepper
Hare
nået
hitti
viðræður
pad
##elserna
##ÅD
afþ
forsvarer
##organisasjon
made
##blá
mission
Tønsberg
ukene
hunder
hårde
##ssund
##ssyke
##idar
domstolen
Gæ
##oller
yfirgef
Pakistan
ts
advarer
forekommer
Före
##rætt
breytinga
Innehållsförteckning
##övde
Thomsen
tabell
kjarn
##ryk
forsend
bóka
útgerðar
INN
Behov
mótmæla
synlige
##uráð
mótið
##ráðuneytið
spins
##overy
##lli
##ställs
##cm
kolleg
##stæðu
Rengjøring
nettsiden
Følgende
læger
gebyrer
utenriks
vurderingen
aukin
tímabilið
Bella
Vatns
bager
Bist
mannréttind
##CT
##atning
##fod
Inför
instrumenter
##byggerne
Anth
skudd
gult
intelligens
åpenbart
utbygg
eind
bændur
##jektering
køkkenet
sträck
Slík
øya
ólétt
Anden
##lögreglu
##version
##Afdelinger
275
##skatten
##emet
fyrirfram
arbetsuppgifter
talinn
lednings
aðstoða
Die
risker
konsult
løser
scre
##96
þínu
Volkswagen
utarbeidet
##schef
##helset
##ickly
##utions
podcast
iverks
##ysis
##rense
##hússins
gravide
miðvikudag
tøm
hinar
Februar
##represent
Child
viktigere
knä
Face
Alltid
Getur
Istället
premiär
Revision
##sbyg
Initi
slås
##ómar
Basket
Berlingske
Pétursson
motoren
ställs
##riska
líff
begrän
opprettholde
nøjagt
søt
Vild
153
skyldur
længde
##æðagreiðslu
sengen
dómara
##fing
døre
Ronaldo
##sfr
Elf
Øystein
##skamp
plate
##kvist
ástæðan
##bogen
forvit
Hampton
skillnaden
Således
Rost
##sfall
skjal
komum
flís
kameran
pedagogisk
framkvæmdar
bredere
##oint
##ørrer
bul
##smannen
Leave
dálítið
fáir
uppruna
loknum
ASÍ
Sandefjord
Aðeins
1959
Pay
lämplig
##sutveckling
Ásm
##viti
inspireret
##sidor
Aaben
birti
løses
Värmland
synger
stræ
##lausn
sjávarútvegs
##gerða
Viktig
NHO
sykdommer
##ört
framhaldsskóla
regelbundet
##itime
##ooter
sýningu
##ilí
mistanke
##bundna
##Gen
##iset
athöfn
Frokost
trussel
Vidar
Skrá
selskapene
##verdenen
Obser
##dager
DD
Risk
Trumps
trusler
refle
##ókst
##lægger
##igheterna
reynsla
##Nord
þeg
##avgiften
sæta
Finan
SØ
jud
vardagsrum
##veksl
brænde
Fog
sma
analog
blikk
þýðingu
##sspel
handen
Tids
sakene
samúð
##rådets
##56
policy
verkefninu
jättebra
innh
väggen
Friluft
hellere
hjar
forskjeller
Christopher
kynnti
rydde
makten
stuðningi
oplagt
husdyr
Aa
stofu
stól
Gjø
fyrirle
##vedt
District
##drage
##hál
Bestill
##utsig
Lamp
Modern
instrukt
tørt
texter
Stord
##agon
##brigði
samvær
diskussioner
ryn
##100
Ið
tillatt
##ventus
SELECT
Forretnings
endurspeg
##uelt
##Servlet
Dø
157
##ndens
Butik
Reykjavíkurborg
moren
beggja
skulum
hoppe
##visk
Akkurat
164
##renes
ypper
Köpenhamn
Ansikt
hádegi
statlig
stíga
sló
##rænum
præcist
kjøretøy
Fyrri
##yfirvöld
netfang
##bloggen
globala
cykler
##ories
##datab
##øyen
##veiðar
skilur
Comment
Queen
##ido
Omdömen
uppvärm
Janne
##jöri
landsmanna
lomme
##LD
##kets
Beij
Ryg
flyttes
Bub
nås
male
Áh
##read
##yler
##randi
Bilaga
##gest
putt
want
pædagogiske
pligt
värre
Prin
heyrði
##speriod
beretning
pasientene
utvidet
skera
vanskeligere
berast
konkurrens
Suz
##skritt
grovt
lansert
Fjöldi
##tagande
Bart
Strategi
upphaflega
Fylkesmannen
##ifreið
duktig
servere
sål
evnen
Schmidt
##fara
##hage
Þessir
kanter
stannar
aldurs
##hern
truet
##stet
SpilNyhederTilbud
återförs
##zing
##setting
staff
rettss
##anlegar
málefnum
##verksamheten
áfengi
hverfa
vinum
##berne
siktet
heit
bjerg
regiss
utredningen
hlutina
tilslutning
##äckande
inniheldur
Lip
betyde
voða
pseud
##ingeniør
omöjligt
chefer
gyll
sluttet
þykk
##holdere
##akost
expert
images
komfortabel
försikt
##bers
##Of
Zlat
##anceret
utbred
##námi
stey
víg
Leo
gardiner
praktiskt
divisjon
where
betalning
vellinum
breytast
nåværende
##amilier
rekrytering
uppfattning
bec
##stam
##egne
gjennomgang
##kle
Anmeldelse
þriðju
Bug
Mvh
Brukere
##reisnar
##barhed
syl
##lausu
övergripande
låtar
THE
gestir
##usiast
##other
alltof
arbejdsmarkedet
forurens
Henri
Mý
##Par
##æisk
##flytande
##anas
ramen
afur
engasjert
fagligt
sound
Energim
##98
mengde
augljó
runder
turneringen
seksuelle
raunverulega
Wahl
##fn
sunt
##áttum
særskilt
generasjon
Förra
litlum
aðferðir
##ffins
##ologen
matvæla
blogger
##blin
tölul
Dubb
sugen
##äste
Christoffer
##ämnen
strong
##stillstånd
##kvörðun
158
Bik
PD
##brún
Sérstak
##agnir
heimildar
Hjemme
virkelige
Alltså
##tism
Gentofte
##amarkaði
ytterst
Klimat
heimspek
Hre
##aröð
##bíl
Friday
vikten
Inbunden
##fiske
1948
släpper
Evrópusambandið
Íbúð
einasta
kja
hidtil
visit
årsager
fader
##örjning
Baggrund
##middel
Kau
planlagte
##grav
deltakerne
##luster
Call
STR
kraven
Hafnarfjarðar
##rætó
omgående
grønnsaker
##emokraterna
kliniske
partene
##øvler
##arly
boltanum
forestilling
KD
þunglynd
Vilhjálmur
##råds
Happy
##IKT
##otion
##ylor
dennes
smått
stödja
jämförelse
##ingenjör
##rier
nefndinni
Nefndin
tiltölu
vinsæld
Scen
##ræðslu
##loss
popp
##inta
antibiotika
bredd
##skam
Benz
bibe
hæfi
##gat
154
Sarpsborg
drott
kombinert
##óði
neikvæð
notaði
##íms
refleks
byrjunar
Thisted
Wilhelm
hjørnet
evangel
1956
##verðs
##estyrelsen
##tsins
JP
booke
##sete
Sigurd
Klock
##shemm
##fundet
Ahl
velegnet
kille
stockholm
Sumar
Ukraina
knappast
upplifa
skån
##pers
Undan
Lem
##grepp
flyktninger
flygplatsen
flis
útgjöld
##änkta
##sperspektiv
##AMP
auglýsing
Hat
para
Viss
Birna
##innet
##øvrig
gjaldmið
Arbetet
brevet
##MER
Läng
kunders
ødelæg
Årsrapport
samningnum
niðri
fallist
##ötter
Inspiration
víðar
ivareta
LAND
##Tree
utbygging
Lisbeth
påvirkning
objektiv
##bréfa
Normalt
OCC
##inue
lyde
##dör
inntekter
fjórir
520
bróðir
Excel
nedsat
Stoltenberg
##ferða
##dateringer
Óli
sopp
Þórs
##amman
ppt
overna
dagliga
geomatikk
besluts
trender
study
##íns
Hansson
Potter
hellig
Aabenraa
tillverkar
Haraldur
FIF
##verðu
##aðilum
tilbo
oftere
bivirkninger
##punk
##programmer
##skoða
stýr
foreløbig
Ara
indstilling
Blomster
verra
Did
##cky
Church
Östersund
besluttede
koblet
DAB
##løpet
##íþrótt
inní
America
Reglu
fredagen
lífsins
Odder
##ägenheter
##kam
frustra
matlag
minskat
Trygging
smykker
##smus
iallafall
speciella
ní
##oh
MOT
vaxta
resterende
Nykøbing
##ulla
reelle
aðdrag
##forbindelse
Project
förvå
##faglige
##ónus
sikte
ráðist
skutt
heimsins
kalle
##serligen
launum
travel
##nuller
frågorna
gengu
brukerne
studenten
granskning
Øvrige
vinduet
manden
aning
Klubben
yes
stærsti
menningu
Forel
havnet
MOD
oppfyll
negativa
Mast
tjekke
reglerna
gólfi
Livs
overlay
##hækk
skjóta
##öft
forval
nettside
##ging
Hjälp
##umhverfi
björg
##kommet
##funger
Arts
mental
##utar
##LEDNING
Jørn
brugen
sjálfri
##kostnader
162
1300
##sendt
ordinær
##ferli
##sprofil
##ndar
##tagelsen
reder
heimildum
Passar
flad
Gulv
upptäcka
fav
smink
##ðaustur
dyker
heimila
370
hyper
##rænse
##vanta
servicen
Fisker
Wales
music
hdl
serverer
mysig
eu
ferm
segjast
flugvél
##nåd
nýjustu
efast
peber
##alenderen
167
væsentlige
retor
##geirsson
nøgle
tekniker
kanalen
sinnt
##operat
##VAR
BC
##änts
##verige
hyppig
163
láni
##tator
grej
úrskurði
lengde
##ird
##levering
samlar
MK
øvelse
döda
parker
##lýsingum
Zealand
##flokka
Abraham
Ír
paus
fylgst
storlekar
Prix
framleiða
KI
vig
##Op
almindeligt
fást
udb
gætt
doser
Pav
##eklass
##ámi
fárán
dygn
1955
##presjon
reaktioner
##jens
##iper
##konu
Traust
Milano
förhoppningsvis
Skýr
gífur
íslenz
strategiske
Touch
##malm
##hle
Sån
##medicin
analysen
February
ELL
jákvætt
##issar
##iert
##spelet
Arctic
sikres
WOW
anger
chancer
óskar
RT
performance
hafna
Þátt
##angrep
Vak
##sætningen
##sorg
Linux
##verða
##iren
##nari
##víg
Stens
uppmärksamhet
Tillhandahåll
almenningi
##sre
Fim
##57
intressen
þættir
##unes
##slovens
##lyg
föreningens
##my
vaknar
##gjafi
betydningen
havnen
flinke
þingmanna
oppleves
##esal
##línis
AI
Ruder
farvel
Shanghai
##ileder
nedenstående
britt
Källa
þjá
##ulator
Private
presentert
##94
Absol
##sporter
greiði
##imenn
hét
Arkitekt
##ppene
Lew
melod
##bygningen
skýrslunni
##afla
komplicer
kabler
##edy
växter
tydelige
Trend
sannsyn
assistent
lærerne
8000
Skjø
rekommenderas
blæ
##kenni
nyder
ideelt
misslyck
PE
tillgod
figurer
produserer
flygtninge
##FER
##areg
motsetning
Netto
ýmist
orði
##skolans
Svalbard
buy
tvingas
skjult
nevnte
Nýja
##atilkyn
Aðspur
leiktíð
flestar
##aching
Eik
Kontroll
##sstud
##isiner
portion
Rele
##gsel
toler
##anlegur
hækkaði
våben
Stress
justering
miðju
skilaði
stelpur
##abú
hvori
166
##iley
oppsummer
##alögum
Guðjónsson
news
##ektion
fæðingu
Forsiden
slette
Skemm
##jenest
Cheap
gata
bb
áætlað
ernæring
Space
##hljóð
notat
bílum
Foundation
Tus
söta
pepp
hljóm
Marri
Én
byn
slippa
Camb
dukket
arrangert
födelsedag
nyhetsbrev
##album
##vært
verkfall
##jörður
forekomme
kub
opfylder
ökning
utroligt
sherpa
narkotika
Dagur
Nemendur
Utred
neina
##afi
aum
pú
Filip
Dist
julega
##æle
Detaljer
Polisen
##øket
cross
redovisning
##dern
vedvarende
##ycka
internationalt
Billed
elle
Viser
Control
tour
ätit
þak
løg
Jud
##unktionen
##lication
Produs
##grundlag
Ameríku
oprettet
likte
Sandberg
allian
##ISS
presenterar
Länsstyrelsen
stjernet
##REAM
##skande
##håndtering
ødeleg
Tenk
lap
kroer
sala
POL
Fint
##bh
halva
posted
nominer
There
sidene
lejer
212
salen
health
flygplats
fos
##ørelse
komnar
lokinni
fiskeri
Nedan
referer
fødevarer
##skapur
scener
fjölskyldunni
##Jobb
aldrinum
tákn
##modell
bekvämligheter
##93
beinlínis
##iej
sjaldan
tenk
##sse
studera
ordfør
Baseret
Ericsson
tren
aspx
tegner
förutsättning
bebyggelse
meðhönd
##bostad
##figur
forsøke
beskriva
förvar
##ebil
ástandi
förväntas
LLC
##ettes
##pakker
##öken
Bildet
bero
Brasilien
Ping
udkig
Avan
##dagens
##frétt
Dobbelt
tilpasses
Conta
Reyndar
Pont
##äsare
bæjarstjórnar
##odes
##produkt
efnið
##lation
hjemsted
flytur
##stöðvum
##etaten
##oid
##ringsfri
##ömning
Hydro
##key
##offee
opinberum
nyck
##alternativ
Bliv
Snap
reduserer
Spor
##igelse
velferð
235
##master
slegið
fäst
falske
##umi
##merki
Rimelig
undersøke
##slar
Bron
förbjud
##stuen
skál
Børns
øger
stöðva
frambjóð
antik
aktør
##jælland
Cirk
##elius
úrval
avdrag
##emarkedet
konkurrans
##nesium
nyanser
##mærkelsescertifikatet
krafti
vinnubrögð
kampanjer
##ipping
árangurs
höfundar
Associ
stjärniga
omfattas
Clin
lay
##otisk
##búðir
skönhet
kvóta
platform
##læs
JO
jakke
hádegis
generellt
Selvfølgelig
Styret
Sigmundur
introducer
undirbúning
alþ
##ampo
workshops
undersöka
skipið
frétta
utnyttja
menu
potential
Tem
blekk
kvað
Mogens
Teng
Góð
tablet
årsaker
Giv
##stigi
Häll
##agaz
1957
kret
##Name
Standardrum
virkelighed
Jonathan
vinnare
profesjonelle
Amund
dryck
logge
spelas
Fjer
##creme
tåle
potentiale
beach
niðurskur
##uppgift
##dioxid
móta
intelle
stadigvæk
##tökur
##skabets
##halv
opnun
Abb
Mount
##apeu
##videnskab
tiltölulega
skrives
##evne
##dshus
##Vær
##yttede
rednings
##usjoner
##æðingar
teknikker
bub
smiler
regning
understøtte
Sikkerhed
bús
dómst
Coun
flokks
##tish
rettes
betalingskort
létu
##jel
Drøm
Oliv
glu
balanse
##Vi
boede
##ssum
lagret
##smik
RCMS
medborgare
magasin
Elsa
##jana
##JON
Cav
konsument
látinn
prosesser
sögunnar
lyssnar
barni
##otor
þjóðir
Grønne
afkast
Ljóst
##ocke
forsvare
##tanke
LÍ
kjønns
Alfred
vorið
teknologier
Pierre
##edirektoratet
Beijing
observer
##prog
fantasi
##oppgjør
lögfræð
vátrygg
Simonsen
läder
Kaupmannahöfn
Hørs
specifikke
håb
forskellig
trop
##perspektiv
spot
umræðum
##regulering
iOS
Upplýsingar
paramet
California
kveður
neur
stjórnarform
hugmyndum
Frost
bakke
framme
verðlag
area
##YN
products
traff
præget
handlade
veiðar
tillögum
##ugn
Breiðablik
##ances
ákveðna
rau
samfélagsins
generationer
Heiðar
halvdel
Shar
fimmta
##utor
sömuleiðis
WordPress
Linked
begrunn
##kop
organisert
##legs
þekkir
uppfyller
##hvort
Ludvig
##As
Hostel
kulturer
##klund
nysger
##melig
Brussel
hvíld
ops
öryrk
næstunni
##trum
Mikkelsen
jörðinni
##veier
Jakt
inngått
Alexandra
Engine
##Danmark
forsøkt
Frjál
##ödd
uppåt
oliven
værste
husets
##materialet
##egod
##kater
finale
maksimal
tilfinningar
eiendommen
tolkning
##sproblemer
##førelsen
ss
Skellefteå
helikopter
##tronic
trim
##opera
##partiets
bankinn
Fjalla
##ímans
##sbolag
Taastrup
poolen
närhet
Carlsson
beröm
óvænt
Enten
sameiginlegt
Performance
föddes
##ransport
stået
Tit
Mira
fores
##stjenesten
statliga
##aðgerðir
mørkt
##åk
##stillings
##The
strikke
##estol
##rovers
tomater
256
företagare
trænings
udlej
bensín
Mist
metin
vundet
athugasemd
presentation
paras
##Store
kontaktperson
falsk
##åb
Studenter
##ensmad
Dial
dyktige
Netta
rap
Fart
mínir
mp
heimsótt
##ettur
stundir
hefðum
##teri
kjerne
##Post
##útgá
agera
integrert
hópinn
følelses
vælges
download
tapa
Vaskeri
##KTION
speciell
tef
##cellent
##stör
meðlim
brún
passiv
Rey
velli
away
##sfólks
barnsins
2022
##ørings
uøn
Nød
Larvik
återigen
forsvarlig
Elect
##jten
sammenligner
Pod
verdif
jafnvægi
elektronik
##entuna
##hafi
UP
ársreik
latin
betydelige
instruktør
Titel
bløde
lagðar
begrepp
##imo
þáttum
bladet
lífeyris
##valgte
Jesú
##jóti
hastighed
simple
Självklart
##lausa
vegvesen
Juventus
löggjöf
##tical
tilføje
##aterna
##ulasjon
Ful
Aqua
##ÄLL
ambiti
ríkjum
införa
##skador
1954
##rænset
allmenn
##sprosjekt
Arvid
reisende
SER
staði
forvalt
Staten
ML
##spass
##gaði
Skövde
människors
bliv
##idder
voksende
Írak
musiker
slip
slökkvilið
mfl
rædd
forleng
##SON
behandlings
troligen
After
##ðinum
ekskl
chili
semifin
Mennesker
##jukt
Hörður
Liss
kvaliteter
##jerners
værksted
Lant
trykker
ankommer
kt
plassering
personell
##jax
genbrug
sameiningu
uppskrift
hermed
##eback
Artikkel
pet
moti
heimavelli
forstjóra
politidistrikt
##ljós
##ffé
selskapets
sætið
kår
sprida
Wikipedia
##ctive
låten
##eftirlitsins
pleier
oppskrift
demokratisk
ovn
farþega
skapas
leikmann
Hellas
Nad
##ulær
oprett
Södertälje
NA
Lion
##zzi
Arnór
GEN
245
##undborg
krefter
720
##fos
Slot
forvand
amat
lukt
##sbolig
starfið
fliser
##orger
bevegelse
1949
väster
migr
shopper
efnahagsl
lytter
skyll
Jonsson
sveita
##steknik
Peri
NC
Vækst
styð
planlegger
Sørg
sérlega
synge
Herlev
##nia
##virkni
##ordingborg
##priset
mas
1952
konsekvent
Protein
Produktion
Atlant
Must
##skontor
formanns
sótti
Mora
oph
varan
upphov
grundigt
Margrethe
SKU
Family
þætt
CB
mr
velferd
inbjud
Hert
tali
##FÖR
##TID
##avtalen
arrangere
opnår
##spillere
##staltninger
##bøl
192
OVER
datteren
lamper
172
dvd
hlé
myndigheten
AW
staðfesti
Mourinho
stiftet
ejendomme
Sey
##gjafa
vesen
muligens
mú
said
##verkare
Stutt
Cli
hrey
##skru
July
Consult
search
absor
fornøjelse
barnanna
restauranten
##afólks
blande
Beskrivning
Ran
##ety
tær
overføres
kynni
Carlsen
##arbeten
målgruppen
##handlingen
##hlé
presidenten
lät
hållbart
MATCH
virksomheds
Inns
friðar
allmänhet
##OLD
korleis
Framsóknarflokksins
läkar
reparation
vibra
rense
länken
overlev
Ras
reisen
testat
avses
##yser
495
vernda
auglýst
Endast
fát
leiðarl
##kynhneig
Gade
##Histor
pest
SCAN
295
##örs
poker
##rick
kommunik
Garðabæ
##gerðin
udfører
webbplatsen
indirekte
utk
##flutt
fjölga
##førings
lægra
Vigdís
Pac
##fæ
##hat
##NINGS
##ødning
##hita
dollara
julek
virkeligheten
##verðum
##muligheder
synner
##greiðslur
Mans
kyns
skærmen
##bidrag
Isab
##ttene
##ifa
Pow
ket
##Ind
##skærm
järnväg
europeisk
Forbund
styreleder
vunnit
##åker
såkaldt
##regionen
##flokkur
##cil
Langt
Meddel
Bonde
Ferr
nøkkel
Faciliteter
syntet
NG
nybeg
##skaffe
##graden
skugga
##essu
Enhed
vinster
bróður
##celon
samarbeider
Smed
jöf
besøkende
tekniken
Angiv
green
Magnu
Advan
##læknis
##lud
Højde
perm
gítar
einstakra
dun
manip
Hildur
##setningen
Þorsteinsson
teljum
##otiske
##sbund
vefsíðu
investorer
##fokus
Fantas
einelti
##værdighed
##leverand
Samkepp
innri
##cos
kaffeb
1918
1947
förlust
##forståelse
says
våt
programmering
årsak
íslenskir
Sty
Gammel
Lady
Watch
##iteter
þjóðaratkv
betjening
##björnsson
bollen
fjölbreyt
##joy
hyresg
Jeff
klogere
strákar
##kade
Samtaka
##sgjer
erlenda
##endringer
Vanliga
##rukket
##essant
Isol
##þjálfun
Fremragende
##zone
##ogni
##ught
##uneytis
Ladda
deltagarna
Billede
Priserne
hhv
##boy
ere
tromm
angrepet
fanger
lätta
lød
örfá
##De
bis
##amar
VP
útsk
jævnligt
anfall
fylde
##OST
##enning
kanel
ældste
##afur
lack
blue
given
linjen
Italiensk
romantisk
##LAND
statlige
##börn
##pak
innkaup
ákaflega
starfsfólki
Venez
Torg
##atre
##ignok
underlagt
lampe
þörfum
Gat
##mässigt
framkvæma
##rur
Pepsi
dvel
Author
Tiv
ped
##Gu
kyrr
##visnings
##blir
Regering
##veik
trenden
##iny
Hass
badekar
##skúr
sårbare
aa
massiv
reaksjon
tittelen
##centralen
afvik
kW
politiets
Factor
##ladelse
##väma
ANN
Ástæðan
Scandic
eldsney
Kontroller
beyg
meldinger
Skott
##oes
##slegt
##adet
##sår
patients
Suðurnesjum
efterfrågan
bistå
landskapet
höggum
ýmsa
NORD
rast
selvstendig
ll
avgöra
##eor
Lyx
between
##andans
Tung
##laður
fritids
specifika
dyrene
Rønne
primær
Case
Utmärkt
##ärr
##ünder
ledde
henge
samninginn
Konsul
rá
fjölgað
þinni
undirrita
forbruker
##sbo
UFC
Sammant
Noregs
##kluder
forðast
bagefter
variation
serveras
krónunnar
Mario
skema
benen
alvorligt
skí
##ästen
sannolikt
sæsonen
value
gæng
bibel
##eltur
síðunni
ray
Edin
##stjórar
##ygen
varv
Retten
impro
recep
grejer
Sydney
##sprinc
Samtök
##ensyn
Víð
rannsak
##berättelse
##spres
kännas
##hållanden
dessert
medlemmerne
tilbudt
majoritet
koncernen
ráðuneytisins
bras
##ligvis
weekenden
##ustjóri
Skapa
##verksmið
##blöð
chauf
einstaklingur
Vordingborg
bål
##ENSK
Ragnheiður
Fashion
velkomne
utføres
##KTIV
##erie
fátt
overbevist
##vejer
anmäla
fresti
frestað
MF
##sprisen
LÆS
WC
Capital
vakkert
Hæstv
óskaði
Carina
Penn
Modellen
##entes
energis
útvarps
Charlie
breakfast
Finnst
togs
ánægj
MW
Omsorg
diff
Glostrup
vísb
foll
[...]
